<unk>	0
<s>	0
</s>	0
▁t	-0
▁a	-1
▁,	-2
▁.	-3
er	-4
in	-5
▁th	-6
en	-7
▁s	-8
▁w	-9
▁d	-10
on	-11
at	-12
▁c	-13
re	-14
▁&	-15
▁the	-16
nd	-17
▁p	-18
▁m	-19
▁o	-20
os	-21
▁i	-22
es	-23
ot	-24
ال	-25
an	-26
▁b	-27
ou	-28
qu	-29
ch	-30
ap	-31
▁h	-32
ll	-33
or	-34
▁ال	-35
▁f	-36
▁l	-37
▁in	-38
ing	-39
it	-40
apos	-41
▁to	-42
ar	-43
is	-44
▁n	-45
quot	-46
as	-47
▁I	-48
ed	-49
▁ה	-50
▁e	-51
▁g	-52
▁of	-53
om	-54
al	-55
▁u	-56
▁and	-57
et	-58
▁A	-59
ic	-60
le	-61
▁א	-62
ent	-63
▁v	-64
▁di	-65
▁that	-66
ut	-67
▁y	-68
ion	-69
▁ל	-70
st	-71
ve	-72
ים	-73
▁ש	-74
▁מ	-75
▁م	-76
ro	-77
▁S	-78
▁you	-79
am	-80
ere	-81
▁wh	-82
▁T	-83
▁we	-84
▁is	-85
▁be	-86
ות	-87
ol	-88
se	-89
ie	-90
he	-91
ow	-92
▁it	-93
▁و	-94
ra	-95
▁أ	-96
▁ב	-97
▁re	-98
ig	-99
▁ل	-100
▁st	-101
ir	-102
▁ha	-103
▁k	-104
ur	-105
ct	-106
el	-107
▁on	-108
▁W	-109
il	-110
ich	-111
all	-112
im	-113
▁un	-114
▁ب	-115
ter	-116
ay	-117
▁an	-118
▁And	-119
▁،	-120
ver	-121
▁ف	-122
est	-123
id	-124
au	-125
▁this	-126
▁se	-127
ce	-128
un	-129
▁ت	-130
▁ו	-131
▁B	-132
نا	-133
▁de	-134
▁?	-135
▁do	-136
▁M	-137
ld	-138
▁qu	-139
ke	-140
▁for	-141
▁—	-142
▁was	-143
▁כ	-144
▁ab	-145
te	-146
op	-147
▁E	-148
▁ع	-149
▁r	-150
▁com	-151
▁ne	-152
▁ه	-153
to	-154
נו	-155
▁ي	-156
▁per	-157
▁ע	-158
ia	-159
ad	-160
▁:	-161
od	-162
▁con	-163
▁li	-164
▁j	-165
▁z	-166
▁L	-167
ag	-168
▁are	-169
ly	-170
ith	-171
ess	-172
ان	-173
▁D	-174
▁al	-175
▁)	-176
▁(	-177
em	-178
ני	-179
▁N	-180
▁che	-181
▁all	-182
ri	-183
▁ك	-184
th	-185
▁في	-186
ally	-187
▁so	-188
▁י	-189
▁have	-190
▁me	-191
▁with	-192
ation	-193
▁as	-194
us	-195
▁pro	-196
▁go	-197
▁من	-198
ci	-199
▁Th	-200
▁can	-201
and	-202
▁الم	-203
▁they	-204
▁של	-205
▁P	-206
um	-207
are	-208
ant	-209
ind	-210
ul	-211
ht	-212
▁C	-213
▁ein	-214
ية	-215
ול	-216
ell	-217
▁at	-218
end	-219
out	-220
ات	-221
ore	-222
▁und	-223
ור	-224
▁H	-225
▁So	-226
ill	-227
▁ver	-228
▁le	-229
▁G	-230
ust	-231
▁wor	-232
ist	-233
▁what	-234
ost	-235
▁ch	-236
▁את	-237
זה	-238
▁not	-239
ff	-240
ould	-241
ate	-242
▁ن	-243
ck	-244
▁som	-245
▁die	-246
▁sp	-247
▁ma	-248
▁la	-249
▁about	-250
▁1	-251
pl	-252
▁ex	-253
▁The	-254
ها	-255
art	-256
▁su	-257
▁he	-258
▁im	-259
▁أن	-260
▁or	-261
og	-262
ge	-263
ما	-264
ون	-265
ers	-266
▁fr	-267
▁my	-268
ab	-269
gh	-270
ذا	-271
ight	-272
ause	-273
ok	-274
ית	-275
iv	-276
▁F	-277
ort	-278
ass	-279
▁إ	-280
▁pe	-281
▁lo	-282
ine	-283
لى	-284
iz	-285
ين	-286
▁there	-287
▁It	-288
▁O	-289
ov	-290
▁ح	-291
▁è	-292
ens	-293
ure	-294
▁U	-295
ople	-296
li	-297
▁us	-298
▁sa	-299
ity	-300
רו	-301
▁ח	-302
ار	-303
لك	-304
ive	-305
▁one	-306
▁people	-307
▁sh	-308
▁like	-309
ach	-310
▁from	-311
▁R	-312
ect	-313
▁הי	-314
▁We	-315
ber	-316
ير	-317
▁our	-318
de	-319
▁س	-320
▁kn	-321
▁pr	-322
▁الت	-323
ies	-324
one	-325
▁pre	-326
▁il	-327
▁ar	-328
ink	-329
וד	-330
▁quest	-331
▁לה	-332
▁but	-333
▁tr	-334
her	-335
▁الأ	-336
▁bec	-337
hr	-338
amo	-339
▁out	-340
▁K	-341
ear	-342
so	-343
▁der	-344
00	-345
▁just	-346
▁ق	-347
▁לא	-348
ول	-349
يا	-350
ak	-351
▁es	-352
▁ist	-353
▁by	-354
ten	-355
وا	-356
▁ا	-357
ib	-358
ast	-359
בר	-360
▁know	-361
▁man	-362
▁pl	-363
▁זה	-364
▁But	-365
ست	-366
cc	-367
▁Y	-368
ment	-369
▁2	-370
▁wir	-371
ard	-372
▁er	-373
▁thing	-374
ono	-375
▁them	-376
ung	-377
▁המ	-378
ier	-379
ato	-380
תי	-381
▁V	-382
▁these	-383
av	-384
az	-385
ann	-386
ose	-387
▁very	-388
▁In	-389
pp	-390
لا	-391
be	-392
ud	-393
▁get	-394
ري	-395
▁up	-396
לי	-397
▁think	-398
רי	-399
▁if	-400
די	-401
io	-402
ound	-403
ne	-404
uch	-405
▁ج	-406
را	-407
ond	-408
▁נ	-409
كن	-410
▁who	-411
▁J	-412
icht	-413
iamo	-414
▁te	-415
ain	-416
▁הא	-417
▁see	-418
וא	-419
دي	-420
▁zu	-421
▁das	-422
לו	-423
▁act	-424
▁going	-425
▁fa	-426
per	-427
▁po	-428
▁ת	-429
▁when	-430
▁على	-431
▁no	-432
▁had	-433
▁more	-434
▁some	-435
ame	-436
▁ק	-437
▁Wh	-438
▁en	-439
▁year	-440
ime	-441
لي	-442
וב	-443
▁non	-444
lich	-445
▁because	-446
if	-447
our	-448
ru	-449
נה	-450
ione	-451
▁ever	-452
هم	-453
▁your	-454
▁פ	-455
▁ich	-456
▁would	-457
▁comp	-458
▁were	-459
▁si	-460
ide	-461
▁their	-462
oss	-463
▁מה	-464
▁una	-465
ous	-466
▁how	-467
▁♫	-468
reat	-469
▁look	-470
▁ro	-471
itt	-472
▁which	-473
ale	-474
ack	-475
ente	-476
ans	-477
orm	-478
▁work	-479
▁dell	-480
▁want	-481
ually	-482
▁really	-483
ild	-484
app	-485
מו	-486
دا	-487
▁על	-488
▁come	-489
ano	-490
שה	-491
▁ר	-492
ben	-493
ence	-494
▁الع	-495
▁ג	-496
hing	-497
▁ش	-498
nt	-499
יו	-500
▁inter	-501
▁ما	-502
ang	-503
▁way	-504
▁ag	-505
ذه	-506
▁sc	-507
▁imp	-508
בי	-509
▁has	-510
▁world	-511
▁ev	-512
lo	-513
ite	-514
ong	-515
▁don	-516
▁time	-517
▁You	-518
▁This	-519
▁dis	-520
che	-521
יה	-522
augh	-523
ti	-524
▁will	-525
olog	-526
מה	-527
יות	-528
oll	-529
▁שה	-530
ther	-531
▁here	-532
▁des	-533
ough	-534
uf	-535
▁then	-536
▁den	-537
▁وال	-538
▁هذا	-539
▁dies	-540
ions	-541
res	-542
▁every	-543
לה	-544
▁عن	-545
ice	-546
aughter	-547
▁am	-548
ble	-549
▁sch	-550
عل	-551
נים	-552
▁لل	-553
▁into	-554
▁pi	-555
ew	-556
ذلك	-557
▁שא	-558
ور	-559
ica	-560
▁بال	-561
רא	-562
ue	-563
▁diff	-564
▁actually	-565
دة	-566
▁could	-567
▁ad	-568
▁الح	-569
▁da	-570
age	-571
ام	-572
▁ס	-573
▁sie	-574
▁ד	-575
chen	-576
שים	-577
▁now	-578
ick	-579
▁Laughter	-580
▁years	-581
mer	-582
za	-583
בל	-584
▁bu	-585
ign	-586
▁where	-587
▁Sie	-588
ür	-589
ni	-590
מי	-591
▁did	-592
وم	-593
▁say	-594
▁צ	-595
ome	-596
ון	-597
▁other	-598
▁also	-599
▁part	-600
▁كان	-601
▁St	-602
قد	-603
▁things	-604
ace	-605
ppl	-606
▁ra	-607
alk	-608
pt	-609
▁Now	-610
▁par	-611
ical	-612
nen	-613
כל	-614
ire	-615
▁They	-616
פי	-617
me	-618
▁somet	-619
▁cont	-620
▁אח	-621
▁או	-622
▁וה	-623
ip	-624
▁been	-625
wo	-626
ank	-627
▁nicht	-628
ater	-629
חי	-630
▁pers	-631
fe	-632
▁na	-633
▁ان	-634
▁cl	-635
▁von	-636
▁Q	-637
▁لا	-638
▁ז	-639
▁make	-640
ati	-641
we	-642
▁וא	-643
▁sol	-644
▁gen	-645
ft	-646
▁any	-647
▁need	-648
▁del	-649
▁tra	-650
ry	-651
▁sono	-652
ile	-653
ete	-654
▁..	-655
▁happ	-656
וק	-657
רים	-658
▁war	-659
▁مع	-660
▁dass	-661
▁start	-662
ata	-663
▁אי	-664
שי	-665
irst	-666
sel	-667
▁Qu	-668
▁אנ	-669
נות	-670
▁eine	-671
▁right	-672
cent	-673
du	-674
▁Und	-675
▁over	-676
▁Appl	-677
ake	-678
▁هذه	-679
כול	-680
ory	-681
▁מא	-682
▁differ	-683
▁her	-684
ult	-685
▁אני	-686
ree	-687
ord	-688
ount	-689
form	-690
اب	-691
▁Z	-692
▁something	-693
▁בא	-694
▁most	-695
▁auf	-696
▁الب	-697
▁real	-698
יי	-699
▁those	-700
ando	-701
▁much	-702
▁back	-703
▁than	-704
no	-705
رة	-706
قة	-707
▁הוא	-708
▁said	-709
▁call	-710
red	-711
▁two	-712
ett	-713
▁الس	-714
▁first	-715
▁mo	-716
▁למ	-717
und	-718
iss	-719
▁res	-720
ali	-721
gen	-722
ac	-723
▁new	-724
▁ide	-725
ple	-726
نت	-727
act	-728
blem	-729
▁cos	-730
مل	-731
ents	-732
▁bet	-733
▁inc	-734
men	-735
▁3	-736
▁kind	-737
مكن	-738
den	-739
▁ر	-740
▁got	-741
ittle	-742
مي	-743
חנו	-744
حد	-745
▁mit	-746
own	-747
▁lot	-748
ase	-749
▁gr	-750
▁spe	-751
ely	-752
▁little	-753
hen	-754
▁خ	-755
▁ke	-756
▁Be	-757
▁uns	-758
▁כל	-759
▁più	-760
בה	-761
▁je	-762
▁هو	-763
kt	-764
▁mod	-765
000	-766
▁she	-767
קו	-768
way	-769
▁الق	-770
▁ge	-771
▁That	-772
ني	-773
enn	-774
▁ob	-775
able	-776
že	-777
▁sy	-778
ade	-779
vel	-780
كل	-781
▁הת	-782
שו	-783
▁إلى	-784
▁אות	-785
عة	-786
▁fe	-787
▁pot	-788
▁التي	-789
ep	-790
▁under	-791
שר	-792
▁בע	-793
als	-794
ations	-795
▁במ	-796
גי	-797
▁אבל	-798
▁gra	-799
gg	-800
ah	-801
▁؟	-802
טי	-803
▁problem	-804
▁ذلك	-805
enti	-806
ated	-807
كم	-808
int	-809
▁אז	-810
ors	-811
▁tut	-812
▁هنا	-813
▁الذ	-814
ody	-815
aus	-816
ern	-817
▁even	-818
▁;	-819
ob	-820
▁לע	-821
▁life	-822
▁only	-823
▁hum	-824
att	-825
▁talk	-826
▁pu	-827
▁ص	-828
▁um	-829
▁What	-830
▁الج	-831
▁كل	-832
chn	-833
▁his	-834
▁dem	-835
▁questo	-836
סי	-837
ys	-838
ici	-839
▁-	-840
ars	-841
va	-842
▁Le	-843
▁gu	-844
ert	-845
▁He	-846
▁day	-847
ren	-848
▁ent	-849
▁ci	-850
سا	-851
▁הע	-852
ves	-853
أن	-854
ze	-855
רה	-856
▁take	-857
▁sich	-858
▁poss	-859
get	-860
ità	-861
كون	-862
▁br	-863
ght	-864
vers	-865
▁ph	-866
▁Ich	-867
oc	-868
▁יכול	-869
في	-870
pe	-871
▁many	-872
ance	-873
▁الن	-874
other	-875
ik	-876
anno	-877
rough	-878
ish	-879
لة	-880
wn	-881
bl	-882
ict	-883
כם	-884
▁different	-885
▁د	-886
▁Applause	-887
stem	-888
ont	-889
▁off	-890
▁bo	-891
▁بع	-892
▁around	-893
ste	-894
בו	-895
ene	-896
▁della	-897
▁Un	-898
▁dec	-899
ange	-900
▁There	-901
▁لي	-902
▁bra	-903
ento	-904
▁&#	-905
▁&#9	-906
ied	-907
كث	-908
▁does	-909
▁ט	-910
ותר	-911
▁wie	-912
▁tak	-913
▁20	-914
ons	-915
ili	-916
▁יש	-917
▁ط	-918
▁good	-919
▁لم	-920
▁ho	-921
▁הש	-922
▁הם	-923
▁acc	-924
▁sind	-925
ark	-926
▁sm	-927
▁through	-928
ving	-929
ין	-930
قي	-931
▁let	-932
der	-933
ائ	-934
▁ins	-935
عت	-936
ioni	-937
amente	-938
▁down	-939
▁mol	-940
iel	-941
▁comm	-942
▁الش	-943
▁שי	-944
▁الا	-945
▁inv	-946
ופ	-947
▁19	-948
▁co	-949
▁em	-950
▁يمكن	-951
lie	-952
▁ter	-953
▁import	-954
urn	-955
▁put	-956
▁ind	-957
ön	-958
خر	-959
▁find	-960
ces	-961
▁הח	-962
▁av	-963
▁5	-964
co	-965
▁יותר	-966
▁car	-967
▁app	-968
tern	-969
ko	-970
▁stud	-971
xt	-972
▁show	-973
▁מת	-974
▁עם	-975
▁הר	-976
▁الإ	-977
ומ	-978
▁haben	-979
▁tell	-980
ary	-981
▁وه	-982
اد	-983
▁ris	-984
ori	-985
über	-986
▁ed	-987
▁pol	-988
▁!	-989
▁bl	-990
▁רו	-991
▁hat	-992
▁sec	-993
ute	-994
▁أو	-995
biamo	-996
▁für	-997
▁being	-998
azione	-999
ho	-1000
sch	-1001
מש	-1002
oro	-1003
gan	-1004
mi	-1005
▁use	-1006
▁מס	-1007
ng	-1008
וג	-1009
▁same	-1010
▁10	-1011
رب	-1012
▁mi	-1013
ject	-1014
▁מע	-1015
ese	-1016
سي	-1017
▁happen	-1018
ought	-1019
צי	-1020
مر	-1021
ress	-1022
fr	-1023
▁soci	-1024
بر	-1025
وج	-1026
▁מי	-1027
▁לי	-1028
▁Well	-1029
▁alt	-1030
▁sim	-1031
po	-1032
ina	-1033
رف	-1034
day	-1035
chnolog	-1036
▁ess	-1037
▁Se	-1038
row	-1039
▁cap	-1040
illion	-1041
▁fin	-1042
سب	-1043
שב	-1044
▁Ch	-1045
وق	-1046
לא	-1047
▁fact	-1048
▁היא	-1049
▁percent	-1050
כו	-1051
▁count	-1052
▁Al	-1053
arn	-1054
▁att	-1055
▁الص	-1056
تي	-1057
▁far	-1058
ful	-1059
rit	-1060
ma	-1061
מת	-1062
▁4	-1063
▁quell	-1064
▁aus	-1065
ico	-1066
▁may	-1067
▁cons	-1068
▁try	-1069
اء	-1070
ower	-1071
بي	-1072
▁מש	-1073
▁Es	-1074
elt	-1075
▁idea	-1076
igh	-1077
ible	-1078
رك	-1079
פר	-1080
▁human	-1081
▁str	-1082
▁gi	-1083
▁big	-1084
vo	-1085
ved	-1086
ise	-1087
vi	-1088
▁If	-1089
con	-1090
fter	-1091
orn	-1092
▁doing	-1093
▁person	-1094
▁great	-1095
▁sur	-1096
مة	-1097
▁الط	-1098
▁med	-1099
يف	-1100
tor	-1101
▁ac	-1102
ari	-1103
▁cre	-1104
▁Ar	-1105
▁إن	-1106
▁sci	-1107
▁coll	-1108
ual	-1109
gr	-1110
حت	-1111
▁č	-1112
▁system	-1113
▁ser	-1114
▁mus	-1115
▁الف	-1116
▁cu	-1117
▁three	-1118
▁Ma	-1119
▁ve	-1120
▁Das	-1121
ition	-1122
▁الخ	-1123
ahr	-1124
▁wer	-1125
ically	-1126
▁kön	-1127
▁exper	-1128
▁cam	-1129
▁hel	-1130
▁אנחנו	-1131
▁...	-1132
▁child	-1133
,000	-1134
fore	-1135
▁že	-1136
▁qual	-1137
يد	-1138
old	-1139
▁pres	-1140
thing	-1141
▁היה	-1142
▁Wir	-1143
▁ask	-1144
ante	-1145
▁وا	-1146
▁called	-1147
וח	-1148
▁met	-1149
ché	-1150
self	-1151
غير	-1152
▁mat	-1153
▁هي	-1154
▁rel	-1155
وع	-1156
▁well	-1157
שות	-1158
▁Sch	-1159
▁als	-1160
▁nell	-1161
▁build	-1162
▁אם	-1163
▁الآ	-1164
stand	-1165
▁لكن	-1166
▁rem	-1167
ics	-1168
▁über	-1169
▁again	-1170
לים	-1171
צא	-1172
▁sk	-1173
hl	-1174
▁made	-1175
uto	-1176
▁nel	-1177
ven	-1178
تم	-1179
ities	-1180
▁Er	-1181
ito	-1182
ism	-1183
ולם	-1184
▁own	-1185
דים	-1186
רות	-1187
دما	-1188
▁هناك	-1189
קה	-1190
▁fam	-1191
▁الذي	-1192
▁end	-1193
▁ولك	-1194
▁produ	-1195
▁long	-1196
▁design	-1197
▁learn	-1198
ום	-1199
▁ele	-1200
enza	-1201
▁pass	-1202
cess	-1203
olo	-1204
▁technolog	-1205
▁علي	-1206
▁creat	-1207
▁nat	-1208
imes	-1209
ting	-1210
▁ض	-1211
▁An	-1212
▁fl	-1213
ty	-1214
قا	-1215
▁bas	-1216
erg	-1217
▁Thank	-1218
▁wom	-1219
ating	-1220
ution	-1221
דר	-1222
▁الر	-1223
▁important	-1224
▁ث	-1225
יתי	-1226
▁mak	-1227
▁after	-1228
ates	-1229
מר	-1230
▁trans	-1231
pr	-1232
▁today	-1233
كان	-1234
▁vo	-1235
ta	-1236
zi	-1237
דה	-1238
▁diese	-1239
▁הז	-1240
▁ktor	-1241
עים	-1242
ברים	-1243
▁change	-1244
uj	-1245
▁ولكن	-1246
▁should	-1247
les	-1248
صل	-1249
ize	-1250
ork	-1251
▁why	-1252
▁Pro	-1253
bi	-1254
▁fat	-1255
وي	-1256
מים	-1257
▁sl	-1258
▁eff	-1259
body	-1260
▁בה	-1261
▁מו	-1262
قط	-1263
▁nost	-1264
ction	-1265
▁vis	-1266
▁turn	-1267
▁כא	-1268
כי	-1269
▁ved	-1270
ood	-1271
uc	-1272
▁أي	-1273
▁vol	-1274
▁didn	-1275
▁min	-1276
▁vi	-1277
كر	-1278
▁dei	-1279
▁لدي	-1280
▁exp	-1281
ath	-1282
ita	-1283
▁its	-1284
בע	-1285
ých	-1286
ool	-1287
bo	-1288
▁num	-1289
▁started	-1290
ود	-1291
▁inform	-1292
▁bit	-1293
▁לח	-1294
▁cosa	-1295
▁cor	-1296
▁cour	-1297
▁et	-1298
ph	-1299
▁exam	-1300
▁mom	-1301
▁compl	-1302
▁fu	-1303
zione	-1304
fer	-1305
▁feel	-1306
▁era	-1307
▁last	-1308
▁cent	-1309
ien	-1310
وف	-1311
▁brain	-1312
▁thought	-1313
ily	-1314
▁cell	-1315
▁him	-1316
gli	-1317
את	-1318
▁fun	-1319
▁הזה	-1320
igen	-1321
▁understand	-1322
▁molto	-1323
▁mean	-1324
▁Re	-1325
▁قد	-1326
▁jed	-1327
▁الك	-1328
الم	-1329
▁שמ	-1330
▁interest	-1331
נית	-1332
כים	-1333
▁prim	-1334
▁לש	-1335
▁art	-1336
▁might	-1337
طي	-1338
ave	-1339
ular	-1340
▁rec	-1341
خت	-1342
▁200	-1343
דע	-1344
▁better	-1345
▁help	-1346
▁never	-1347
▁ext	-1348
من	-1349
ura	-1350
كثر	-1351
▁before	-1352
▁שלי	-1353
▁det	-1354
▁Quest	-1355
ility	-1356
gether	-1357
▁אתם	-1358
عا	-1359
▁dur	-1360
▁speci	-1361
ists	-1362
ero	-1363
▁hand	-1364
▁gli	-1365
▁mon	-1366
▁הג	-1367
با	-1368
▁einen	-1369
▁Ge	-1370
zen	-1371
esch	-1372
▁went	-1373
conom	-1374
וי	-1375
▁dire	-1376
▁second	-1377
▁כמו	-1378
▁pri	-1379
▁story	-1380
▁vie	-1381
▁op	-1382
▁Amer	-1383
בים	-1384
▁questa	-1385
▁הה	-1386
▁wenn	-1387
▁together	-1388
▁לפ	-1389
▁delle	-1390
▁able	-1391
▁abbiamo	-1392
▁מח	-1393
ini	-1394
▁belie	-1395
بل	-1396
▁few	-1397
▁el	-1398
▁نح	-1399
▁point	-1400
▁ih	-1401
فس	-1402
▁وأ	-1403
▁another	-1404
אות	-1405
▁still	-1406
esso	-1407
▁form	-1408
رض	-1409
▁play	-1410
ane	-1411
מן	-1412
▁pos	-1413
▁הפ	-1414
ug	-1415
▁נו	-1416
▁vor	-1417
▁commun	-1418
عد	-1419
خص	-1420
שת	-1421
▁6	-1422
▁tri	-1423
▁course	-1424
▁bi	-1425
شر	-1426
▁give	-1427
▁int	-1428
▁النا	-1429
אים	-1430
▁col	-1431
▁مث	-1432
fl	-1433
▁wr	-1434
▁הק	-1435
▁found	-1436
lt	-1437
▁können	-1438
mente	-1439
▁power	-1440
▁Non	-1441
uro	-1442
לק	-1443
▁partic	-1444
▁comput	-1445
▁econom	-1446
تح	-1447
▁חו	-1448
▁best	-1449
▁nie	-1450
▁gener	-1451
gn	-1452
br	-1453
ced	-1454
سم	-1455
ca	-1456
▁cr	-1457
▁ago	-1458
▁loro	-1459
▁prot	-1460
▁כך	-1461
▁cui	-1462
alth	-1463
▁שלנו	-1464
נס	-1465
▁organ	-1466
بد	-1467
▁הד	-1468
▁imag	-1469
its	-1470
▁live	-1471
▁sem	-1472
▁sort	-1473
ger	-1474
מות	-1475
▁حي	-1476
▁cost	-1477
▁شي	-1478
▁water	-1479
يل	-1480
▁לנו	-1481
▁pens	-1482
▁בש	-1483
צה	-1484
rem	-1485
ited	-1486
velop	-1487
נט	-1488
▁tem	-1489
▁came	-1490
שהו	-1491
▁Ind	-1492
oth	-1493
inn	-1494
▁beg	-1495
▁reg	-1496
ings	-1497
▁anni	-1498
כת	-1499
▁next	-1500
▁perché	-1501
נת	-1502
▁alle	-1503
▁high	-1504
▁זו	-1505
ins	-1506
osa	-1507
▁werden	-1508
lle	-1509
▁essere	-1510
▁ako	-1511
▁place	-1512
▁fare	-1513
up	-1514
ora	-1515
▁וב	-1516
▁uni	-1517
▁kid	-1518
▁mag	-1519
▁Per	-1520
▁La	-1521
anet	-1522
▁school	-1523
▁הב	-1524
▁אחד	-1525
▁ול	-1526
ines	-1527
▁old	-1528
▁لأن	-1529
arch	-1530
▁As	-1531
▁הס	-1532
▁used	-1533
endo	-1534
▁alla	-1535
▁sign	-1536
wer	-1537
▁que	-1538
▁רק	-1539
lob	-1540
ungen	-1541
כן	-1542
iert	-1543
▁When	-1544
▁each	-1545
▁sel	-1546
na	-1547
▁سي	-1548
que	-1549
▁technology	-1550
▁beh	-1551
▁Te	-1552
aut	-1553
▁oder	-1554
ורה	-1555
▁مت	-1556
▁gl	-1557
ward	-1558
▁בת	-1559
▁כדי	-1560
▁vy	-1561
read	-1562
▁كانت	-1563
▁question	-1564
ola	-1565
▁عندما	-1566
ational	-1567
▁How	-1568
▁Afr	-1569
ige	-1570
اج	-1571
▁mov	-1572
مت	-1573
cht	-1574
rov	-1575
قت	-1576
▁develop	-1577
▁الآن	-1578
▁persone	-1579
ween	-1580
▁–	-1581
قل	-1582
▁تص	-1583
حي	-1584
▁בי	-1585
▁men	-1586
▁grand	-1587
רת	-1588
כש	-1589
ative	-1590
▁לב	-1591
ized	-1592
▁pa	-1593
▁יכולים	-1594
وت	-1595
cy	-1596
▁9	-1597
▁anim	-1598
▁sag	-1599
▁تع	-1600
ures	-1601
▁between	-1602
לות	-1603
▁sein	-1604
▁small	-1605
▁anche	-1606
bab	-1607
ondo	-1608
▁too	-1609
▁data	-1610
vent	-1611
1;	-1612
▁&#91;	-1613
▁nur	-1614
▁imm	-1615
3;	-1616
▁&#93;	-1617
▁example	-1618
▁Die	-1619
▁contro	-1620
ضا	-1621
▁All	-1622
قوم	-1623
وب	-1624
▁fut	-1625
ific	-1626
اص	-1627
aph	-1628
ודה	-1629
▁כי	-1630
cept	-1631
ways	-1632
ala	-1633
ience	-1634
ky	-1635
▁stor	-1636
indi	-1637
▁להיות	-1638
▁inst	-1639
▁resp	-1640
▁chi	-1641
zt	-1642
▁dar	-1643
▁kann	-1644
ظر	-1645
▁expl	-1646
ieren	-1647
mo	-1648
شكل	-1649
iter	-1650
▁تلك	-1651
▁No	-1652
▁إذا	-1653
حدث	-1654
▁Ver	-1655
▁grow	-1656
لف	-1657
ital	-1658
▁الد	-1659
▁كنت	-1660
יים	-1661
▁آ	-1662
▁gover	-1663
izz	-1664
▁مج	-1665
דו	-1666
▁quando	-1667
▁aut	-1668
▁hanno	-1669
בור	-1670
▁Aber	-1671
ať	-1672
▁7	-1673
▁15	-1674
▁auch	-1675
reb	-1676
▁succ	-1677
حك	-1678
▁love	-1679
חוק	-1680
ät	-1681
▁לק	-1682
▁dist	-1683
▁Bec	-1684
▁אנשים	-1685
עות	-1686
▁care	-1687
▁يت	-1688
▁aber	-1689
itu	-1690
▁done	-1691
▁Because	-1692
äch	-1693
▁women	-1694
▁doll	-1695
פה	-1696
▁cer	-1697
▁einer	-1698
▁Mens	-1699
raz	-1700
▁rep	-1701
פו	-1702
ستخ	-1703
ek	-1704
▁يع	-1705
▁lar	-1706
▁solo	-1707
la	-1708
▁ass	-1709
יתה	-1710
ness	-1711
▁energ	-1712
▁30	-1713
▁doesn	-1714
ino	-1715
iness	-1716
▁8	-1717
▁looking	-1718
ياء	-1719
עי	-1720
רג	-1721
▁process	-1722
ense	-1723
ural	-1724
▁chang	-1725
דול	-1726
שוב	-1727
▁hier	-1728
▁100	-1729
مو	-1730
gram	-1731
ets	-1732
ds	-1733
▁four	-1734
▁nach	-1735
ss	-1736
▁ste	-1737
▁sub	-1738
▁سن	-1739
ideo	-1740
hn	-1741
▁بد	-1742
▁wanted	-1743
▁50	-1744
ands	-1745
▁צרי	-1746
ED	-1747
▁einem	-1748
▁aff	-1749
ibt	-1750
ope	-1751
حة	-1752
نات	-1753
ron	-1754
ott	-1755
▁read	-1756
di	-1757
▁away	-1758
▁Or	-1759
atch	-1760
▁children	-1761
▁est	-1762
▁probab	-1763
iti	-1764
riend	-1765
änd	-1766
▁mil	-1767
ret	-1768
led	-1769
▁così	-1770
▁glob	-1771
▁move	-1772
▁وب	-1773
▁pop	-1774
▁sehr	-1775
▁wird	-1776
▁light	-1777
▁hard	-1778
né	-1779
▁الناس	-1780
▁New	-1781
▁etw	-1782
▁always	-1783
▁وت	-1784
selves	-1785
▁به	-1786
oto	-1787
ian	-1788
בות	-1789
חו	-1790
▁אנו	-1791
▁polit	-1792
علم	-1793
oney	-1794
▁less	-1795
cer	-1796
▁rob	-1797
pport	-1798
▁sing	-1799
▁גם	-1800
▁reas	-1801
▁million	-1802
isch	-1803
▁pred	-1804
▁whole	-1805
▁לת	-1806
▁Sp	-1807
▁sme	-1808
▁جدا	-1809
▁trying	-1810
▁prop	-1811
▁bus	-1812
ub	-1813
▁giv	-1814
▁עו	-1815
▁test	-1816
▁hal	-1817
كت	-1818
▁lav	-1819
▁أكثر	-1820
רח	-1821
rib	-1822
▁mal	-1823
ולי	-1824
حا	-1825
ischen	-1826
▁غ	-1827
ken	-1828
אי	-1829
פת	-1830
▁الي	-1831
▁أع	-1832
▁أنه	-1833
▁prof	-1834
ider	-1835
▁believe	-1836
▁Il	-1837
ries	-1838
▁health	-1839
▁cas	-1840
▁ná	-1841
▁فقط	-1842
ments	-1843
▁Ris	-1844
▁Ab	-1845
עה	-1846
لم	-1847
נשים	-1848
▁Menschen	-1849
▁lead	-1850
ruct	-1851
ric	-1852
▁My	-1853
הם	-1854
▁tutti	-1855
▁mondo	-1856
▁working	-1857
▁country	-1858
▁Ne	-1859
▁بعض	-1860
עשה	-1861
▁dall	-1862
סט	-1863
uff	-1864
ורים	-1865
חת	-1866
▁ומ	-1867
hal	-1868
ück	-1869
קר	-1870
▁fig	-1871
▁using	-1872
بة	-1873
nect	-1874
▁טוב	-1875
ps	-1876
כה	-1877
الي	-1878
ende	-1879
cun	-1880
▁לכם	-1881
hip	-1882
▁project	-1883
فعل	-1884
ats	-1885
▁mein	-1886
▁od	-1887
arth	-1888
▁يج	-1889
חות	-1890
רך	-1891
فا	-1892
▁val	-1893
▁לעשות	-1894
▁information	-1895
▁govern	-1896
▁العالم	-1897
ím	-1898
כשיו	-1899
ather	-1900
دم	-1901
vol	-1902
▁pict	-1903
▁tutto	-1904
aft	-1905
▁ric	-1906
▁fil	-1907
▁quello	-1908
▁modo	-1909
▁friend	-1910
ican	-1911
eme	-1912
▁dann	-1913
▁ضحك	-1914
▁יוד	-1915
▁الى	-1916
▁bring	-1917
▁TED	-1918
رت	-1919
▁cur	-1920
سة	-1921
▁לג	-1922
ote	-1923
▁nu	-1924
▁book	-1925
قول	-1926
▁means	-1927
▁mich	-1928
ters	-1929
▁contin	-1930
yp	-1931
▁cir	-1932
▁compan	-1933
▁עצ	-1934
ým	-1935
נחנו	-1936
▁everything	-1937
خل	-1938
eren	-1939
▁space	-1940
▁def	-1941
▁kom	-1942
▁run	-1943
▁צחוק	-1944
▁set	-1945
▁gibt	-1946
nov	-1947
▁تح	-1948
iten	-1949
קים	-1950
ggi	-1951
ראה	-1952
▁eng	-1953
gi	-1954
▁took	-1955
▁For	-1956
شا	-1957
▁كيف	-1958
▁create	-1959
ape	-1960
عتقد	-1961
▁ans	-1962
▁thinking	-1963
ues	-1964
▁הרבה	-1965
▁لقد	-1966
ms	-1967
ör	-1968
عي	-1969
▁dav	-1970
ivid	-1971
▁ليس	-1972
▁money	-1973
▁open	-1974
▁leg	-1975
▁One	-1976
▁הצ	-1977
يرة	-1978
▁mind	-1979
▁fatto	-1980
▁wur	-1981
וכ	-1982
ريد	-1983
ract	-1984
ateri	-1985
▁publ	-1986
▁Africa	-1987
▁Is	-1988
erv	-1989
▁sú	-1990
▁She	-1991
▁تت	-1992
جل	-1993
erm	-1994
يت	-1995
▁maybe	-1996
חד	-1997
ראות	-1998
isten	-1999
▁cou	-2000
eng	-2001
uss	-2002
▁Man	-2003
▁fac	-2004
tell	-2005
▁become	-2006
ورة	-2007
▁future	-2008
anz	-2009
▁home	-2010
▁Jahr	-2011
▁dri	-2012
verse	-2013
ogr	-2014
▁mir	-2015
קום	-2016
▁food	-2017
▁societ	-2018
▁planet	-2019
▁لن	-2020
▁computer	-2021
שא	-2022
▁social	-2023
▁cle	-2024
▁lang	-2025
▁מאוד	-2026
▁number	-2027
▁الث	-2028
anti	-2029
▁Ih	-2030
par	-2031
תם	-2032
oy	-2033
ouse	-2034
▁ment	-2035
на	-2036
▁kids	-2037
קי	-2038
▁שע	-2039
▁enough	-2040
kay	-2041
▁left	-2042
▁cose	-2043
▁lu	-2044
▁parte	-2045
▁add	-2046
▁مثل	-2047
▁Applaus	-2048
ices	-2049
▁mach	-2050
▁וזה	-2051
وس	-2052
▁Let	-2053
▁نحن	-2054
▁Ze	-2055
▁š	-2056
▁bis	-2057
▁These	-2058
طيع	-2059
▁five	-2060
זי	-2061
▁program	-2062
iste	-2063
▁Me	-2064
ember	-2065
▁grou	-2066
▁mark	-2067
here	-2068
▁cult	-2069
▁head	-2070
▁היו	-2071
▁month	-2072
▁כמה	-2073
cover	-2074
▁nella	-2075
▁ست	-2076
arly	-2077
خرى	-2078
طة	-2079
bra	-2080
▁walk	-2081
▁hist	-2082
▁pret	-2083
▁شيء	-2084
iare	-2085
ستطيع	-2086
ka	-2087
most	-2088
▁עלי	-2089
▁أنا	-2090
▁quite	-2091
rop	-2092
صب	-2093
▁זאת	-2094
▁noch	-2095
كثير	-2096
וך	-2097
▁Mus	-2098
▁happened	-2099
▁getting	-2100
ارة	-2101
▁עכשיו	-2102
▁etwas	-2103
▁interesting	-2104
▁pie	-2105
irl	-2106
aps	-2107
▁ale	-2108
▁חושב	-2109
onder	-2110
▁sent	-2111
▁שנ	-2112
chi	-2113
til	-2114
▁dep	-2115
▁لت	-2116
anto	-2117
▁making	-2118
גל	-2119
▁comes	-2120
▁elect	-2121
▁sehen	-2122
▁حس	-2123
ross	-2124
▁ai	-2125
ديد	-2126
فض	-2127
شياء	-2128
▁dre	-2129
דם	-2130
▁وج	-2131
▁sense	-2132
▁Risate	-2133
▁بعد	-2134
▁body	-2135
sten	-2136
▁Intern	-2137
▁teach	-2138
iche	-2139
▁vers	-2140
▁times	-2141
▁dom	-2142
reen	-2143
▁connect	-2144
▁להת	-2145
▁stand	-2146
lla	-2147
ivo	-2148
رق	-2149
تى	-2150
▁without	-2151
ilt	-2152
uge	-2153
▁rest	-2154
azioni	-2155
▁הנ	-2156
▁qui	-2157
▁אמ	-2158
ail	-2159
bor	-2160
▁%	-2161
vir	-2162
▁moment	-2163
aces	-2164
els	-2165
▁habe	-2166
rie	-2167
▁خل	-2168
▁וכ	-2169
▁inf	-2170
▁كما	-2171
▁phys	-2172
▁due	-2173
▁čo	-2174
rá	-2175
▁uno	-2176
▁energy	-2177
▁tre	-2178
▁sens	-2179
▁وي	-2180
▁bir	-2181
gni	-2182
▁بين	-2183
در	-2184
▁די	-2185
▁incred	-2186
▁educ	-2187
ertain	-2188
▁בס	-2189
▁Welt	-2190
▁סי	-2191
▁scient	-2192
▁Fr	-2193
▁global	-2194
هر	-2195
pre	-2196
▁probably	-2197
jú	-2198
قع	-2199
▁אותו	-2200
▁fore	-2201
▁Ein	-2202
▁bre	-2203
▁Do	-2204
▁equ	-2205
▁room	-2206
zz	-2207
▁seem	-2208
▁dieser	-2209
▁questi	-2210
▁ľ	-2211
▁talking	-2212
ər	-2213
▁Here	-2214
▁שזה	-2215
ately	-2216
▁ž	-2217
▁queste	-2218
▁ihr	-2219
ün	-2220
▁countries	-2221
▁stop	-2222
▁lives	-2223
ai	-2224
▁אפ	-2225
▁complet	-2226
▁cho	-2227
ole	-2228
▁beaut	-2229
▁gro	-2230
יותר	-2231
▁mehr	-2232
▁young	-2233
وات	-2234
עת	-2235
טים	-2236
▁such	-2237
▁تم	-2238
▁dise	-2239
ying	-2240
▁בכל	-2241
▁building	-2242
ريقة	-2243
▁told	-2244
amb	-2245
ра	-2246
▁ول	-2247
▁noi	-2248
▁job	-2249
▁cond	-2250
ضع	-2251
▁half	-2252
عم	-2253
viron	-2254
▁dr	-2255
ious	-2256
▁evol	-2257
▁п	-2258
▁keep	-2259
▁Was	-2260
▁sv	-2261
▁across	-2262
▁מק	-2263
▁sound	-2264
▁stuff	-2265
kl	-2266
ريق	-2267
إن	-2268
צו	-2269
▁zur	-2270
▁coming	-2271
▁loc	-2272
▁אל	-2273
▁♪	-2274
▁pretty	-2275
▁כפי	-2276
▁mio	-2277
פור	-2278
▁port	-2279
anza	-2280
lly	-2281
▁business	-2282
▁Why	-2283
▁prima	-2284
חה	-2285
▁Pr	-2286
▁blo	-2287
▁È	-2288
iger	-2289
▁week	-2290
▁sia	-2291
▁diffic	-2292
fen	-2293
lex	-2294
▁durch	-2295
kom	-2296
▁tu	-2297
ku	-2298
▁case	-2299
▁ני	-2300
ische	-2301
▁stato	-2302
ince	-2303
▁שאני	-2304
ami	-2305
▁الوا	-2306
ellen	-2307
▁wonder	-2308
▁حتى	-2309
▁dollars	-2310
▁super	-2311
▁הט	-2312
▁يكون	-2313
رد	-2314
▁בו	-2315
▁mot	-2316
▁حيث	-2317
▁حول	-2318
▁Quindi	-2319
etto	-2320
▁side	-2321
▁reason	-2322
▁anything	-2323
كي	-2324
▁family	-2325
▁simple	-2326
▁prov	-2327
▁mor	-2328
▁materi	-2329
▁environ	-2330
je	-2331
▁rese	-2332
osti	-2333
▁allow	-2334
ogli	-2335
▁via	-2336
ner	-2337
▁איך	-2338
land	-2339
ether	-2340
▁top	-2341
▁الغ	-2342
iment	-2343
▁saw	-2344
▁تج	-2345
▁veľ	-2346
▁40	-2347
▁ثم	-2348
▁جمي	-2349
▁bene	-2350
oli	-2351
▁eas	-2352
וף	-2353
▁Earth	-2354
▁שלו	-2355
▁hope	-2356
work	-2357
ective	-2358
lichen	-2359
▁ذ	-2360
طف	-2361
▁dev	-2362
יא	-2363
▁tun	-2364
▁ואני	-2365
▁Internet	-2366
ئة	-2367
rat	-2368
▁בח	-2369
ani	-2370
▁است	-2371
▁הרא	-2372
rag	-2373
▁ز	-2374
▁else	-2375
▁viel	-2376
צר	-2377
ided	-2378
▁لأ	-2379
ever	-2380
▁dru	-2381
liche	-2382
▁makes	-2383
▁line	-2384
יון	-2385
▁ey	-2386
▁share	-2387
▁living	-2388
▁possib	-2389
▁conc	-2390
ער	-2391
▁الو	-2392
بع	-2393
يات	-2394
llo	-2395
▁ways	-2396
▁mia	-2397
▁vir	-2398
▁At	-2399
▁mem	-2400
▁Wenn	-2401
▁individ	-2402
▁Questo	-2403
▁ave	-2404
▁particular	-2405
▁וי	-2406
▁vita	-2407
▁experience	-2408
▁12	-2409
قيقة	-2410
▁Dies	-2411
▁invest	-2412
gest	-2413
▁science	-2414
imo	-2415
לת	-2416
ots	-2417
inci	-2418
▁stra	-2419
▁האלה	-2420
ny	-2421
▁face	-2422
▁asked	-2423
ional	-2424
▁قبل	-2425
▁שב	-2426
ograph	-2427
▁To	-2428
▁pun	-2429
▁dove	-2430
▁having	-2431
▁שו	-2432
▁משהו	-2433
بت	-2434
▁seen	-2435
amento	-2436
ization	-2437
▁mig	-2438
فت	-2439
فة	-2440
راء	-2441
▁billion	-2442
כות	-2443
etzt	-2444
asc	-2445
▁شخص	-2446
▁days	-2447
▁air	-2448
▁picture	-2449
▁research	-2450
▁norm	-2451
▁לד	-2452
▁הל	-2453
▁bad	-2454
▁video	-2455
▁بأن	-2456
צים	-2457
▁וע	-2458
keit	-2459
▁later	-2460
لت	-2461
iť	-2462
▁happens	-2463
אה	-2464
omet	-2465
gu	-2466
ede	-2467
rav	-2468
▁له	-2469
▁ون	-2470
▁dam	-2471
▁remember	-2472
مع	-2473
ants	-2474
▁هل	-2475
▁id	-2476
▁mar	-2477
ulation	-2478
▁thous	-2479
▁amaz	-2480
▁ממש	-2481
▁pat	-2482
▁الل	-2483
use	-2484
ined	-2485
▁18	-2486
▁שהם	-2487
ana	-2488
amm	-2489
ha	-2490
▁hour	-2491
inge	-2492
▁لذا	-2493
where	-2494
▁kon	-2495
▁char	-2496
عب	-2497
ule	-2498
▁says	-2499
▁answer	-2500
ird	-2501
▁Fra	-2502
ava	-2503
less	-2504
▁anc	-2505
ior	-2506
▁almost	-2507
▁single	-2508
سبة	-2509
▁za	-2510
iva	-2511
▁نفس	-2512
▁בר	-2513
▁goes	-2514
هد	-2515
▁inside	-2516
▁mö	-2517
▁public	-2518
▁mess	-2519
▁מב	-2520
▁York	-2521
fach	-2522
ament	-2523
▁pod	-2524
رائ	-2525
خذ	-2526
heit	-2527
▁colle	-2528
▁ri	-2529
▁מפ	-2530
▁bei	-2531
▁city	-2532
▁self	-2533
▁حسنا	-2534
▁while	-2535
▁oce	-2536
▁المت	-2537
▁environment	-2538
שוט	-2539
▁hund	-2540
▁cells	-2541
ready	-2542
▁’	-2543
era	-2544
ove	-2545
▁abs	-2546
▁level	-2547
▁הכ	-2548
bers	-2549
itive	-2550
▁exc	-2551
▁six	-2552
very	-2553
▁اليوم	-2554
▁ממ	-2555
▁chall	-2556
aten	-2557
ám	-2558
▁وهذا	-2559
פים	-2560
aff	-2561
▁discover	-2562
▁Oh	-2563
▁cal	-2564
▁mic	-2565
amp	-2566
اني	-2567
▁כאן	-2568
▁خلال	-2569
▁Im	-2570
▁غير	-2571
▁hear	-2572
▁pain	-2573
▁بت	-2574
klich	-2575
▁vš	-2576
cco	-2577
رج	-2578
lar	-2579
▁אתה	-2580
▁ult	-2581
▁חי	-2582
▁fre	-2583
▁zum	-2584
▁לו	-2585
▁دا	-2586
▁dal	-2587
▁wurde	-2588
▁Com	-2589
▁nothing	-2590
▁Euro	-2591
▁הזו	-2592
▁possible	-2593
▁Go	-2594
▁كب	-2595
▁net	-2596
▁matter	-2597
▁الكثير	-2598
▁problems	-2599
▁ogni	-2600
▁watch	-2601
חים	-2602
▁often	-2603
▁iniz	-2604
imm	-2605
لب	-2606
▁amazing	-2607
▁yet	-2608
▁ant	-2609
▁מחי	-2610
▁sure	-2611
▁certain	-2612
▁שם	-2613
▁può	-2614
▁girl	-2615
▁pati	-2616
▁sal	-2617
נג	-2618
ungs	-2619
▁unsere	-2620
NA	-2621
זו	-2622
utt	-2623
▁tempo	-2624
acht	-2625
▁ot	-2626
▁qualc	-2627
ury	-2628
issen	-2629
▁already	-2630
▁Also	-2631
vis	-2632
▁ciò	-2633
▁שאנחנו	-2634
▁mü	-2635
ages	-2636
та	-2637
يم	-2638
ield	-2639
▁wo	-2640
ering	-2641
▁יו	-2642
line	-2643
ähr	-2644
▁אותם	-2645
▁Ihnen	-2646
▁myself	-2647
▁langu	-2648
osp	-2649
رون	-2650
▁25	-2651
▁mô	-2652
▁both	-2653
▁מכ	-2654
▁oper	-2655
stead	-2656
دام	-2657
▁פע	-2658
enden	-2659
ument	-2660
▁speak	-2661
▁sw	-2662
▁community	-2663
▁decis	-2664
▁On	-2665
▁arri	-2666
צור	-2667
lia	-2668
▁whether	-2669
ash	-2670
▁שיש	-2671
▁tom	-2672
▁Zeit	-2673
▁government	-2674
▁wür	-2675
▁months	-2676
▁product	-2677
▁ideas	-2678
ensch	-2679
▁success	-2680
osed	-2681
يام	-2682
▁لذلك	-2683
▁treat	-2684
▁חד	-2685
ously	-2686
oi	-2687
▁beautif	-2688
▁exact	-2689
▁שלהם	-2690
▁arch	-2691
▁mass	-2692
יר	-2693
▁clim	-2694
▁ľud	-2695
▁ú	-2696
▁someone	-2697
▁לראות	-2698
man	-2699
▁ואז	-2700
▁roz	-2701
da	-2702
▁wrong	-2703
▁state	-2704
▁saying	-2705
▁foll	-2706
اري	-2707
▁looked	-2708
▁qualcosa	-2709
▁تق	-2710
▁incre	-2711
▁dov	-2712
כנו	-2713
טו	-2714
cn	-2715
▁zwe	-2716
▁לפני	-2717
▁De	-2718
وك	-2719
▁groß	-2720
cle	-2721
▁sul	-2722
▁fund	-2723
▁order	-2724
▁ביותר	-2725
▁למעשה	-2726
vano	-2727
▁history	-2728
▁biolog	-2729
▁mid	-2730
▁ak	-2731
side	-2732
▁serv	-2733
▁India	-2734
▁America	-2735
▁disc	-2736
سر	-2737
ختلف	-2738
▁tip	-2739
אר	-2740
▁exist	-2741
▁imagine	-2742
anc	-2743
דות	-2744
ator	-2745
▁דבר	-2746
▁cred	-2747
▁control	-2748
▁class	-2749
▁indust	-2750
▁יודעים	-2751
▁news	-2752
▁once	-2753
dle	-2754
▁وع	-2755
▁lie	-2756
▁באמת	-2757
▁Gel	-2758
▁machen	-2759
▁heart	-2760
▁prí	-2761
▁Kind	-2762
osť	-2763
▁immer	-2764
ogn	-2765
▁einfach	-2766
▁שהוא	-2767
فك	-2768
▁تكون	-2769
eln	-2770
وية	-2771
▁اله	-2772
▁within	-2773
▁hundred	-2774
▁looks	-2775
ident	-2776
طا	-2777
جا	-2778
▁ktoré	-2779
ارات	-2780
فضل	-2781
▁الوق	-2782
טה	-2783
▁phot	-2784
oot	-2785
▁stre	-2786
▁لدينا	-2787
pportun	-2788
▁wirklich	-2789
▁Okay	-2790
▁basically	-2791
ks	-2792
▁age	-2793
▁الان	-2794
כון	-2795
▁Ho	-2796
▁result	-2797
iting	-2798
iet	-2799
▁כש	-2800
iny	-2801
cial	-2802
▁أيضا	-2803
ware	-2804
▁intell	-2805
▁United	-2806
chte	-2807
▁heard	-2808
▁altro	-2809
ياة	-2810
▁land	-2811
או	-2812
▁siamo	-2813
fü	-2814
▁group	-2815
▁opportun	-2816
▁innov	-2817
zion	-2818
▁iss	-2819
▁גדול	-2820
by	-2821
فيق	-2822
الة	-2823
▁works	-2824
▁Lo	-2825
صة	-2826
▁é	-2827
▁night	-2828
ode	-2829
▁مست	-2830
פות	-2831
▁nuov	-2832
▁const	-2833
رى	-2834
ניים	-2835
▁poi	-2836
▁words	-2837
sy	-2838
ئي	-2839
▁عام	-2840
تما	-2841
▁לס	-2842
acter	-2843
▁beautiful	-2844
▁dig	-2845
▁60	-2846
▁mill	-2847
חר	-2848
bar	-2849
utes	-2850
▁kill	-2851
ка	-2852
▁occ	-2853
▁rad	-2854
▁يجب	-2855
▁entire	-2856
גיע	-2857
min	-2858
▁ze	-2859
▁Gesch	-2860
vor	-2861
▁להם	-2862
▁بشكل	-2863
▁الذين	-2864
▁trad	-2865
▁لو	-2866
ən	-2867
زي	-2868
▁ret	-2869
▁friends	-2870
ál	-2871
uen	-2872
ва	-2873
▁rag	-2874
ón	-2875
ral	-2876
bst	-2877
לתי	-2878
bs	-2879
▁music	-2880
▁interess	-2881
aster	-2882
▁pic	-2883
▁spend	-2884
ivity	-2885
ופן	-2886
▁تصفيق	-2887
ush	-2888
▁כפיים	-2889
▁true	-2890
▁piece	-2891
▁figure	-2892
kov	-2893
ניות	-2894
▁pay	-2895
ected	-2896
▁past	-2897
▁با	-2898
▁meine	-2899
▁أم	-2900
▁lim	-2901
▁מצ	-2902
ضي	-2903
oved	-2904
gs	-2905
▁tro	-2906
ינו	-2907
▁wasn	-2908
▁dra	-2909
▁ident	-2910
▁model	-2911
▁trov	-2912
▁built	-2913
ler	-2914
▁פשוט	-2915
fort	-2916
not	-2917
▁má	-2918
plic	-2919
▁guy	-2920
ند	-2921
▁places	-2922
סים	-2923
▁film	-2924
▁نت	-2925
▁בק	-2926
▁عمل	-2927
דרך	-2928
▁بح	-2929
▁مد	-2930
etic	-2931
▁מחיאות	-2932
סת	-2933
achen	-2934
▁follow	-2935
▁ur	-2936
▁Art	-2937
▁الواقع	-2938
ired	-2939
▁asp	-2940
▁weil	-2941
▁צריכים	-2942
▁writ	-2943
vero	-2944
čn	-2945
▁Can	-2946
aper	-2947
▁guard	-2948
▁io	-2949
▁mai	-2950
▁aver	-2951
▁must	-2952
▁OK	-2953
▁רוצה	-2954
elle	-2955
▁سوف	-2956
פילו	-2957
assen	-2958
▁tool	-2959
היה	-2960
com	-2961
▁until	-2962
ناء	-2963
uck	-2964
▁species	-2965
كا	-2966
mal	-2967
outh	-2968
▁priv	-2969
▁dest	-2970
ling	-2971
▁isn	-2972
▁law	-2973
▁דברים	-2974
do	-2975
▁caus	-2976
▁بها	-2977
ieder	-2978
מוד	-2979
etti	-2980
cul	-2981
▁decided	-2982
▁learned	-2983
aria	-2984
▁בכ	-2985
▁market	-2986
eah	-2987
▁appro	-2988
▁Si	-2989
▁Every	-2990
▁fall	-2991
▁woll	-2992
▁gior	-2993
agg	-2994
▁קט	-2995
▁object	-2996
▁المج	-2997
▁comun	-2998
▁Je	-2999
ential	-3000
▁כמ	-3001
▁became	-3002
▁couple	-3003
▁11	-3004
▁tele	-3005
▁though	-3006
ror	-3007
▁עד	-3008
inen	-3009
سل	-3010
▁degli	-3011
▁sta	-3012
▁supp	-3013
ima	-3014
▁cancer	-3015
مج	-3016
▁201	-3017
▁soll	-3018
▁לכ	-3019
▁vedere	-3020
▁grande	-3021
▁incl	-3022
▁الأمر	-3023
ones	-3024
▁nature	-3025
ثير	-3026
▁completely	-3027
▁Tak	-3028
▁بإ	-3029
▁ancora	-3030
▁האם	-3031
ality	-3032
▁front	-3033
fic	-3034
▁va	-3035
▁DNA	-3036
רט	-3037
▁dieses	-3038
בת	-3039
cch	-3040
▁المن	-3041
▁States	-3042
ولة	-3043
▁מר	-3044
▁struct	-3045
▁education	-3046
ולה	-3047
▁behav	-3048
▁Pl	-3049
▁present	-3050
▁أحد	-3051
غي	-3052
▁happening	-3053
وة	-3054
رات	-3055
▁anal	-3056
enge	-3057
▁הסי	-3058
▁tot	-3059
▁unser	-3060
tà	-3061
▁kle	-3062
▁quel	-3063
▁quick	-3064
▁language	-3065
▁knew	-3066
▁أخرى	-3067
▁с	-3068
▁stat	-3069
▁الأم	-3070
▁keď	-3071
▁Chr	-3072
▁hatte	-3073
▁team	-3074
▁היתה	-3075
▁large	-3076
ared	-3077
▁parl	-3078
rebbe	-3079
ثة	-3080
por	-3081
▁אחת	-3082
▁itself	-3083
▁ora	-3084
ama	-3085
صف	-3086
▁ce	-3087
זור	-3088
▁تن	-3089
▁stories	-3090
oso	-3091
▁ges	-3092
ender	-3093
▁study	-3094
▁bin	-3095
edi	-3096
ته	-3097
ولا	-3098
▁sulla	-3099
▁taking	-3100
esi	-3101
▁alcun	-3102
▁since	-3103
uje	-3104
טר	-3105
▁woman	-3106
▁exactly	-3107
▁مح	-3108
▁neur	-3109
versity	-3110
nej	-3111
ames	-3112
ives	-3113
▁חיי	-3114
▁society	-3115
▁viol	-3116
וה	-3117
hmen	-3118
▁ir	-3119
▁ref	-3120
▁intern	-3121
▁ben	-3122
▁network	-3123
▁שלא	-3124
نية	-3125
▁الوقت	-3126
▁mer	-3127
▁universe	-3128
חיים	-3129
وض	-3130
cie	-3131
▁فإن	-3132
nte	-3133
▁media	-3134
▁against	-3135
▁بدأ	-3136
▁immag	-3137
ista	-3138
انية	-3139
▁consider	-3140
▁questions	-3141
▁فعل	-3142
▁animals	-3143
▁conf	-3144
كرة	-3145
▁robot	-3146
asi	-3147
schaft	-3148
▁Pe	-3149
▁view	-3150
▁aby	-3151
▁unter	-3152
▁engine	-3153
בד	-3154
לוג	-3155
▁بأ	-3156
go	-3157
▁desc	-3158
عر	-3159
▁disease	-3160
▁Ci	-3161
mat	-3162
▁perf	-3163
▁miss	-3164
bre	-3165
▁quella	-3166
▁Am	-3167
▁natural	-3168
ordin	-3169
▁meas	-3170
▁themselves	-3171
▁word	-3172
iß	-3173
יום	-3174
ستخدام	-3175
ssen	-3176
inc	-3177
▁Af	-3178
נק	-3179
▁bamb	-3180
▁CA	-3181
▁kinds	-3182
anda	-3183
▁ourselves	-3184
▁העולם	-3185
▁أس	-3186
▁gut	-3187
▁tecn	-3188
▁Ges	-3189
ished	-3190
▁הן	-3191
▁פי	-3192
sk	-3193
▁keine	-3194
▁company	-3195
▁gets	-3196
▁house	-3197
▁رب	-3198
▁red	-3199
צת	-3200
▁Bl	-3201
omen	-3202
alt	-3203
ock	-3204
▁מג	-3205
zioni	-3206
▁ones	-3207
▁propri	-3208
inning	-3209
ppo	-3210
▁everybody	-3211
▁bar	-3212
istic	-3213
ption	-3214
▁foc	-3215
▁نوع	-3216
▁العمل	-3217
▁siste	-3218
سية	-3219
▁mother	-3220
▁وقد	-3221
شخ	-3222
▁з	-3223
▁name	-3224
לט	-3225
▁Sh	-3226
▁sex	-3227
רון	-3228
▁recent	-3229
tem	-3230
▁bro	-3231
▁Pot	-3232
▁أح	-3233
بدو	-3234
▁חלק	-3235
urs	-3236
▁ihre	-3237
▁Not	-3238
▁huge	-3239
מצא	-3240
▁sometimes	-3241
▁Br	-3242
thers	-3243
▁وفي	-3244
▁80	-3245
▁black	-3246
ujú	-3247
▁nostro	-3248
haps	-3249
▁diesem	-3250
▁sempre	-3251
جه	-3252
فع	-3253
نع	-3254
▁حد	-3255
▁היום	-3256
▁risp	-3257
pi	-3258
imento	-3259
▁הול	-3260
▁אומר	-3261
▁along	-3262
▁possiamo	-3263
▁wa	-3264
▁created	-3265
▁واحد	-3266
▁couldn	-3267
▁complex	-3268
ateg	-3269
▁Applausi	-3270
▁relations	-3271
▁Ed	-3272
itting	-3273
ctor	-3274
▁בין	-3275
وجد	-3276
▁Vor	-3277
▁müssen	-3278
ts	-3279
osc	-3280
ario	-3281
▁liter	-3282
▁invent	-3283
är	-3284
▁divent	-3285
▁שנים	-3286
لق	-3287
▁Jo	-3288
▁Leute	-3289
▁difficult	-3290
▁China	-3291
▁gente	-3292
verso	-3293
קט	-3294
face	-3295
▁ill	-3296
olut	-3297
ature	-3298
ستخدم	-3299
▁הייתי	-3300
▁worked	-3301
▁rather	-3302
▁area	-3303
صول	-3304
▁os	-3305
van	-3306
▁zá	-3307
▁situ	-3308
نة	-3309
▁meet	-3310
▁prog	-3311
hod	-3312
ply	-3313
▁בפ	-3314
pa	-3315
ony	-3316
▁הכל	-3317
bbe	-3318
שמ	-3319
عات	-3320
▁bott	-3321
▁deal	-3322
▁fast	-3323
▁aud	-3324
af	-3325
▁everyone	-3326
▁fi	-3327
▁שת	-3328
גע	-3329
▁wind	-3330
▁davvero	-3331
ister	-3332
SA	-3333
▁vari	-3334
nam	-3335
omes	-3336
▁thousands	-3337
ba	-3338
عية	-3339
▁son	-3340
▁waren	-3341
▁بل	-3342
▁للت	-3343
▁fly	-3344
abor	-3345
▁voi	-3346
▁Eng	-3347
agn	-3348
▁vost	-3349
صبح	-3350
▁všet	-3351
ystem	-3352
almente	-3353
▁fine	-3354
▁בב	-3355
pro	-3356
▁comb	-3357
وى	-3358
ides	-3359
▁sym	-3360
▁أت	-3361
▁بالن	-3362
▁199	-3363
ظام	-3364
طفال	-3365
▁בני	-3366
▁hours	-3367
▁مختلف	-3368
حظ	-3369
▁democ	-3370
וז	-3371
arm	-3372
rei	-3373
▁extra	-3374
▁archit	-3375
▁lavoro	-3376
▁Some	-3377
▁المد	-3378
בין	-3379
▁עבור	-3380
▁others	-3381
לדים	-3382
beit	-3383
▁דרך	-3384
▁diesen	-3385
zza	-3386
▁turns	-3387
▁deep	-3388
▁least	-3389
isp	-3390
▁بم	-3391
▁وم	-3392
▁typ	-3393
▁instead	-3394
▁חבר	-3395
▁Fl	-3396
▁אולי	-3397
▁ماذا	-3398
▁Leben	-3399
▁continu	-3400
▁field	-3401
ць	-3402
ello	-3403
▁God	-3404
▁dalla	-3405
▁Then	-3406
▁pick	-3407
▁hold	-3408
▁آخر	-3409
▁scop	-3410
▁האי	-3411
put	-3412
fu	-3413
imi	-3414
ster	-3415
▁bud	-3416
▁لما	-3417
▁volta	-3418
▁Europe	-3419
حتاج	-3420
resent	-3421
▁free	-3422
ump	-3423
▁בצ	-3424
▁אלה	-3425
▁Dinge	-3426
ement	-3427
vie	-3428
▁incredib	-3429
▁ידי	-3430
ונים	-3431
▁consum	-3432
▁מדי	-3433
▁amount	-3434
▁м	-3435
rund	-3436
▁ومن	-3437
▁viele	-3438
▁المست	-3439
▁du	-3440
ax	-3441
▁Jahren	-3442
▁Uni	-3443
▁Sono	-3444
▁death	-3445
▁אין	-3446
ences	-3447
ena	-3448
ركة	-3449
▁medic	-3450
glich	-3451
▁circ	-3452
utions	-3453
▁focus	-3454
▁nostra	-3455
▁students	-3456
eter	-3457
▁سأ	-3458
▁dopo	-3459
▁systems	-3460
فل	-3461
▁somebody	-3462
ples	-3463
▁Her	-3464
bt	-3465
▁inse	-3466
▁defin	-3467
▁record	-3468
▁מד	-3469
▁sil	-3470
▁appl	-3471
شخاص	-3472
▁الز	-3473
▁Ent	-3474
wards	-3475
▁gave	-3476
الية	-3477
▁changed	-3478
גלל	-3479
▁الأشياء	-3480
▁abb	-3481
בודה	-3482
ination	-3483
▁access	-3484
בוד	-3485
▁כן	-3486
▁orig	-3487
unque	-3488
▁وهو	-3489
▁respons	-3490
נד	-3491
erson	-3492
▁acqu	-3493
▁post	-3494
حدة	-3495
▁Ora	-3496
▁outside	-3497
▁communic	-3498
až	-3499
▁תודה	-3500
▁ger	-3501
▁vý	-3502
ges	-3503
▁لكم	-3504
▁وك	-3505
▁civ	-3506
▁step	-3507
▁Ph	-3508
▁esem	-3509
▁האח	-3510
▁בט	-3511
جة	-3512
▁learning	-3513
بدأ	-3514
▁lik	-3515
קות	-3516
▁ين	-3517
port	-3518
גר	-3519
ذي	-3520
ither	-3521
منا	-3522
▁lots	-3523
▁intellig	-3524
امل	-3525
ried	-3526
▁taken	-3527
▁andere	-3528
pio	-3529
▁bab	-3530
zie	-3531
▁jour	-3532
▁machine	-3533
oglio	-3534
ney	-3535
ينة	-3536
▁sagen	-3537
▁won	-3538
▁mole	-3539
מד	-3540
▁erano	-3541
ects	-3542
▁obs	-3543
▁listen	-3544
auf	-3545
▁chem	-3546
▁oh	-3547
inal	-3548
▁רואים	-3549
▁middle	-3550
volution	-3551
▁sat	-3552
סף	-3553
bero	-3554
▁cut	-3555
50	-3556
▁eines	-3557
הי	-3558
▁وق	-3559
ased	-3560
▁press	-3561
▁American	-3562
▁relig	-3563
▁אך	-3564
▁star	-3565
▁relationship	-3566
ורי	-3567
▁altri	-3568
▁jetzt	-3569
سبب	-3570
لام	-3571
gt	-3572
▁zwei	-3573
▁gew	-3574
▁early	-3575
▁Ste	-3576
▁ast	-3577
▁quanto	-3578
unden	-3579
▁culture	-3580
▁picc	-3581
▁support	-3582
▁وكان	-3583
▁Questa	-3584
ניין	-3585
ابة	-3586
▁مرة	-3587
▁אותה	-3588
▁sagte	-3589
ently	-3590
זר	-3591
▁experiment	-3592
צות	-3593
ichtig	-3594
orth	-3595
▁cities	-3596
▁يمكننا	-3597
ning	-3598
▁fant	-3599
▁كم	-3600
▁Ale	-3601
▁כשה	-3602
▁break	-3603
▁wissen	-3604
▁difference	-3605
▁Ke	-3606
מצ	-3607
▁anno	-3608
ná	-3609
▁רא	-3610
ومات	-3611
▁maj	-3612
▁انه	-3613
ظم	-3614
שית	-3615
rad	-3616
▁بالت	-3617
صد	-3618
عرف	-3619
▁ap	-3620
ומר	-3621
شار	-3622
ديدة	-3623
atter	-3624
סה	-3625
▁ربما	-3626
▁minutes	-3627
▁companies	-3628
ases	-3629
طر	-3630
▁fail	-3631
▁הכי	-3632
ining	-3633
▁micro	-3634
▁המי	-3635
▁inde	-3636
▁Come	-3637
▁century	-3638
▁אפילו	-3639
▁dir	-3640
astic	-3641
▁إنها	-3642
▁cop	-3643
▁reality	-3644
ilità	-3645
▁behind	-3646
čo	-3647
▁أخ	-3648
▁я	-3649
ovať	-3650
▁full	-3651
лі	-3652
hren	-3653
▁takes	-3654
▁storia	-3655
▁בגלל	-3656
iod	-3657
▁Jah	-3658
▁Bild	-3659
▁close	-3660
otto	-3661
▁emot	-3662
avo	-3663
▁Mi	-3664
▁seeing	-3665
ammen	-3666
met	-3667
▁אמר	-3668
raf	-3669
▁שני	-3670
air	-3671
▁tras	-3672
▁finally	-3673
не	-3674
כנולוג	-3675
ný	-3676
هي	-3677
▁שנה	-3678
▁lavor	-3679
▁interact	-3680
▁explain	-3681
▁easy	-3682
▁insp	-3683
▁chiam	-3684
▁جميع	-3685
▁happy	-3686
uti	-3687
פשר	-3688
▁بن	-3689
▁begin	-3690
▁needed	-3691
▁guys	-3692
▁image	-3693
ovan	-3694
▁זהו	-3695
asse	-3696
ife	-3697
▁wieder	-3698
cio	-3699
▁third	-3700
▁לל	-3701
▁קי	-3702
auen	-3703
▁mis	-3704
▁بي	-3705
ource	-3706
▁fav	-3707
▁local	-3708
▁hands	-3709
wick	-3710
▁eyes	-3711
▁pattern	-3712
▁أعتقد	-3713
▁Ad	-3714
▁משת	-3715
▁migli	-3716
cing	-3717
▁perhaps	-3718
itions	-3719
▁common	-3720
▁En	-3721
▁hin	-3722
▁emer	-3723
▁short	-3724
▁anderen	-3725
▁גי	-3726
▁leave	-3727
▁אלי	-3728
▁green	-3729
leich	-3730
▁alles	-3731
▁ocean	-3732
▁enorm	-3733
▁behavior	-3734
▁fear	-3735
▁bisog	-3736
▁personal	-3737
▁reach	-3738
▁Ha	-3739
▁Der	-3740
▁sit	-3741
▁parents	-3742
ولوج	-3743
▁princi	-3744
▁profess	-3745
▁period	-3746
▁16	-3747
▁given	-3748
▁באופן	-3749
uchen	-3750
▁ten	-3751
▁special	-3752
▁beginning	-3753
▁sare	-3754
gar	-3755
cks	-3756
hy	-3757
▁War	-3758
ton	-3759
ität	-3760
ليل	-3761
▁sop	-3762
ktion	-3763
gl	-3764
חק	-3765
الت	-3766
▁90	-3767
▁sua	-3768
דת	-3769
▁nut	-3770
▁עוד	-3771
▁إلي	-3772
▁glau	-3773
lleicht	-3774
ßen	-3775
▁rich	-3776
▁turned	-3777
▁Goog	-3778
▁عليه	-3779
schied	-3780
▁dream	-3781
än	-3782
alo	-3783
year	-3784
▁naš	-3785
▁מילי	-3786
▁שאתם	-3787
▁تأ	-3788
▁Tr	-3789
aggio	-3790
▁tecnolog	-3791
▁а	-3792
sen	-3793
▁population	-3794
vert	-3795
▁sor	-3796
ذهب	-3797
▁الض	-3798
▁זמן	-3799
▁rid	-3800
▁moving	-3801
▁fü	-3802
▁low	-3803
▁poz	-3804
▁necess	-3805
▁würde	-3806
חיל	-3807
نى	-3808
צב	-3809
▁detto	-3810
▁إنه	-3811
על	-3812
rew	-3813
▁مص	-3814
▁Auf	-3815
▁suo	-3816
usammen	-3817
ift	-3818
▁شك	-3819
▁transform	-3820
▁flo	-3821
▁למה	-3822
▁stess	-3823
▁Ex	-3824
▁Just	-3825
▁אחרי	-3826
▁terms	-3827
▁أنها	-3828
▁يمكنك	-3829
▁Geschich	-3830
ém	-3831
vere	-3832
▁invol	-3833
▁д	-3834
عمل	-3835
▁70	-3836
▁مر	-3837
hlen	-3838
▁stay	-3839
▁needs	-3840
ada	-3841
▁major	-3842
▁during	-3843
מונה	-3844
▁sap	-3845
▁بط	-3846
زء	-3847
▁perform	-3848
▁Wor	-3849
▁size	-3850
▁economic	-3851
بار	-3852
▁por	-3853
▁wel	-3854
gre	-3855
▁אחר	-3856
▁crit	-3857
▁longer	-3858
▁problema	-3859
▁parts	-3860
▁בדי	-3861
bbl	-3862
▁surv	-3863
igt	-3864
▁للم	-3865
▁tipo	-3866
▁Perché	-3867
▁والتي	-3868
ého	-3869
▁שכ	-3870
hood	-3871
▁seven	-3872
nis	-3873
anze	-3874
ability	-3875
ád	-3876
ention	-3877
▁שק	-3878
endere	-3879
ades	-3880
▁אותי	-3881
▁і	-3882
▁Graz	-3883
▁בעולם	-3884
▁wonderful	-3885
▁Wie	-3886
▁ולה	-3887
.000	-3888
▁squ	-3889
▁selbst	-3890
▁Abbiamo	-3891
▁svo	-3892
▁quindi	-3893
ivi	-3894
▁Gr	-3895
▁الما	-3896
▁veľmi	-3897
▁convers	-3898
מרי	-3899
ison	-3900
▁oggi	-3901
▁vid	-3902
كبر	-3903
▁costru	-3904
▁aj	-3905
üt	-3906
▁ep	-3907
▁began	-3908
▁cannot	-3909
ניה	-3910
▁giorno	-3911
▁opt	-3912
▁felt	-3913
▁Aus	-3914
▁المح	-3915
esse	-3916
▁enc	-3917
▁אלו	-3918
▁mie	-3919
▁realized	-3920
▁14	-3921
▁People	-3922
anger	-3923
▁bes	-3924
▁normal	-3925
לח	-3926
شي	-3927
▁تما	-3928
▁avere	-3929
bon	-3930
šie	-3931
ká	-3932
ches	-3933
▁Jahre	-3934
▁nei	-3935
▁damit	-3936
شت	-3937
ئية	-3938
▁infl	-3939
▁lab	-3940
▁Mar	-3941
▁May	-3942
▁opp	-3943
▁והוא	-3944
▁blue	-3945
ander	-3946
▁geht	-3947
▁prom	-3948
رية	-3949
▁cy	-3950
atori	-3951
▁surpr	-3952
▁حين	-3953
▁bel	-3954
▁simply	-3955
íme	-3956
gend	-3957
▁event	-3958
mos	-3959
▁כאשר	-3960
ume	-3961
▁Google	-3962
▁requ	-3963
▁שלכם	-3964
גים	-3965
▁send	-3966
▁phone	-3967
▁تد	-3968
جم	-3969
▁جي	-3970
arsi	-3971
▁cambi	-3972
▁arm	-3973
ox	-3974
▁حقا	-3975
▁scale	-3976
▁mu	-3977
▁x	-3978
▁נת	-3979
oud	-3980
agli	-3981
▁Video	-3982
▁ولا	-3983
▁recogn	-3984
▁yourself	-3985
עיון	-3986
▁sett	-3987
▁أننا	-3988
kommen	-3989
▁oil	-3990
▁Unter	-3991
peci	-3992
▁game	-3993
agen	-3994
▁Grazie	-3995
▁wall	-3996
apt	-3997
حث	-3998
▁مكان	-3999
angen	-4000
דיין	-4001
▁psy	-4002
idence	-4003
arli	-4004
لاء	-4005
▁approach	-4006
▁ground	-4007
▁esempio	-4008
▁powerful	-4009
eri	-4010
ources	-4011
▁humans	-4012
ächter	-4013
▁senza	-4014
▁political	-4015
mt	-4016
ساء	-4017
rodu	-4018
▁شيئ	-4019
ype	-4020
▁cool	-4021
äng	-4022
▁feed	-4023
▁cerc	-4024
▁conv	-4025
ла	-4026
▁“	-4027
▁lost	-4028
▁pract	-4029
▁punto	-4030
▁naj	-4031
▁obvi	-4032
▁שאנו	-4033
▁tried	-4034
▁Mo	-4035
▁تعلم	-4036
فكر	-4037
▁wen	-4038
▁עוב	-4039
lease	-4040
▁travel	-4041
زة	-4042
▁ja	-4043
▁يح	-4044
▁sud	-4045
ולים	-4046
istan	-4047
▁Des	-4048
▁ולא	-4049
▁thank	-4050
ní	-4051
▁ليست	-4052
▁measure	-4053
▁Our	-4054
▁forest	-4055
▁Gelächter	-4056
▁צריך	-4057
▁known	-4058
▁tutte	-4059
▁الحقيقة	-4060
ובן	-4061
rare	-4062
מנו	-4063
▁Um	-4064
ניתן	-4065
cious	-4066
cia	-4067
iem	-4068
▁nam	-4069
▁מאד	-4070
▁poor	-4071
atic	-4072
▁citt	-4073
جد	-4074
▁growth	-4075
▁ven	-4076
▁Yeah	-4077
▁„	-4078
ria	-4079
▁hor	-4080
▁dark	-4081
▁leaders	-4082
▁individu	-4083
▁emp	-4084
▁quickly	-4085
▁سنة	-4086
▁ball	-4087
▁המו	-4088
▁stata	-4089
ın	-4090
بط	-4091
▁ملي	-4092
▁ability	-4093
▁عا	-4094
▁molti	-4095
▁proprio	-4096
وان	-4097
▁ec	-4098
▁qualche	-4099
▁13	-4100
uring	-4101
▁eight	-4102
▁Reg	-4103
aring	-4104
▁esper	-4105
▁expect	-4106
▁weiter	-4107
▁môž	-4108
▁Gen	-4109
▁והם	-4110
▁strong	-4111
▁perfect	-4112
▁עושים	-4113
תה	-4114
rom	-4115
▁possono	-4116
▁farm	-4117
▁gone	-4118
ší	-4119
oni	-4120
▁Med	-4121
fully	-4122
▁realtà	-4123
▁jo	-4124
▁يد	-4125
▁zurück	-4126
▁/	-4127
▁father	-4128
פש	-4129
▁فع	-4130
▁arg	-4131
ged	-4132
▁وهي	-4133
▁sum	-4134
▁stesso	-4135
▁Lachen	-4136
▁buy	-4137
▁sun	-4138
▁بالنسبة	-4139
▁Cos	-4140
▁key	-4141
▁challenge	-4142
تها	-4143
▁أفضل	-4144
نس	-4145
لاق	-4146
▁fight	-4147
▁עי	-4148
ulti	-4149
▁interested	-4150
▁سا	-4151
chan	-4152
▁Ide	-4153
zent	-4154
יוון	-4155
▁fur	-4156
▁impact	-4157
▁wä	-4158
كة	-4159
▁protect	-4160
ila	-4161
áv	-4162
▁Yes	-4163
ression	-4164
-1	-4165
▁نا	-4166
▁fem	-4167
▁direct	-4168
▁economy	-4169
▁fish	-4170
izing	-4171
▁Right	-4172
▁علينا	-4173
zu	-4174
של	-4175
omo	-4176
▁surface	-4177
off	-4178
▁nun	-4179
▁השי	-4180
▁soft	-4181
oun	-4182
▁nelle	-4183
▁muss	-4184
▁genau	-4185
lect	-4186
▁paper	-4187
eli	-4188
ising	-4189
▁واحدة	-4190
▁Pre	-4191
ingen	-4192
▁بر	-4193
▁منذ	-4194
وني	-4195
eles	-4196
▁شكرا	-4197
▁compass	-4198
▁لنا	-4199
▁رائ	-4200
شف	-4201
▁evolution	-4202
ards	-4203
▁value	-4204
ised	-4205
▁Mal	-4206
▁שלה	-4207
ledge	-4208
▁cres	-4209
▁spent	-4210
▁المنا	-4211
▁الحياة	-4212
מית	-4213
▁חשוב	-4214
▁rip	-4215
▁nostri	-4216
oms	-4217
▁שח	-4218
▁פעם	-4219
▁changes	-4220
מא	-4221
▁pur	-4222
ains	-4223
▁tie	-4224
essun	-4225
of	-4226
▁yes	-4227
▁meno	-4228
▁altra	-4229
פק	-4230
lish	-4231
شكلة	-4232
▁clos	-4233
▁אר	-4234
▁حيات	-4235
▁risk	-4236
ורות	-4237
غيرة	-4238
▁Takže	-4239
▁importante	-4240
▁gest	-4241
▁instit	-4242
▁suff	-4243
▁на	-4244
ieme	-4245
▁born	-4246
▁يحدث	-4247
▁ktorý	-4248
▁material	-4249
▁sistema	-4250
▁redu	-4251
ude	-4252
▁whatever	-4253
زل	-4254
▁hy	-4255
▁opportunity	-4256
ächlich	-4257
abe	-4258
▁ragaz	-4259
▁term	-4260
IV	-4261
▁mili	-4262
צל	-4263
▁ice	-4264
▁plan	-4265
dy	-4266
ودة	-4267
enzi	-4268
▁disp	-4269
▁Music	-4270
▁photograph	-4271
bit	-4272
▁Sm	-4273
▁structure	-4274
▁len	-4275
▁aw	-4276
▁ار	-4277
بق	-4278
▁חיים	-4279
rove	-4280
▁מער	-4281
▁adv	-4282
▁198	-4283
avano	-4284
▁pover	-4285
uth	-4286
▁online	-4287
atta	-4288
▁לכל	-4289
▁tradition	-4290
מיד	-4291
ouch	-4292
▁sar	-4293
▁التح	-4294
▁ov	-4295
▁vill	-4296
▁either	-4297
▁בעצ	-4298
▁weeks	-4299
▁absolut	-4300
ran	-4301
ucle	-4302
▁يتم	-4303
يش	-4304
ielen	-4305
elo	-4306
▁box	-4307
▁lau	-4308
▁אדם	-4309
مس	-4310
דור	-4311
▁sitting	-4312
ology	-4313
וני	-4314
▁رأ	-4315
▁racc	-4316
▁circa	-4317
▁г	-4318
▁בז	-4319
▁sugg	-4320
▁feet	-4321
▁slow	-4322
▁fundament	-4323
▁Nun	-4324
▁alebo	-4325
▁predict	-4326
▁color	-4327
▁17	-4328
▁ثلا	-4329
▁alone	-4330
▁ti	-4331
▁vz	-4332
▁zw	-4333
▁bisogno	-4334
▁patients	-4335
▁incredible	-4336
כנס	-4337
ciamo	-4338
▁images	-4339
▁па	-4340
▁log	-4341
▁فيها	-4342
▁blood	-4343
▁prote	-4344
ucht	-4345
▁neigh	-4346
ציה	-4347
צע	-4348
שון	-4349
ram	-4350
öß	-4351
▁בג	-4352
▁שבו	-4353
▁denn	-4354
▁wouldn	-4355
▁developed	-4356
aught	-4357
▁Che	-4358
▁pra	-4359
▁ات	-4360
▁אלא	-4361
▁רוצים	-4362
unch	-4363
קרא	-4364
▁מט	-4365
▁Con	-4366
▁אפשר	-4367
▁وس	-4368
ered	-4369
▁كت	-4370
▁nem	-4371
▁möchte	-4372
▁הדבר	-4373
▁brought	-4374
▁foot	-4375
orning	-4376
▁gio	-4377
▁modern	-4378
▁pubbl	-4379
▁shows	-4380
sche	-4381
▁physical	-4382
مكان	-4383
▁based	-4384
atto	-4385
وار	-4386
▁heraus	-4387
xy	-4388
то	-4389
▁أش	-4390
▁فيه	-4391
▁dice	-4392
bens	-4393
▁World	-4394
▁במש	-4395
▁labor	-4396
▁climate	-4397
▁הנה	-4398
kon	-4399
iac	-4400
uard	-4401
▁Teil	-4402
به	-4403
قر	-4404
بات	-4405
▁John	-4406
▁تش	-4407
▁عد	-4408
chie	-4409
entially	-4410
▁נכון	-4411
▁הללו	-4412
▁schon	-4413
▁produce	-4414
▁individual	-4415
raft	-4416
▁לזה	-4417
▁הבי	-4418
▁compet	-4419
▁تخ	-4420
▁mob	-4421
▁favor	-4422
▁fos	-4423
▁nar	-4424
▁כול	-4425
▁oss	-4426
▁hundreds	-4427
▁يوم	-4428
▁viv	-4429
▁areas	-4430
ברי	-4431
íte	-4432
▁digital	-4433
▁funzion	-4434
▁Par	-4435
▁لماذا	-4436
▁numbers	-4437
▁sei	-4438
▁Ant	-4439
▁ang	-4440
▁HIV	-4441
▁Land	-4442
▁נראה	-4443
▁الأس	-4444
▁liber	-4445
▁divers	-4446
▁includ	-4447
▁average	-4448
lli	-4449
▁בנו	-4450
hemat	-4451
▁ganz	-4452
▁growing	-4453
▁momento	-4454
▁poved	-4455
▁Quando	-4456
ival	-4457
▁nucle	-4458
igkeit	-4459
▁signific	-4460
ilu	-4461
▁bed	-4462
▁plant	-4463
ga	-4464
▁cit	-4465
▁Da	-4466
▁بص	-4467
▁Tod	-4468
▁base	-4469
▁اي	-4470
ey	-4471
nten	-4472
ored	-4473
view	-4474
zzo	-4475
▁וח	-4476
ilar	-4477
▁כבר	-4478
▁تط	-4479
esto	-4480
▁magn	-4481
▁שהיא	-4482
ustain	-4483
▁ihnen	-4484
▁white	-4485
ban	-4486
▁carbon	-4487
▁books	-4488
str	-4489
▁finan	-4490
تمع	-4491
علومات	-4492
נם	-4493
▁morning	-4494
▁Fre	-4495
▁منا	-4496
▁والم	-4497
▁miles	-4498
▁فى	-4499
iech	-4500
▁tw	-4501
▁Ang	-4502
▁scientists	-4503
ны	-4504
▁fis	-4505
▁benef	-4506
حن	-4507
iver	-4508
▁أول	-4509
ograf	-4510
▁poll	-4511
▁quant	-4512
רום	-4513
ploy	-4514
▁hot	-4515
▁map	-4516
▁הראשו	-4517
תח	-4518
فر	-4519
▁מז	-4520
ills	-4521
▁živ	-4522
▁giving	-4523
▁24	-4524
ories	-4525
▁einz	-4526
▁univers	-4527
last	-4528
▁main	-4529
▁road	-4530
▁trust	-4531
erra	-4532
izione	-4533
▁Wo	-4534
▁ine	-4535
▁lung	-4536
גו	-4537
aci	-4538
▁literally	-4539
ברה	-4540
▁האלו	-4541
▁capac	-4542
atsächlich	-4543
etro	-4544
▁להשת	-4545
▁ni	-4546
▁rap	-4547
▁المتح	-4548
▁experien	-4549
book	-4550
▁המש	-4551
iden	-4552
▁Nat	-4553
▁סוג	-4554
▁كذلك	-4555
▁seems	-4556
▁البي	-4557
▁б	-4558
fahr	-4559
▁attention	-4560
▁كبير	-4561
▁Kinder	-4562
▁Mit	-4563
▁sea	-4564
ורת	-4565
مال	-4566
▁realize	-4567
▁تماما	-4568
▁technologies	-4569
▁psych	-4570
▁flow	-4571
▁animal	-4572
osto	-4573
stell	-4574
▁telling	-4575
▁أد	-4576
▁tools	-4577
▁המח	-4578
▁للأ	-4579
▁architect	-4580
▁в	-4581
▁hosp	-4582
▁vielleicht	-4583
hol	-4584
▁كنا	-4585
▁tend	-4586
▁والت	-4587
▁capital	-4588
לד	-4589
▁visual	-4590
ذن	-4591
▁eat	-4592
▁attra	-4593
▁clear	-4594
▁text	-4595
▁understanding	-4596
ida	-4597
▁draw	-4598
מין	-4599
▁heute	-4600
▁inizi	-4601
▁Hier	-4602
ensive	-4603
▁nuovo	-4604
▁ות	-4605
قدم	-4606
وقع	-4607
▁الخاص	-4608
▁starting	-4609
▁neg	-4610
▁pull	-4611
▁virt	-4612
▁أب	-4613
aged	-4614
▁fuori	-4615
▁הו	-4616
isti	-4617
▁prod	-4618
▁feeling	-4619
ium	-4620
une	-4621
▁kam	-4622
▁forward	-4623
▁zusammen	-4624
▁Dan	-4625
▁عبر	-4626
ators	-4627
قيق	-4628
inter	-4629
vail	-4630
غيير	-4631
▁bottom	-4632
רק	-4633
وسي	-4634
▁Li	-4635
▁عند	-4636
▁millions	-4637
وه	-4638
▁Così	-4639
▁sudden	-4640
פרי	-4641
▁ذات	-4642
▁maggi	-4643
▁הגדול	-4644
عادة	-4645
صر	-4646
▁خط	-4647
ingu	-4648
▁rul	-4649
enschaft	-4650
ár	-4651
▁Sc	-4652
▁write	-4653
ped	-4654
غا	-4655
eten	-4656
zo	-4657
ры	-4658
נתי	-4659
▁svilu	-4660
▁المع	-4661
رفة	-4662
▁Po	-4663
▁אחוז	-4664
etz	-4665
רוב	-4666
▁bambini	-4667
▁electric	-4668
لاف	-4669
▁وإ	-4670
▁اذا	-4671
mens	-4672
צד	-4673
▁وقت	-4674
ela	-4675
unk	-4676
▁cars	-4677
قبل	-4678
▁להי	-4679
▁הדברים	-4680
ache	-4681
cuno	-4682
ores	-4683
▁path	-4684
äd	-4685
urity	-4686
ald	-4687
▁altre	-4688
▁voice	-4689
▁במה	-4690
acy	-4691
▁دع	-4692
طع	-4693
فق	-4694
inden	-4695
▁spread	-4696
▁תי	-4697
▁مؤ	-4698
▁مق	-4699
▁Di	-4700
▁polic	-4701
ميع	-4702
ضاء	-4703
▁sic	-4704
▁מספר	-4705
▁multi	-4706
▁knowledge	-4707
ək	-4708
يانات	-4709
▁movement	-4710
▁الشي	-4711
نين	-4712
este	-4713
▁القيام	-4714
▁davon	-4715
ilmente	-4716
äh	-4717
▁soon	-4718
racy	-4719
▁قام	-4720
▁discovered	-4721
▁ובכן	-4722
for	-4723
واء	-4724
▁las	-4725
ilities	-4726
▁התח	-4727
▁بذلك	-4728
icated	-4729
▁الأرض	-4730
▁fra	-4731
▁המס	-4732
▁מקו	-4733
rand	-4734
▁Car	-4735
uk	-4736
chten	-4737
▁camb	-4738
▁bacter	-4739
▁21	-4740
▁Mars	-4741
כנולוגיה	-4742
▁mathemat	-4743
ثل	-4744
▁link	-4745
▁انها	-4746
▁extrem	-4747
יתם	-4748
▁חז	-4749
halten	-4750
▁يكن	-4751
cond	-4752
ances	-4753
▁ü	-4754
▁X	-4755
▁Geschichte	-4756
▁500	-4757
▁rim	-4758
▁negli	-4759
▁arriv	-4760
▁gesch	-4761
▁virus	-4762
entlich	-4763
▁cover	-4764
▁serious	-4765
án	-4766
ationen	-4767
uß	-4768
▁Don	-4769
موعة	-4770
▁guess	-4771
▁worth	-4772
▁development	-4773
قتص	-4774
▁št	-4775
▁casa	-4776
▁יהיה	-4777
aves	-4778
▁issue	-4779
edy	-4780
▁tas	-4781
▁עדיין	-4782
lim	-4783
▁With	-4784
▁collabor	-4785
קש	-4786
▁Ob	-4787
▁spaz	-4788
▁Beisp	-4789
▁proper	-4790
ביב	-4791
▁لإ	-4792
▁curr	-4793
▁لأنه	-4794
▁וג	-4795
▁יי	-4796
▁sever	-4797
ؤلاء	-4798
ؤال	-4799
▁لها	-4800
▁נמצא	-4801
▁فر	-4802
head	-4803
▁acqua	-4804
▁dead	-4805
▁force	-4806
▁smart	-4807
ربة	-4808
ford	-4809
עו	-4810
נוי	-4811
▁באות	-4812
ahl	-4813
▁ö	-4814
ارج	-4815
▁Su	-4816
▁تس	-4817
▁q	-4818
▁او	-4819
▁رؤ	-4820
▁div	-4821
▁among	-4822
▁English	-4823
ív	-4824
geb	-4825
▁industry	-4826
eder	-4827
asing	-4828
halb	-4829
▁autom	-4830
ismo	-4831
أة	-4832
▁دول	-4833
▁fire	-4834
▁يوجد	-4835
uzione	-4836
▁challeng	-4837
▁ומה	-4838
▁التع	-4839
▁hatten	-4840
هاية	-4841
▁בשבי	-4842
▁conse	-4843
edeut	-4844
remmo	-4845
▁Grund	-4846
col	-4847
▁rate	-4848
▁attack	-4849
▁recently	-4850
▁tiny	-4851
▁truth	-4852
▁אחרים	-4853
cient	-4854
▁Nach	-4855
asser	-4856
▁عم	-4857
▁التج	-4858
▁wrote	-4859
▁לר	-4860
▁300	-4861
▁South	-4862
▁gives	-4863
▁terror	-4864
rab	-4865
▁cli	-4866
▁sustain	-4867
nal	-4868
▁avail	-4869
pecially	-4870
▁gem	-4871
▁בעי	-4872
▁depend	-4873
▁mechan	-4874
פט	-4875
▁Problem	-4876
▁hon	-4877
ierte	-4878
ماء	-4879
▁Gl	-4880
▁choice	-4881
▁represent	-4882
لات	-4883
▁solution	-4884
كس	-4885
▁العام	-4886
▁zo	-4887
nú	-4888
bed	-4889
رس	-4890
وير	-4891
▁Ro	-4892
▁anyone	-4893
▁collect	-4894
מוש	-4895
▁rig	-4896
▁ľudí	-4897
▁سنوات	-4898
▁قال	-4899
▁similar	-4900
وء	-4901
حية	-4902
▁Diese	-4903
▁cerve	-4904
▁gab	-4905
▁girls	-4906
▁dou	-4907
▁لكي	-4908
▁center	-4909
▁מדו	-4910
▁dic	-4911
▁città	-4912
▁Na	-4913
▁nice	-4914
▁الام	-4915
▁בדיוק	-4916
▁By	-4917
▁وما	-4918
cher	-4919
áva	-4920
▁לך	-4921
▁צי	-4922
aum	-4923
ميم	-4924
▁פר	-4925
▁קצת	-4926
▁عليها	-4927
▁absolutely	-4928
▁קו	-4929
▁sond	-4930
▁ru	-4931
▁aveva	-4932
▁impar	-4933
▁creating	-4934
ustr	-4935
ontro	-4936
▁theory	-4937
▁concept	-4938
▁gar	-4939
▁cris	-4940
▁tam	-4941
▁audience	-4942
▁progress	-4943
ifica	-4944
▁أريد	-4945
cono	-4946
▁preto	-4947
▁solve	-4948
▁האנשים	-4949
erung	-4950
vamo	-4951
▁الطبي	-4952
▁Beh	-4953
icans	-4954
▁subject	-4955
▁dort	-4956
▁مس	-4957
▁cause	-4958
ency	-4959
nch	-4960
osi	-4961
▁eye	-4962
▁الحي	-4963
▁volte	-4964
sh	-4965
ביר	-4966
كذا	-4967
utto	-4968
▁stage	-4969
▁auth	-4970
▁effect	-4971
تنا	-4972
ball	-4973
▁بالم	-4974
▁confl	-4975
pend	-4976
▁asking	-4977
▁مما	-4978
affen	-4979
▁Ecco	-4980
كنولوج	-4981
▁terri	-4982
▁أج	-4983
usion	-4984
ety	-4985
▁هم	-4986
▁ў	-4987
text	-4988
צרים	-4989
▁gru	-4990
▁separ	-4991
▁strateg	-4992
▁suggest	-4993
▁Technolog	-4994
▁المر	-4995
▁song	-4996
▁changing	-4997
ás	-4998
▁developing	-4999
▁جد	-5000
▁dob	-5001
ellow	-5002
▁Brit	-5003
דש	-5004
▁running	-5005
▁achie	-5006
▁bol	-5007
atz	-5008
ief	-5009
▁resources	-5010
▁הזמן	-5011
ظهر	-5012
ccia	-5013
urch	-5014
▁فقد	-5015
▁spir	-5016
▁mentre	-5017
עט	-5018
ونا	-5019
▁Kr	-5020
ffe	-5021
▁nessun	-5022
iction	-5023
ändern	-5024
▁könnte	-5025
ibile	-5026
▁Cal	-5027
▁computers	-5028
▁jem	-5029
▁יום	-5030
weise	-5031
akt	-5032
zer	-5033
▁dati	-5034
▁kein	-5035
▁السي	-5036
▁أف	-5037
ettere	-5038
▁credo	-5039
▁stiamo	-5040
erc	-5041
▁sequ	-5042
▁shape	-5043
▁bank	-5044
кі	-5045
רונות	-5046
▁ליצור	-5047
yond	-5048
▁einige	-5049
סר	-5050
▁paar	-5051
▁patient	-5052
▁ihn	-5053
▁chance	-5054
▁ברי	-5055
▁showed	-5056
▁putting	-5057
ites	-5058
ارب	-5059
▁Look	-5060
jekt	-5061
▁poč	-5062
▁מוד	-5063
sob	-5064
▁react	-5065
▁מבי	-5066
ardi	-5067
▁dol	-5068
▁flu	-5069
▁يعني	-5070
▁techn	-5071
▁generation	-5072
▁likely	-5073
راض	-5074
▁قر	-5075
chni	-5076
osta	-5077
▁sed	-5078
▁save	-5079
▁innovation	-5080
▁capire	-5081
▁טי	-5082
▁ign	-5083
▁لان	-5084
▁يبدو	-5085
▁visto	-5086
olle	-5087
▁حال	-5088
uit	-5089
▁fix	-5090
▁שוב	-5091
▁groups	-5092
▁meiner	-5093
جتما	-5094
▁especially	-5095
סק	-5096
oria	-5097
▁drei	-5098
▁svet	-5099
▁available	-5100
▁compassion	-5101
▁انت	-5102
וכלו	-5103
▁clin	-5104
وز	-5105
unt	-5106
ليم	-5107
▁Dr	-5108
▁rius	-5109
▁الأخ	-5110
▁civil	-5111
ym	-5112
emente	-5113
cchi	-5114
▁doc	-5115
▁baby	-5116
▁First	-5117
▁fort	-5118
▁מפני	-5119
▁Where	-5120
▁designed	-5121
▁ero	-5122
▁دائ	-5123
▁drive	-5124
▁tecnologia	-5125
now	-5126
▁letz	-5127
▁touch	-5128
ئل	-5129
ify	-5130
▁reasons	-5131
▁zv	-5132
▁becomes	-5133
▁אוה	-5134
ona	-5135
▁רי	-5136
▁cel	-5137
▁يقوم	-5138
▁חושבים	-5139
▁už	-5140
▁sell	-5141
ذكر	-5142
▁Dav	-5143
▁type	-5144
▁jeden	-5145
▁andare	-5146
▁potete	-5147
▁lay	-5148
▁inte	-5149
▁stru	-5150
▁لك	-5151
▁sost	-5152
▁Har	-5153
▁wollen	-5154
غة	-5155
▁مختلفة	-5156
bol	-5157
▁report	-5158
ažd	-5159
▁fair	-5160
▁several	-5161
▁Chris	-5162
ليس	-5163
▁מקום	-5164
▁medical	-5165
▁Min	-5166
▁نظر	-5167
klad	-5168
ming	-5169
▁miei	-5170
▁تحت	-5171
ial	-5172
▁mount	-5173
▁عالم	-5174
▁הייתה	-5175
rim	-5176
▁القر	-5177
▁طريق	-5178
uten	-5179
▁verste	-5180
קרה	-5181
▁قاد	-5182
▁החיים	-5183
▁wurden	-5184
wort	-5185
▁imposs	-5186
ريب	-5187
حاول	-5188
▁software	-5189
▁giust	-5190
▁أق	-5191
erto	-5192
▁talked	-5193
▁تقوم	-5194
▁fosse	-5195
▁towards	-5196
ieg	-5197
▁verb	-5198
▁darüber	-5199
▁rif	-5200
▁הנו	-5201
ission	-5202
▁الشخص	-5203
▁أنت	-5204
▁verw	-5205
▁insieme	-5206
▁viene	-5207
ət	-5208
▁died	-5209
▁activ	-5210
eth	-5211
▁Ü	-5212
▁נה	-5213
▁Afgh	-5214
▁grandi	-5215
▁West	-5216
ja	-5217
▁בד	-5218
▁196	-5219
▁עומ	-5220
▁bess	-5221
ette	-5222
▁schw	-5223
▁كثير	-5224
▁كبيرة	-5225
▁tatsächlich	-5226
ffen	-5227
ived	-5228
▁foss	-5229
▁prec	-5230
פל	-5231
fall	-5232
קד	-5233
▁gel	-5234
▁incredibly	-5235
▁immedi	-5236
▁proget	-5237
▁Fe	-5238
ís	-5239
▁deb	-5240
▁rules	-5241
▁creare	-5242
▁וש	-5243
▁extraordin	-5244
ль	-5245
▁effici	-5246
كية	-5247
▁okay	-5248
בוה	-5249
▁sam	-5250
▁lived	-5251
▁werde	-5252
əl	-5253
apan	-5254
▁national	-5255
اه	-5256
▁والأ	-5257
▁organiz	-5258
▁ונ	-5259
▁bigger	-5260
▁Vi	-5261
▁ju	-5262
▁beyond	-5263
▁milioni	-5264
▁cervello	-5265
▁stanno	-5266
mit	-5267
לית	-5268
inese	-5269
וצא	-5270
aking	-5271
▁toto	-5272
20	-5273
▁بسبب	-5274
▁rece	-5275
▁sounds	-5276
לב	-5277
▁gas	-5278
ascin	-5279
▁device	-5280
▁הראשון	-5281
▁meaning	-5282
▁dro	-5283
zä	-5284
▁search	-5285
▁tým	-5286
inger	-5287
▁التص	-5288
▁neighbor	-5289
▁haven	-5290
▁action	-5291
▁Who	-5292
▁والذي	-5293
ديم	-5294
شرة	-5295
▁svoj	-5296
▁منها	-5297
▁pictures	-5298
ünd	-5299
▁issues	-5300
▁revolution	-5301
רכ	-5302
uta	-5303
▁except	-5304
▁nostre	-5305
▁sle	-5306
▁Maybe	-5307
▁كانوا	-5308
▁alcuni	-5309
ging	-5310
▁fot	-5311
▁effective	-5312
נן	-5313
▁197	-5314
▁quelle	-5315
cl	-5316
▁famil	-5317
▁function	-5318
▁aren	-5319
▁plants	-5320
arden	-5321
▁dimens	-5322
▁account	-5323
נטי	-5324
▁və	-5325
▁voglio	-5326
عدة	-5327
essen	-5328
▁الاست	-5329
bro	-5330
▁fol	-5331
▁temper	-5332
פיק	-5333
adre	-5334
תיים	-5335
▁Mon	-5336
▁distrib	-5337
גות	-5338
ujem	-5339
يج	-5340
idge	-5341
əy	-5342
▁أما	-5343
▁gehen	-5344
ולוג	-5345
▁viac	-5346
▁Afghan	-5347
▁unserer	-5348
▁playing	-5349
ואו	-5350
och	-5351
itch	-5352
etta	-5353
pped	-5354
▁vám	-5355
ennen	-5356
▁أكبر	-5357
rum	-5358
▁Tw	-5359
▁donne	-5360
فكير	-5361
▁basic	-5362
▁forse	-5363
phere	-5364
ürlich	-5365
▁primo	-5366
والي	-5367
▁بدأت	-5368
▁corre	-5369
▁evidence	-5370
mp	-5371
▁Geh	-5372
▁čas	-5373
▁قلي	-5374
▁المتحدة	-5375
▁byť	-5376
▁clean	-5377
▁involved	-5378
ורך	-5379
▁erst	-5380
▁هؤلاء	-5381
ובה	-5382
▁Ak	-5383
ersch	-5384
fol	-5385
▁sondern	-5386
▁potential	-5387
اقة	-5388
▁daz	-5389
▁רבה	-5390
ounds	-5391
▁Lond	-5392
▁seine	-5393
▁שלך	-5394
▁knows	-5395
▁Beispiel	-5396
atore	-5397
▁فكرة	-5398
▁descri	-5399
▁journey	-5400
issenschaft	-5401
▁weiß	-5402
▁El	-5403
▁zač	-5404
▁apart	-5405
▁Pol	-5406
▁solar	-5407
▁situation	-5408
▁particularly	-5409
▁תח	-5410
ilomet	-5411
▁citiz	-5412
مات	-5413
▁בערך	-5414
▁עושה	-5415
▁showing	-5416
▁Of	-5417
illi	-5418
razy	-5419
▁מיי	-5420
▁Stud	-5421
▁danger	-5422
טח	-5423
▁להבין	-5424
يرا	-5425
لايا	-5426
▁street	-5427
ieto	-5428
بب	-5429
בול	-5430
▁ניתן	-5431
▁הצי	-5432
▁شيئا	-5433
ма	-5434
▁מכו	-5435
▁persp	-5436
itori	-5437
▁fond	-5438
▁الطريقة	-5439
ya	-5440
ويل	-5441
▁Dar	-5442
▁למע	-5443
▁male	-5444
▁bom	-5445
▁screen	-5446
פס	-5447
▁vom	-5448
fortun	-5449
▁camera	-5450
ساس	-5451
▁drug	-5452
▁בתוך	-5453
▁לחשוב	-5454
▁Kon	-5455
▁קשה	-5456
▁הזאת	-5457
▁البشر	-5458
▁العديد	-5459
فهم	-5460
▁يم	-5461
▁message	-5462
▁character	-5463
▁ш	-5464
▁יודע	-5465
▁communities	-5466
▁stick	-5467
▁יכולה	-5468
▁discuss	-5469
עם	-5470
▁determ	-5471
زيد	-5472
▁מסוג	-5473
▁speed	-5474
الك	-5475
ährend	-5476
▁milit	-5477
hi	-5478
rete	-5479
▁pen	-5480
▁tru	-5481
▁pensare	-5482
bes	-5483
▁pou	-5484
▁صحي	-5485
irn	-5486
▁أجل	-5487
▁Japan	-5488
ضية	-5489
ales	-5490
▁stati	-5491
▁threat	-5492
▁Bu	-5493
▁rit	-5494
▁באי	-5495
▁camp	-5496
▁molte	-5497
əs	-5498
▁ç	-5499
▁rock	-5500
וריה	-5501
▁Char	-5502
▁Pens	-5503
לום	-5504
anzen	-5505
▁Cent	-5506
راق	-5507
▁corn	-5508
▁drugs	-5509
▁detail	-5510
lad	-5511
▁dô	-5512
arily	-5513
▁Hand	-5514
▁diagn	-5515
▁rele	-5516
▁schools	-5517
▁certainly	-5518
▁led	-5519
رنت	-5520
▁mys	-5521
▁After	-5522
ibility	-5523
öt	-5524
▁نعم	-5525
icians	-5526
▁život	-5527
▁bal	-5528
ín	-5529
▁Most	-5530
▁fundamental	-5531
hu	-5532
هة	-5533
lam	-5534
▁nap	-5535
▁sarebbe	-5536
אן	-5537
طل	-5538
زا	-5539
oring	-5540
ثر	-5541
ومة	-5542
▁الفي	-5543
▁לצ	-5544
▁cat	-5545
ساعد	-5546
avig	-5547
▁pal	-5548
inate	-5549
▁يقول	-5550
▁בחי	-5551
▁sempl	-5552
▁violence	-5553
hm	-5554
▁التق	-5555
▁trees	-5556
▁qualcuno	-5557
isce	-5558
▁mort	-5559
▁track	-5560
▁African	-5561
enie	-5562
▁האר	-5563
▁niečo	-5564
▁سيكون	-5565
عض	-5566
اجة	-5567
▁dobbiamo	-5568
ні	-5569
ذج	-5570
▁במקום	-5571
ference	-5572
▁examples	-5573
▁contrib	-5574
▁wäre	-5575
▁Als	-5576
▁eig	-5577
▁nás	-5578
ified	-5579
▁medicine	-5580
▁scientific	-5581
▁nine	-5582
frast	-5583
▁نقوم	-5584
▁Lebens	-5585
وص	-5586
▁general	-5587
king	-5588
ודות	-5589
▁security	-5590
asch	-5591
▁bod	-5592
ichen	-5593
▁داخل	-5594
▁Face	-5595
▁neue	-5596
ضر	-5597
▁מסת	-5598
▁جزء	-5599
▁Million	-5600
▁parlare	-5601
يب	-5602
glio	-5603
áci	-5604
▁repl	-5605
▁torn	-5606
▁creative	-5607
وح	-5608
▁Una	-5609
▁già	-5610
▁besch	-5611
▁vu	-5612
מיים	-5613
▁pom	-5614
igher	-5615
▁الأن	-5616
▁Č	-5617
room	-5618
▁bill	-5619
فية	-5620
▁مهم	-5621
▁طريقة	-5622
גש	-5623
für	-5624
هما	-5625
▁Kl	-5626
öglich	-5627
▁يست	-5628
▁list	-5629
iad	-5630
▁movie	-5631
ring	-5632
▁onto	-5633
▁wahr	-5634
▁lif	-5635
▁השני	-5636
erve	-5637
▁starts	-5638
▁vision	-5639
ديث	-5640
▁דול	-5641
▁hit	-5642
orso	-5643
ركات	-5644
▁spre	-5645
▁أص	-5646
هتما	-5647
▁particip	-5648
ilo	-5649
حلة	-5650
antly	-5651
▁ואנחנו	-5652
oming	-5653
▁controll	-5654
▁حدث	-5655
olare	-5656
▁connected	-5657
دت	-5658
come	-5659
נטר	-5660
▁wants	-5661
ných	-5662
▁denke	-5663
▁walking	-5664
nehmen	-5665
▁stessa	-5666
▁وح	-5667
▁החי	-5668
imate	-5669
▁משו	-5670
▁מדה	-5671
▁المص	-5672
▁writing	-5673
▁exciting	-5674
▁lui	-5675
ctors	-5676
enz	-5677
agine	-5678
rebbero	-5679
ery	-5680
arlo	-5681
▁Wer	-5682
▁pes	-5683
▁שבה	-5684
▁capt	-5685
▁وهذه	-5686
▁ready	-5687
▁results	-5688
▁pia	-5689
▁context	-5690
▁veramente	-5691
esen	-5692
▁wichtig	-5693
▁المث	-5694
▁higher	-5695
▁تعرف	-5696
▁conscious	-5697
▁الآخر	-5698
▁ol	-5699
more	-5700
▁moral	-5701
▁يق	-5702
▁nov	-5703
ierung	-5704
▁moved	-5705
▁לדבר	-5706
ex	-5707
mitt	-5708
▁boy	-5709
▁safe	-5710
לך	-5711
▁tar	-5712
▁جديدة	-5713
▁further	-5714
גד	-5715
rest	-5716
▁applic	-5717
▁ricord	-5718
▁crazy	-5719
ילו	-5720
▁بما	-5721
▁carry	-5722
nell	-5723
▁denken	-5724
▁נפ	-5725
beiten	-5726
▁macch	-5727
▁peace	-5728
▁accept	-5729
▁entwick	-5730
▁حا	-5731
▁role	-5732
▁largest	-5733
▁במשך	-5734
▁introdu	-5735
▁San	-5736
▁אותנו	-5737
▁chemical	-5738
▁כת	-5739
ugen	-5740
▁Cl	-5741
▁af	-5742
▁alg	-5743
▁פני	-5744
▁größ	-5745
▁במי	-5746
רבה	-5747
▁scu	-5748
كنولوجيا	-5749
▁continue	-5750
▁grew	-5751
▁الشيء	-5752
▁choose	-5753
ils	-5754
▁فت	-5755
▁cele	-5756
▁dost	-5757
▁push	-5758
▁secret	-5759
▁college	-5760
▁persona	-5761
rage	-5762
▁frag	-5763
ressed	-5764
чы	-5765
val	-5766
▁בסי	-5767
▁Inter	-5768
ured	-5769
▁הבע	-5770
וע	-5771
▁تر	-5772
▁mine	-5773
▁bedeut	-5774
aro	-5775
ניי	-5776
▁agric	-5777
▁biggest	-5778
▁everywhere	-5779
дз	-5780
gef	-5781
▁meant	-5782
أك	-5783
▁الموا	-5784
ır	-5785
سات	-5786
arci	-5787
▁web	-5788
חס	-5789
וקים	-5790
▁בעצם	-5791
▁לגבי	-5792
▁anybody	-5793
▁ויש	-5794
▁farlo	-5795
▁allora	-5796
ollar	-5797
how	-5798
utz	-5799
oles	-5800
ionale	-5801
▁gala	-5802
▁400	-5803
▁projects	-5804
▁extraordinary	-5805
▁code	-5806
▁finden	-5807
▁להשתמש	-5808
اريخ	-5809
▁קור	-5810
▁sembra	-5811
▁Are	-5812
▁democracy	-5813
انب	-5814
▁לט	-5815
▁caso	-5816
▁avete	-5817
žit	-5818
like	-5819
▁للح	-5820
▁zero	-5821
▁return	-5822
▁ď	-5823
▁بالفعل	-5824
▁תמיד	-5825
▁bacteria	-5826
▁TV	-5827
▁lì	-5828
▁favorite	-5829
▁נק	-5830
شروع	-5831
▁sogar	-5832
rato	-5833
▁وضع	-5834
▁Sw	-5835
useum	-5836
▁bere	-5837
▁denen	-5838
▁الإنت	-5839
▁gleich	-5840
▁kommen	-5841
▁international	-5842
itter	-5843
▁atmos	-5844
▁macht	-5845
▁استخدام	-5846
▁spo	-5847
▁problemi	-5848
ľa	-5849
طق	-5850
▁הרו	-5851
▁Toto	-5852
▁batt	-5853
▁fanno	-5854
כר	-5855
▁ok	-5856
▁commer	-5857
▁poverty	-5858
▁חשב	-5859
▁الأو	-5860
▁Wasser	-5861
▁domanda	-5862
▁بش	-5863
▁scri	-5864
▁بهذا	-5865
▁insegn	-5866
▁specie	-5867
▁gemacht	-5868
▁الأطفال	-5869
ле	-5870
▁המת	-5871
hand	-5872
onse	-5873
▁mož	-5874
▁מהם	-5875
▁skin	-5876
ציא	-5877
iven	-5878
▁عدد	-5879
▁North	-5880
tschaft	-5881
erst	-5882
iben	-5883
▁wish	-5884
▁breat	-5885
اح	-5886
▁1.	-5887
▁zd	-5888
▁وأن	-5889
▁وهنا	-5890
▁materials	-5891
▁גר	-5892
light	-5893
▁individuals	-5894
cken	-5895
الات	-5896
▁dazu	-5897
▁faster	-5898
▁objects	-5899
▁בצורה	-5900
▁bur	-5901
▁gegen	-5902
▁glaube	-5903
▁natura	-5904
▁jedn	-5905
▁colleag	-5906
▁student	-5907
▁المعلومات	-5908
▁ord	-5909
▁Mich	-5910
▁door	-5911
حظة	-5912
داد	-5913
▁amb	-5914
▁Germ	-5915
keiten	-5916
▁يش	-5917
▁quasi	-5918
▁families	-5919
▁השת	-5920
enten	-5921
▁Even	-5922
פול	-5923
▁בלי	-5924
▁כשא	-5925
מם	-5926
ops	-5927
▁AI	-5928
▁quality	-5929
hrt	-5930
פון	-5931
ably	-5932
▁obviously	-5933
▁USA	-5934
▁syn	-5935
▁minds	-5936
▁einmal	-5937
▁نستطيع	-5938
▁potrebbe	-5939
▁birth	-5940
▁וכך	-5941
ruction	-5942
▁zwischen	-5943
oper	-5944
▁150	-5945
▁Tag	-5946
▁قمنا	-5947
▁genes	-5948
▁ricer	-5949
▁skuto	-5950
גה	-5951
▁2000	-5952
▁diverse	-5953
rod	-5954
▁tree	-5955
يني	-5956
rial	-5957
▁חדש	-5958
▁Kom	-5959
▁ואם	-5960
▁City	-5961
▁ents	-5962
▁Today	-5963
▁unha	-5964
חור	-5965
▁למצ	-5966
▁perm	-5967
▁thousand	-5968
cape	-5969
▁جيد	-5970
▁batter	-5971
▁gerade	-5972
ray	-5973
▁fill	-5974
▁daughter	-5975
kej	-5976
▁Ken	-5977
▁לדע	-5978
▁פחות	-5979
ضح	-5980
▁fino	-5981
▁chied	-5982
▁היינו	-5983
▁notice	-5984
قائ	-5985
▁פת	-5986
▁הדרך	-5987
ground	-5988
▁adult	-5989
▁totally	-5990
▁funktion	-5991
edom	-5992
▁Mom	-5993
estern	-5994
▁graph	-5995
▁penso	-5996
ös	-5997
طب	-5998
cri	-5999
izzare	-6000
بيل	-6001
vece	-6002
aggi	-6003
▁concl	-6004
▁الولا	-6005
▁تعلمون	-6006
да	-6007
▁ללא	-6008
▁Frage	-6009
dem	-6010
▁toho	-6011
▁resist	-6012
קס	-6013
רגע	-6014
▁مش	-6015
▁geben	-6016
▁source	-6017
▁hospital	-6018
▁conversation	-6019
▁hät	-6020
osing	-6021
▁cresc	-6022
▁National	-6023
▁watching	-6024
ara	-6025
لية	-6026
ifici	-6027
ريبا	-6028
▁rights	-6029
▁supposed	-6030
▁Afghanistan	-6031
▁bolo	-6032
▁stri	-6033
▁lower	-6034
izi	-6035
לנו	-6036
▁Rob	-6037
▁prá	-6038
▁vacc	-6039
▁letter	-6040
▁بطريقة	-6041
▁ка	-6042
▁forma	-6043
▁including	-6044
وري	-6045
▁עשו	-6046
▁table	-6047
▁urban	-6048
▁conflict	-6049
▁perspective	-6050
vit	-6051
▁مخ	-6052
icle	-6053
▁המוח	-6054
▁blind	-6055
▁הראשונה	-6056
yl	-6057
▁vyt	-6058
▁above	-6059
▁named	-6060
▁נע	-6061
stit	-6062
▁tum	-6063
حيط	-6064
▁اخت	-6065
▁near	-6066
▁يعمل	-6067
▁Inform	-6068
داء	-6069
▁ohne	-6070
▁דו	-6071
unkt	-6072
ובי	-6073
▁לנ	-6074
▁näch	-6075
▁quale	-6076
▁response	-6077
ומים	-6078
▁zeigen	-6079
urt	-6080
▁sf	-6081
▁موج	-6082
iglia	-6083
▁shown	-6084
▁facendo	-6085
▁successo	-6086
▁buildings	-6087
▁Io	-6088
▁يأ	-6089
▁End	-6090
▁wife	-6091
▁בדרך	-6092
▁نظام	-6093
ча	-6094
תיד	-6095
מנות	-6096
▁kommt	-6097
▁motiv	-6098
▁print	-6099
▁الأول	-6100
▁verso	-6101
▁الأشخاص	-6102
▁increase	-6103
וס	-6104
غم	-6105
▁mut	-6106
▁office	-6107
▁complicated	-6108
▁не	-6109
▁بالط	-6110
▁ית	-6111
äč	-6112
▁rapp	-6113
▁מערכת	-6114
isms	-6115
▁gef	-6116
لس	-6117
▁فهم	-6118
▁aiut	-6119
▁System	-6120
lik	-6121
▁תר	-6122
▁vic	-6123
▁passion	-6124
▁nuclear	-6125
▁Any	-6126
▁vlast	-6127
▁כמובן	-6128
ديو	-6129
▁فه	-6130
▁waste	-6131
▁Prozent	-6132
وسيق	-6133
▁لهذا	-6134
▁avuto	-6135
▁doctor	-6136
▁تستطيع	-6137
ows	-6138
▁أمر	-6139
غاية	-6140
▁بالأ	-6141
▁Those	-6142
هور	-6143
▁Ber	-6144
▁futuro	-6145
▁مجموعة	-6146
▁בהם	-6147
▁lose	-6148
▁machines	-6149
▁positive	-6150
▁Ja	-6151
▁במו	-6152
▁للا	-6153
▁lands	-6154
▁Chinese	-6155
▁dai	-6156
▁Afri	-6157
▁wild	-6158
▁הולך	-6159
▁المس	-6160
bu	-6161
aub	-6162
בלים	-6163
▁jobs	-6164
▁pote	-6165
▁optim	-6166
▁private	-6167
ido	-6168
amenti	-6169
▁jemand	-6170
▁eventually	-6171
ids	-6172
▁verschied	-6173
פוך	-6174
▁وعن	-6175
▁cross	-6176
▁models	-6177
▁meglio	-6178
▁improve	-6179
▁Facebook	-6180
soci	-6181
▁ann	-6182
▁Eine	-6183
▁Arbeit	-6184
▁disapp	-6185
▁למי	-6186
▁disse	-6187
irs	-6188
הלי	-6189
▁لح	-6190
عمال	-6191
▁لهم	-6192
▁معا	-6193
▁אף	-6194
▁senso	-6195
▁launch	-6196
▁פה	-6197
ogen	-6198
vest	-6199
imens	-6200
▁products	-6201
▁attraverso	-6202
cce	-6203
▁جعل	-6204
▁každ	-6205
▁dollari	-6206
▁hl	-6207
▁posto	-6208
ריות	-6209
▁Bew	-6210
▁pan	-6211
▁ktorá	-6212
cked	-6213
▁util	-6214
▁radio	-6215
▁stars	-6216
▁essentially	-6217
ört	-6218
▁crisis	-6219
aly	-6220
▁شئ	-6221
asso	-6222
▁bri	-6223
abile	-6224
▁العل	-6225
▁worse	-6226
▁altern	-6227
▁nichts	-6228
▁village	-6229
▁כזה	-6230
▁amer	-6231
▁irgend	-6232
▁ambi	-6233
▁והיא	-6234
▁זוהי	-6235
▁Smiech	-6236
פרים	-6237
▁older	-6238
▁tieto	-6239
▁מישהו	-6240
▁activity	-6241
dr	-6242
▁sou	-6243
▁כעת	-6244
atica	-6245
▁veng	-6246
▁risult	-6247
ראו	-6248
▁pieces	-6249
▁pros	-6250
▁rain	-6251
▁Comput	-6252
▁iP	-6253
▁Ira	-6254
▁ries	-6255
▁ľudia	-6256
▁quot	-6257
شة	-6258
▁أنني	-6259
ערכת	-6260
שבים	-6261
▁pok	-6262
▁decision	-6263
وط	-6264
▁אור	-6265
▁wait	-6266
▁potom	-6267
▁extremely	-6268
▁نحو	-6269
arten	-6270
▁maggior	-6271
▁respond	-6272
ritt	-6273
lio	-6274
▁מידע	-6275
▁standing	-6276
▁kl	-6277
▁ihren	-6278
▁למצוא	-6279
▁treatment	-6280
משים	-6281
▁لديهم	-6282
▁nobody	-6283
▁finding	-6284
▁sto	-6285
▁פרו	-6286
▁بدا	-6287
▁sieht	-6288
▁taught	-6289
▁passiert	-6290
ppe	-6291
בית	-6292
▁רע	-6293
▁hov	-6294
▁المخ	-6295
▁cases	-6296
akes	-6297
▁roll	-6298
ager	-6299
▁rot	-6300
▁konnte	-6301
▁cominci	-6302
▁pretože	-6303
äs	-6304
יוחד	-6305
▁שאי	-6306
▁pack	-6307
▁German	-6308
▁נח	-6309
▁تب	-6310
ליים	-6311
astanza	-6312
▁integr	-6313
▁إذن	-6314
inare	-6315
▁teachers	-6316
▁Fin	-6317
▁appear	-6318
▁Act	-6319
▁אשר	-6320
▁دولار	-6321
כב	-6322
▁dafür	-6323
▁للغاية	-6324
▁hop	-6325
▁earli	-6326
▁Design	-6327
▁Ag	-6328
▁מל	-6329
iding	-6330
▁David	-6331
▁tells	-6332
▁memory	-6333
▁würden	-6334
גיש	-6335
▁أخذ	-6336
▁neurons	-6337
▁suddenly	-6338
וט	-6339
▁tých	-6340
▁tutta	-6341
▁prison	-6342
ابات	-6343
▁cin	-6344
stellen	-6345
▁possibile	-6346
وقف	-6347
appiamo	-6348
▁famili	-6349
▁larger	-6350
▁أنهم	-6351
▁loved	-6352
▁allowed	-6353
▁excited	-6354
يين	-6355
stein	-6356
▁rice	-6357
▁infrast	-6358
▁intelligence	-6359
ôsob	-6360
▁העי	-6361
inner	-6362
▁abbastanza	-6363
▁هن	-6364
▁بإمكان	-6365
yr	-6366
▁وأنا	-6367
▁Millionen	-6368
▁بق	-6369
▁שמע	-6370
immt	-6371
zeit	-6372
▁cold	-6373
irm	-6374
שבו	-6375
▁goal	-6376
▁killed	-6377
▁weit	-6378
▁concern	-6379
▁בזמן	-6380
▁grado	-6381
▁impossible	-6382
▁traditional	-6383
▁forms	-6384
▁energia	-6385
مية	-6386
▁lad	-6387
▁biology	-6388
▁electricity	-6389
ách	-6390
רגיה	-6391
▁jeder	-6392
▁molec	-6393
▁ילדים	-6394
ech	-6395
▁CO	-6396
فكار	-6397
▁certo	-6398
▁tanto	-6399
▁service	-6400
▁specific	-6401
▁successful	-6402
▁architecture	-6403
heim	-6404
▁Gehirn	-6405
▁sarà	-6406
▁גבוה	-6407
others	-6408
care	-6409
enze	-6410
▁מזה	-6411
عى	-6412
dom	-6413
▁para	-6414
▁phen	-6415
▁כולם	-6416
eres	-6417
iforn	-6418
▁Schw	-6419
▁etwa	-6420
▁phil	-6421
▁games	-6422
▁healthy	-6423
azi	-6424
▁erste	-6425
▁difficile	-6426
גיל	-6427
خبر	-6428
▁hö	-6429
isco	-6430
▁עליו	-6431
vision	-6432
▁somewhere	-6433
▁קבו	-6434
▁Aust	-6435
▁معظم	-6436
▁siano	-6437
▁concent	-6438
ňa	-6439
▁ظ	-6440
gew	-6441
ält	-6442
abei	-6443
änder	-6444
▁daran	-6445
▁London	-6446
▁late	-6447
▁train	-6448
▁تست	-6449
▁vero	-6450
▁ترون	-6451
▁prefer	-6452
▁remark	-6453
▁Univers	-6454
ommen	-6455
▁שהיה	-6456
▁Frauen	-6457
▁mental	-6458
▁dy	-6459
utter	-6460
▁Über	-6461
▁employ	-6462
ياه	-6463
▁bee	-6464
▁האנו	-6465
▁allows	-6466
joy	-6467
ברת	-6468
▁לקחת	-6469
▁patterns	-6470
▁conditions	-6471
atr	-6472
واع	-6473
▁sotto	-6474
▁brains	-6475
▁الصورة	-6476
▁increasing	-6477
rep	-6478
▁truly	-6479
▁ersten	-6480
▁הלא	-6481
atory	-6482
▁באמצ	-6483
▁יה	-6484
halt	-6485
▁ידע	-6486
▁società	-6487
imp	-6488
rob	-6489
▁בזה	-6490
▁afford	-6491
▁תע	-6492
▁000	-6493
eda	-6494
▁erzä	-6495
▁حوالي	-6496
▁deliver	-6497
▁usually	-6498
▁Christ	-6499
▁bodies	-6500
ological	-6501
ты	-6502
ula	-6503
▁esp	-6504
ams	-6505
▁lines	-6506
لاب	-6507
▁دي	-6508
▁בואו	-6509
▁transport	-6510
▁انا	-6511
aving	-6512
▁לאנשים	-6513
▁Era	-6514
▁cru	-6515
ujeme	-6516
قتصاد	-6517
▁sper	-6518
▁ونحن	-6519
enda	-6520
ises	-6521
▁fab	-6522
ration	-6523
▁standard	-6524
▁solutions	-6525
iera	-6526
شاهد	-6527
▁sorts	-6528
▁genetic	-6529
▁University	-6530
▁site	-6531
▁קורה	-6532
▁verstehen	-6533
يز	-6534
esta	-6535
▁din	-6536
▁interessante	-6537
▁نظ	-6538
ellt	-6539
▁ble	-6540
▁email	-6541
▁الدول	-6542
▁Person	-6543
▁element	-6544
▁trovare	-6545
▁remind	-6546
▁vedete	-6547
▁قص	-6548
nosť	-6549
ייתי	-6550
▁massive	-6551
kn	-6552
▁sold	-6553
▁רבים	-6554
راه	-6555
▁mamm	-6556
▁segu	-6557
▁contr	-6558
▁secondo	-6559
▁indeed	-6560
סוף	-6561
teil	-6562
▁dos	-6563
▁uomo	-6564
▁فعلا	-6565
▁corpo	-6566
ía	-6567
▁ني	-6568
טיקה	-6569
▁radi	-6570
▁teacher	-6571
▁straight	-6572
▁فأ	-6573
tore	-6574
▁пра	-6575
▁verl	-6576
▁alive	-6577
▁conserv	-6578
▁prevent	-6579
▁während	-6580
▁citizens	-6581
▁שמת	-6582
▁sleep	-6583
▁progetto	-6584
▁sky	-6585
▁Cong	-6586
▁card	-6587
▁כמעט	-6588
▁Somet	-6589
▁rapid	-6590
▁صغيرة	-6591
uer	-6592
▁rokov	-6593
▁שונים	-6594
▁wealth	-6595
קת	-6596
نتج	-6597
iele	-6598
zeug	-6599
▁Idee	-6600
▁dent	-6601
▁vole	-6602
▁حصل	-6603
front	-6604
▁kept	-6605
zaj	-6606
attro	-6607
אלה	-6608
ئات	-6609
▁recognize	-6610
גיד	-6611
▁בסדר	-6612
ifornia	-6613
▁lassen	-6614
▁בית	-6615
▁فكر	-6616
▁bunch	-6617
▁أقل	-6618
▁foto	-6619
▁usare	-6620
▁anymore	-6621
ými	-6622
لاج	-6623
ires	-6624
מרים	-6625
▁spä	-6626
▁sus	-6627
מונות	-6628
▁happiness	-6629
وث	-6630
▁eth	-6631
ernen	-6632
ulate	-6633
▁region	-6634
▁organization	-6635
▁či	-6636
▁حق	-6637
▁אינ	-6638
▁boli	-6639
▁elett	-6640
▁target	-6641
▁address	-6642
▁1,	-6643
iced	-6644
יונות	-6645
▁traff	-6646
▁minute	-6647
▁spazio	-6648
gal	-6649
llen	-6650
▁כיצד	-6651
▁earth	-6652
▁soldi	-6653
▁achieve	-6654
▁smaller	-6655
▁luck	-6656
▁الأح	-6657
▁provide	-6658
خرج	-6659
▁מדע	-6660
▁warum	-6661
▁California	-6662
وما	-6663
▁35	-6664
▁Dann	-6665
ulture	-6666
▁avevo	-6667
▁transl	-6668
▁mention	-6669
▁phenomen	-6670
▁natürlich	-6671
▁حل	-6672
▁win	-6673
▁قمت	-6674
▁Park	-6675
▁fascin	-6676
כלו	-6677
ניס	-6678
▁דר	-6679
back	-6680
wood	-6681
▁enjoy	-6682
▁decades	-6683
▁מכל	-6684
▁מעט	-6685
▁خاص	-6686
arono	-6687
▁actual	-6688
▁نس	-6689
iere	-6690
▁الطاقة	-6691
rate	-6692
▁הקט	-6693
▁جميعا	-6694
▁الولايات	-6695
hlt	-6696
▁لد	-6697
▁לקבל	-6698
▁dog	-6699
▁לעצ	-6700
▁purp	-6701
▁town	-6702
▁בלתי	-6703
thern	-6704
▁sand	-6705
iemlich	-6706
فسي	-6707
amer	-6708
▁הופ	-6709
▁mist	-6710
▁ended	-6711
▁قليلا	-6712
▁painting	-6713
oh	-6714
atti	-6715
lock	-6716
▁Dem	-6717
▁ويمكن	-6718
adt	-6719
▁כה	-6720
cell	-6721
amos	-6722
▁significa	-6723
▁ut	-6724
▁bola	-6725
vy	-6726
قات	-6727
lesk	-6728
▁البح	-6729
schein	-6730
▁upon	-6731
though	-6732
בא	-6733
▁مليون	-6734
cov	-6735
وال	-6736
isen	-6737
ného	-6738
▁מגי	-6739
▁effort	-6740
▁fantast	-6741
▁ing	-6742
▁Fall	-6743
▁מאשר	-6744
esehen	-6745
ודל	-6746
هاز	-6747
ktor	-6748
▁לאחר	-6749
▁לעולם	-6750
▁letzten	-6751
▁becoming	-6752
ظمة	-6753
▁الكت	-6754
▁البيانات	-6755
هاب	-6756
▁hom	-6757
▁السيا	-6758
▁robots	-6759
oph	-6760
▁ואתם	-6761
▁mensch	-6762
ilm	-6763
דבר	-6764
▁Co	-6765
ца	-6766
كو	-6767
▁סט	-6768
lung	-6769
▁Mod	-6770
▁mes	-6771
▁influ	-6772
פוא	-6773
يفة	-6774
ולות	-6775
▁somehow	-6776
wir	-6777
▁רצ	-6778
orge	-6779
▁Ihr	-6780
▁sin	-6781
▁coun	-6782
▁points	-6783
fortunately	-6784
pad	-6785
▁numero	-6786
▁strugg	-6787
▁clearly	-6788
▁governments	-6789
▁institutions	-6790
▁што	-6791
▁mno	-6792
▁alcune	-6793
▁sollte	-6794
▁greatest	-6795
aging	-6796
هتمام	-6797
▁الحا	-6798
▁beings	-6799
amen	-6800
دماغ	-6801
▁ארו	-6802
▁הארץ	-6803
▁صورة	-6804
▁final	-6805
▁limit	-6806
DS	-6807
וו	-6808
▁הפר	-6809
▁Geld	-6810
ndo	-6811
inct	-6812
▁riv	-6813
▁التن	-6814
▁schnell	-6815
▁לכך	-6816
▁Ihre	-6817
▁cust	-6818
▁laws	-6819
▁כאילו	-6820
vá	-6821
זיקה	-6822
▁dach	-6823
▁לומר	-6824
time	-6825
▁nám	-6826
▁auto	-6827
▁decisions	-6828
ieť	-6829
▁author	-6830
▁statist	-6831
biť	-6832
▁ליי	-6833
▁otten	-6834
ußer	-6835
▁dad	-6836
▁Franc	-6837
▁costs	-6838
▁series	-6839
▁written	-6840
▁position	-6841
▁ziemlich	-6842
ios	-6843
▁burn	-6844
▁algor	-6845
▁spect	-6846
זרת	-6847
▁אה	-6848
onte	-6849
▁heav	-6850
▁brand	-6851
▁occur	-6852
adem	-6853
▁קטן	-6854
▁Musik	-6855
▁große	-6856
▁fit	-6857
▁visit	-6858
▁satell	-6859
my	-6860
umb	-6861
▁موا	-6862
geben	-6863
▁Isra	-6864
▁services	-6865
cies	-6866
▁Fam	-6867
▁deg	-6868
▁dalle	-6869
▁أشياء	-6870
▁הרעיון	-6871
▁freedom	-6872
▁sollten	-6873
▁critical	-6874
▁kde	-6875
▁check	-6876
▁sad	-6877
▁בשי	-6878
▁comunità	-6879
יהם	-6880
קור	-6881
▁bez	-6882
▁שהת	-6883
aries	-6884
▁לתוך	-6885
▁Daten	-6886
▁worry	-6887
قب	-6888
▁Aud	-6889
▁exh	-6890
▁משמ	-6891
▁floor	-6892
▁policy	-6893
زال	-6894
▁Aut	-6895
örper	-6896
▁lingu	-6897
▁كيفية	-6898
▁expensive	-6899
rene	-6900
▁hai	-6901
▁pianet	-6902
צוב	-6903
lies	-6904
يمة	-6905
osci	-6906
▁oxy	-6907
▁לגמרי	-6908
▁besser	-6909
▁celebr	-6910
▁please	-6911
טות	-6912
▁Like	-6913
▁נוכל	-6914
mun	-6915
תיי	-6916
▁מנס	-6917
▁legs	-6918
▁plat	-6919
▁familiar	-6920
▁military	-6921
יינו	-6922
▁Ger	-6923
▁Second	-6924
▁weight	-6925
▁studies	-6926
جال	-6927
واصل	-6928
▁zmen	-6929
▁anywhere	-6930
▁בן	-6931
ream	-6932
▁נוס	-6933
anken	-6934
ريقيا	-6935
▁Dank	-6936
▁يستطيع	-6937
30	-6938
وكب	-6939
▁Ter	-6940
▁מור	-6941
▁$	-6942
▁منت	-6943
▁البعض	-6944
▁detect	-6945
▁Ä	-6946
نون	-6947
elli	-6948
▁מלא	-6949
ician	-6950
▁genet	-6951
▁financial	-6952
▁гэ	-6953
▁عل	-6954
▁lei	-6955
▁دون	-6956
▁طبي	-6957
avamo	-6958
▁price	-6959
▁inspir	-6960
▁könnten	-6961
▁willing	-6962
طقة	-6963
▁كا	-6964
يادة	-6965
▁famous	-6966
▁נא	-6967
▁ran	-6968
▁tax	-6969
▁وبعد	-6970
▁Energ	-6971
▁diseases	-6972
▁training	-6973
▁income	-6974
▁svilupp	-6975
מון	-6976
ischer	-6977
▁Imagine	-6978
ull	-6979
شاف	-6980
سائل	-6981
▁har	-6982
itude	-6983
▁poter	-6984
agement	-6985
arvi	-6986
▁block	-6987
▁humanity	-6988
atur	-6989
▁drink	-6990
▁دائما	-6991
imately	-6992
▁waiting	-6993
قطة	-6994
▁Den	-6995
▁רוב	-6996
▁agli	-6997
▁tiss	-6998
▁trem	-6999
gel	-7000
▁لع	-7001
▁throw	-7002
▁skills	-7003
▁Geb	-7004
▁store	-7005
▁weren	-7006
▁himself	-7007
▁علم	-7008
تك	-7009
مين	-7010
ables	-7011
طان	-7012
طور	-7013
▁да	-7014
idem	-7015
▁והת	-7016
▁eigen	-7017
▁meinem	-7018
دية	-7019
▁Nel	-7020
▁דוג	-7021
▁vide	-7022
▁paese	-7023
▁parad	-7024
▁niente	-7025
▁wollte	-7026
▁reading	-7027
▁facciamo	-7028
▁Gew	-7029
iling	-7030
▁artist	-7031
▁mobile	-7032
▁semplice	-7033
▁dangerous	-7034
▁neighborhood	-7035
▁Dis	-7036
▁הקו	-7037
▁שנו	-7038
▁assum	-7039
▁الأولى	-7040
▁Russ	-7041
▁Stre	-7042
▁range	-7043
▁insect	-7044
▁Gi	-7045
amin	-7046
anie	-7047
▁cry	-7048
▁jud	-7049
▁vec	-7050
▁وان	-7051
▁Form	-7052
▁ging	-7053
▁shot	-7054
▁compon	-7055
▁saving	-7056
▁quattro	-7057
agt	-7058
▁לשי	-7059
ività	-7060
▁ihrer	-7061
▁leben	-7062
▁trick	-7063
هل	-7064
▁שג	-7065
▁מכי	-7066
▁gene	-7067
▁scar	-7068
▁diversi	-7069
غل	-7070
▁apply	-7071
▁square	-7072
▁techni	-7073
▁performance	-7074
ро	-7075
▁Res	-7076
iments	-7077
▁meinen	-7078
▁cra	-7079
ained	-7080
▁associ	-7081
▁meisten	-7082
▁Americans	-7083
ля	-7084
شاكل	-7085
▁Ben	-7086
▁יחד	-7087
▁מסו	-7088
▁stup	-7089
▁doctors	-7090
▁swe	-7091
oking	-7092
▁Bill	-7093
▁ganze	-7094
▁gradu	-7095
▁מספיק	-7096
▁ricerca	-7097
cro	-7098
ktur	-7099
stav	-7100
طلاق	-7101
▁שתי	-7102
▁محا	-7103
▁الخط	-7104
▁وعندما	-7105
urre	-7106
הליך	-7107
▁tratta	-7108
▁Ok	-7109
▁תא	-7110
▁אית	-7111
▁Mann	-7112
▁webs	-7113
▁gruppo	-7114
unde	-7115
▁azi	-7116
▁וכל	-7117
▁Rich	-7118
▁dabei	-7119
▁choices	-7120
cel	-7121
▁nej	-7122
▁המדי	-7123
▁inner	-7124
▁symbol	-7125
▁current	-7126
▁challenges	-7127
▁geh	-7128
▁גור	-7129
▁jump	-7130
čne	-7131
נטרנט	-7132
▁כדור	-7133
ightly	-7134
▁osserv	-7135
ží	-7136
از	-7137
abil	-7138
▁unique	-7139
▁Washing	-7140
idi	-7141
rel	-7142
טית	-7143
ania	-7144
▁East	-7145
▁prost	-7146
▁10,000	-7147
▁spôsob	-7148
▁relative	-7149
▁بب	-7150
▁مض	-7151
▁أين	-7152
▁initi	-7153
▁seconds	-7154
rà	-7155
oes	-7156
uft	-7157
▁Tra	-7158
▁bek	-7159
▁san	-7160
▁stim	-7161
▁מיליון	-7162
▁לאי	-7163
▁studio	-7164
▁Another	-7165
▁content	-7166
▁throughout	-7167
ספר	-7168
unft	-7169
▁الأخرى	-7170
▁document	-7171
فعله	-7172
▁Cosa	-7173
licher	-7174
▁Which	-7175
▁police	-7176
▁underst	-7177
izzazione	-7178
טין	-7179
▁pag	-7180
▁درا	-7181
▁ثلاثة	-7182
▁الخاصة	-7183
جر	-7184
ירות	-7185
plant	-7186
▁عليك	-7187
▁following	-7188
▁חוק	-7189
▁ספר	-7190
▁trou	-7191
▁production	-7192
urz	-7193
▁yeah	-7194
▁Pri	-7195
▁Spe	-7196
▁tento	-7197
▁spirit	-7198
▁plastic	-7199
أل	-7200
nes	-7201
álne	-7202
▁Raum	-7203
▁surr	-7204
▁هنالك	-7205
▁shared	-7206
áz	-7207
alen	-7208
bert	-7209
itor	-7210
▁App	-7211
rogen	-7212
▁AIDS	-7213
▁לחלו	-7214
▁رؤية	-7215
▁astron	-7216
▁levels	-7217
عين	-7218
ggio	-7219
درسة	-7220
▁קוד	-7221
وانات	-7222
▁דולר	-7223
▁الكل	-7224
▁bekommen	-7225
▁מהמ	-7226
pping	-7227
ichten	-7228
▁compr	-7229
га	-7230
▁تكن	-7231
orrow	-7232
▁نحتاج	-7233
▁trasform	-7234
▁veci	-7235
▁politics	-7236
▁Washington	-7237
lím	-7238
tra	-7239
קיי	-7240
▁שר	-7241
▁منه	-7242
▁adapt	-7243
▁demon	-7244
▁environmental	-7245
סו	-7246
wers	-7247
▁whe	-7248
▁luog	-7249
קל	-7250
▁ولم	-7251
▁تحدث	-7252
▁invece	-7253
▁sprechen	-7254
ויים	-7255
▁מחו	-7256
▁page	-7257
▁حقيقة	-7258
imenti	-7259
▁vostro	-7260
ركز	-7261
ella	-7262
meno	-7263
▁merc	-7264
▁paesi	-7265
enen	-7266
وسيقى	-7267
▁cart	-7268
▁crim	-7269
▁precis	-7270
▁להע	-7271
iscono	-7272
ishing	-7273
▁decade	-7274
▁bef	-7275
▁erre	-7276
inu	-7277
▁tú	-7278
▁ban	-7279
▁veh	-7280
▁صحيح	-7281
▁النوع	-7282
▁beauty	-7283
▁driving	-7284
▁Ö	-7285
fte	-7286
▁ple	-7287
▁الأع	-7288
▁עלינו	-7289
▁earlier	-7290
▁greater	-7291
▁للإ	-7292
פורים	-7293
▁مجرد	-7294
▁Organ	-7295
▁semplic	-7296
جعل	-7297
uale	-7298
ardo	-7299
aufen	-7300
▁bewe	-7301
▁walked	-7302
▁immediately	-7303
ליות	-7304
▁Mex	-7305
▁org	-7306
▁math	-7307
▁vier	-7308
▁method	-7309
ums	-7310
anta	-7311
▁Vers	-7312
▁piccolo	-7313
▁ä	-7314
cke	-7315
hli	-7316
▁ها	-7317
ktiv	-7318
▁Gli	-7319
▁החל	-7320
▁nation	-7321
▁describ	-7322
עד	-7323
فظ	-7324
ľad	-7325
▁را	-7326
▁Weg	-7327
هرب	-7328
annt	-7329
water	-7330
▁destro	-7331
aul	-7332
▁הגי	-7333
▁strum	-7334
▁الانت	-7335
ظيم	-7336
ناه	-7337
▁Gro	-7338
▁وكل	-7339
sehen	-7340
▁الكب	-7341
▁جديد	-7342
▁calcul	-7343
▁fantastic	-7344
ibo	-7345
son	-7346
سمى	-7347
▁45	-7348
▁חוד	-7349
▁glass	-7350
▁riguard	-7351
قص	-7352
▁sagt	-7353
▁veľk	-7354
▁Twitter	-7355
ابل	-7356
apes	-7357
▁הדי	-7358
▁Iraq	-7359
▁שונה	-7360
▁Mc	-7361
iono	-7362
ברות	-7363
▁tej	-7364
▁consequ	-7365
band	-7366
▁Denn	-7367
▁أصبح	-7368
itation	-7369
▁prendere	-7370
omp	-7371
▁שכל	-7372
▁kleinen	-7373
▁NA	-7374
▁שאם	-7375
▁مسا	-7376
▁anti	-7377
▁الشب	-7378
▁accord	-7379
ec	-7380
ibi	-7381
▁הפי	-7382
▁שום	-7383
▁كال	-7384
▁total	-7385
▁Bar	-7386
▁ded	-7387
▁الحصول	-7388
▁вы	-7389
▁bord	-7390
▁sprá	-7391
▁بهذه	-7392
▁lungo	-7393
▁siete	-7394
▁الهند	-7395
▁various	-7396
ôž	-7397
لد	-7398
صبحت	-7399
▁אותן	-7400
▁באותו	-7401
▁cambiare	-7402
aren	-7403
▁Col	-7404
▁ktorí	-7405
bel	-7406
nosti	-7407
▁2008	-7408
▁نعرف	-7409
▁version	-7410
▁المؤ	-7411
▁vot	-7412
▁perce	-7413
▁raggi	-7414
reprene	-7415
▁leader	-7416
▁specif	-7417
▁values	-7418
▁physics	-7419
мі	-7420
בט	-7421
▁بناء	-7422
▁prest	-7423
▁בשביל	-7424
IT	-7425
صنع	-7426
gung	-7427
▁أرد	-7428
▁forth	-7429
▁terra	-7430
כונה	-7431
▁Ele	-7432
▁dan	-7433
▁תנו	-7434
ended	-7435
▁gent	-7436
▁durante	-7437
▁pressure	-7438
let	-7439
los	-7440
richt	-7441
▁settim	-7442
▁planets	-7443
▁therefore	-7444
cu	-7445
used	-7446
▁See	-7447
▁weniger	-7448
play	-7449
ריקה	-7450
▁יצי	-7451
▁הספר	-7452
▁comfort	-7453
ado	-7454
▁نرى	-7455
▁origin	-7456
▁scuola	-7457
ateľ	-7458
▁tit	-7459
מור	-7460
▁prv	-7461
▁בטוח	-7462
▁posso	-7463
▁וגם	-7464
ej	-7465
▁Hey	-7466
▁מוח	-7467
elesc	-7468
▁harm	-7469
▁direction	-7470
▁organizations	-7471
גן	-7472
ריק	-7473
▁Ende	-7474
▁dare	-7475
▁עבודה	-7476
scheinlich	-7477
▁colleagues	-7478
▁communicate	-7479
▁Em	-7480
▁לתת	-7481
▁Iran	-7482
▁Think	-7483
بية	-7484
fühl	-7485
▁cro	-7486
▁rand	-7487
▁summer	-7488
▁75	-7489
▁لكل	-7490
phone	-7491
▁condu	-7492
▁ship	-7493
anning	-7494
▁oppos	-7495
ructure	-7496
▁sicher	-7497
▁strutt	-7498
▁collective	-7499
usi	-7500
▁heiß	-7501
▁נשים	-7502
▁whose	-7503
▁النظر	-7504
▁בל	-7505
▁dram	-7506
▁fuel	-7507
▁uses	-7508
רונה	-7509
icher	-7510
▁sull	-7511
▁Technologie	-7512
▁slide	-7513
▁fortun	-7514
عتبر	-7515
▁ton	-7516
▁rise	-7517
▁catch	-7518
▁משתמשים	-7519
▁arbeiten	-7520
▁informazioni	-7521
rä	-7522
طح	-7523
ארד	-7524
▁سم	-7525
▁Nie	-7526
▁fel	-7527
▁האו	-7528
▁vict	-7529
▁المسا	-7530
▁engineering	-7531
occ	-7532
ción	-7533
eler	-7534
▁بسي	-7535
▁تعمل	-7536
▁وجود	-7537
▁לבנות	-7538
▁לשנות	-7539
▁install	-7540
▁unseren	-7541
ená	-7542
pite	-7543
▁Poi	-7544
ufact	-7545
▁מחדש	-7546
▁quali	-7547
▁fotograf	-7548
▁interview	-7549
▁note	-7550
▁لديك	-7551
▁ahead	-7552
ließ	-7553
▁cere	-7554
▁magic	-7555
▁mostr	-7556
▁decide	-7557
▁female	-7558
▁spesso	-7559
▁الفكرة	-7560
▁Western	-7561
▁comport	-7562
blém	-7563
iner	-7564
▁לוק	-7565
▁doch	-7566
▁tens	-7567
▁occup	-7568
▁adesso	-7569
▁helped	-7570
שור	-7571
▁legg	-7572
▁occhi	-7573
▁speaking	-7574
▁Wissenschaft	-7575
key	-7576
uls	-7577
▁sn	-7578
▁לכן	-7579
▁לפע	-7580
▁luce	-7581
▁parole	-7582
ruck	-7583
▁mos	-7584
▁מול	-7585
▁الإنس	-7586
▁مب	-7587
izia	-7588
▁cod	-7589
▁ves	-7590
▁Many	-7591
▁board	-7592
▁spolo	-7593
▁الحك	-7594
▁appre	-7595
ley	-7596
▁Sel	-7597
▁Pres	-7598
▁types	-7599
▁לעבוד	-7600
▁understood	-7601
ancy	-7602
▁ber	-7603
▁اكت	-7604
▁mezzo	-7605
net	-7606
طلق	-7607
▁يس	-7608
uted	-7609
▁rov	-7610
▁vengono	-7611
əd	-7612
▁بوا	-7613
▁Niger	-7614
▁nehmen	-7615
▁الدماغ	-7616
▁Möglich	-7617
▁strange	-7618
▁workers	-7619
▁Two	-7620
▁ואי	-7621
▁ثلاث	-7622
▁encou	-7623
▁stret	-7624
▁useful	-7625
وظ	-7626
▁frequ	-7627
علق	-7628
▁Gu	-7629
lands	-7630
▁Your	-7631
▁fest	-7632
▁להגיע	-7633
▁quelli	-7634
▁journal	-7635
▁مه	-7636
stoff	-7637
▁mano	-7638
▁prep	-7639
▁livello	-7640
▁bedeutet	-7641
▁enormous	-7642
سن	-7643
כלה	-7644
▁أر	-7645
▁טובה	-7646
▁يعرف	-7647
ending	-7648
▁Stati	-7649
▁مشكلة	-7650
▁בבית	-7651
▁career	-7652
▁מכיוון	-7653
▁central	-7654
oma	-7655
▁لديه	-7656
▁broad	-7657
▁שיכול	-7658
▁begann	-7659
▁honest	-7660
▁electron	-7661
-2	-7662
ביבה	-7663
▁surve	-7664
▁welche	-7665
▁prav	-7666
▁Instead	-7667
▁atmosphere	-7668
▁за	-7669
صال	-7670
▁ההת	-7671
▁random	-7672
sp	-7673
emi	-7674
raj	-7675
▁יח	-7676
נסות	-7677
▁Web	-7678
▁Schl	-7679
▁umani	-7680
▁conosc	-7681
▁effetti	-7682
▁invented	-7683
aj	-7684
תיות	-7685
▁هكذا	-7686
▁sapete	-7687
omi	-7688
under	-7689
▁race	-7690
▁terrible	-7691
בח	-7692
▁Keď	-7693
▁vast	-7694
▁نهاية	-7695
▁بالطبع	-7696
aw	-7697
שם	-7698
fin	-7699
▁indic	-7700
▁temperature	-7701
▁Son	-7702
ständ	-7703
omini	-7704
organ	-7705
▁sulle	-7706
▁affect	-7707
▁sick	-7708
▁Uniti	-7709
▁المثال	-7710
reme	-7711
▁Nob	-7712
▁להש	-7713
▁hack	-7714
▁يمكنكم	-7715
حل	-7716
▁0	-7717
cip	-7718
▁tal	-7719
▁From	-7720
▁active	-7721
▁versch	-7722
▁تقريبا	-7723
▁entreprene	-7724
مار	-7725
שינו	-7726
▁druh	-7727
▁dance	-7728
▁anyway	-7729
▁iniziato	-7730
זם	-7731
iles	-7732
▁Bang	-7733
▁giov	-7734
▁والآ	-7735
▁shift	-7736
▁بصورة	-7737
▁المشكلة	-7738
▁complete	-7739
RI	-7740
▁22	-7741
موذج	-7742
▁ore	-7743
▁sui	-7744
▁loss	-7745
▁invis	-7746
▁teraz	-7747
▁societies	-7748
wise	-7749
▁ogg	-7750
▁והמ	-7751
cules	-7752
▁darauf	-7753
▁السؤال	-7754
▁listening	-7755
▁99	-7756
ciate	-7757
▁streets	-7758
רב	-7759
▁expand	-7760
ras	-7761
▁Bo	-7762
▁Qual	-7763
▁neuro	-7764
▁סיפור	-7765
▁Dollar	-7766
▁Ď	-7767
▁ور	-7768
▁מצי	-7769
▁מתחי	-7770
▁migliore	-7771
▁ملا	-7772
▁البر	-7773
mon	-7774
rát	-7775
šli	-7776
▁فال	-7777
▁للع	-7778
aling	-7779
▁יוצא	-7780
▁أخبر	-7781
▁surger	-7782
▁relationships	-7783
čí	-7784
فه	-7785
▁המע	-7786
▁Quello	-7787
▁الجميع	-7788
ריך	-7789
ande	-7790
▁vul	-7791
▁أعرف	-7792
▁digit	-7793
▁laugh	-7794
▁risol	-7795
ogliamo	-7796
▁الماضي	-7797
▁sappiamo	-7798
uh	-7799
שיך	-7800
ácie	-7801
▁aid	-7802
▁alto	-7803
▁habit	-7804
▁stress	-7805
əm	-7806
דמה	-7807
طلب	-7808
قاط	-7809
resh	-7810
▁dato	-7811
razione	-7812
▁kleine	-7813
▁communication	-7814
sc	-7815
▁flying	-7816
▁miglia	-7817
▁remarkable	-7818
סל	-7819
جز	-7820
קהי	-7821
وتر	-7822
ping	-7823
▁fer	-7824
▁أرب	-7825
▁يريد	-7826
▁corru	-7827
▁malatt	-7828
بح	-7829
▁Av	-7830
▁מהר	-7831
▁mapp	-7832
▁suoi	-7833
▁אתכם	-7834
▁piace	-7835
▁closer	-7836
▁kilomet	-7837
▁instance	-7838
▁devices	-7839
▁miliardi	-7840
▁emotional	-7841
ále	-7842
▁deve	-7843
▁pazi	-7844
▁שאתה	-7845
▁Gener	-7846
uttosto	-7847
▁forget	-7848
ube	-7849
وسط	-7850
▁לז	-7851
▁أغ	-7852
▁Tut	-7853
▁בעלי	-7854
ierten	-7855
▁manufact	-7856
קרו	-7857
aupt	-7858
oren	-7859
▁pov	-7860
▁Sache	-7861
▁seemed	-7862
▁النساء	-7863
▁у	-7864
▁הכו	-7865
▁ecco	-7866
▁pross	-7867
▁highly	-7868
▁cellule	-7869
ım	-7870
راد	-7871
osso	-7872
▁hall	-7873
▁Computer	-7874
ciò	-7875
▁Bab	-7876
icken	-7877
▁explore	-7878
▁الخلايا	-7879
arter	-7880
orsch	-7881
▁أقول	-7882
▁mostly	-7883
▁stopped	-7884
▁immagine	-7885
اتي	-7886
▁Take	-7887
▁corr	-7888
▁Great	-7889
▁paint	-7890
سمح	-7891
erap	-7892
▁worst	-7893
▁Voglio	-7894
▁meeting	-7895
▁connection	-7896
نظر	-7897
ورك	-7898
▁sb	-7899
▁quei	-7900
▁النظام	-7901
viamente	-7902
ці	-7903
▁Stadt	-7904
▁directly	-7905
▁teaching	-7906
šte	-7907
▁hole	-7908
▁vostra	-7909
▁programs	-7910
eni	-7911
▁uomini	-7912
▁problém	-7913
ims	-7914
▁قط	-7915
▁dynam	-7916
▁trade	-7917
▁mountain	-7918
olt	-7919
كال	-7920
▁Bro	-7921
▁1,000	-7922
▁serve	-7923
▁كثيرا	-7924
▁היחי	-7925
izzato	-7926
▁dying	-7927
▁stessi	-7928
▁survive	-7929
▁ca	-7930
▁voll	-7931
▁Warum	-7932
▁Instit	-7933
▁histor	-7934
▁הולכים	-7935
▁ancient	-7936
▁independ	-7937
sem	-7938
eden	-7939
▁להראות	-7940
▁bringen	-7941
حب	-7942
▁أل	-7943
▁אפש	-7944
ibili	-7945
▁Braz	-7946
▁religion	-7947
▁infrastructure	-7948
مد	-7949
ודו	-7950
▁מהא	-7951
▁העבודה	-7952
▁express	-7953
fs	-7954
ابي	-7955
ارت	-7956
راع	-7957
remo	-7958
▁وجد	-7959
▁rein	-7960
▁möglich	-7961
olly	-7962
ritto	-7963
▁الريا	-7964
▁networks	-7965
ika	-7966
▁أث	-7967
ends	-7968
vole	-7969
▁المحيط	-7970
▁Einstein	-7971
äčš	-7972
▁המא	-7973
anten	-7974
▁giorni	-7975
غط	-7976
راج	-7977
▁بج	-7978
ners	-7979
قيقي	-7980
▁Rep	-7981
iving	-7982
▁cibo	-7983
▁tent	-7984
▁منهم	-7985
cem	-7986
▁erw	-7987
▁بكل	-7988
cchio	-7989
▁brauchen	-7990
▁مرت	-7991
▁Mein	-7992
▁diss	-7993
olf	-7994
▁unc	-7995
reste	-7996
▁Part	-7997
▁effects	-7998
med	-7999
ריה	-8000
▁شا	-8001
כלים	-8002
▁ihm	-8003
▁inspired	-8004
▁scoperto	-8005
nut	-8006
áto	-8007
טרה	-8008
▁Big	-8009
▁عنه	-8010
▁بدون	-8011
atically	-8012
▁US	-8013
لاقة	-8014
▁vás	-8015
▁נות	-8016
▁Poss	-8017
jen	-8018
▁ذا	-8019
▁saf	-8020
ovali	-8021
▁benut	-8022
▁prime	-8023
▁troppo	-8024
lin	-8025
▁סרט	-8026
antic	-8027
ltre	-8028
▁Over	-8029
▁אחרת	-8030
▁سبيل	-8031
▁although	-8032
▁experiences	-8033
▁sustainable	-8034
iges	-8035
▁194	-8036
▁blog	-8037
▁ecos	-8038
▁seit	-8039
▁نوعا	-8040
▁infin	-8041
▁practice	-8042
▁ost	-8043
▁להח	-8044
▁عدة	-8045
▁2010	-8046
▁beste	-8047
lər	-8048
ميل	-8049
▁Sk	-8050
▁اب	-8051
▁hung	-8052
▁rare	-8053
aced	-8054
anging	-8055
▁משמעות	-8056
▁Ved	-8057
ienza	-8058
▁Stra	-8059
▁risposta	-8060
rí	-8061
נע	-8062
rench	-8063
▁idee	-8064
▁stem	-8065
▁prend	-8066
▁surprising	-8067
جب	-8068
▁Nord	-8069
▁noticed	-8070
▁מים	-8071
eremo	-8072
▁assist	-8073
▁custom	-8074
▁gesehen	-8075
▁markets	-8076
ago	-8077
urb	-8078
בנה	-8079
▁أنفس	-8080
▁below	-8081
inander	-8082
▁Indian	-8083
▁convin	-8084
▁capacity	-8085
▁semplicemente	-8086
▁Du	-8087
▁مي	-8088
ront	-8089
כולת	-8090
وضوع	-8091
▁تبدو	-8092
▁campa	-8093
▁raise	-8094
▁strada	-8095
▁piuttosto	-8096
▁experiments	-8097
غب	-8098
סיה	-8099
▁Sta	-8100
▁Arab	-8101
alog	-8102
▁drop	-8103
סון	-8104
▁verg	-8105
▁رائع	-8106
▁avevano	-8107
▁pianeta	-8108
bur	-8109
chu	-8110
oti	-8111
انون	-8112
▁מוש	-8113
▁מצא	-8114
▁micr	-8115
▁causes	-8116
▁speech	-8117
יד	-8118
äft	-8119
זרה	-8120
ריים	-8121
▁عشر	-8122
▁shock	-8123
وبة	-8124
chio	-8125
▁نريد	-8126
▁eigentlich	-8127
рэ	-8128
טת	-8129
▁ou	-8130
▁Dob	-8131
▁Tit	-8132
▁Arch	-8133
▁تريد	-8134
ivamente	-8135
▁purpose	-8136
رجة	-8137
▁23	-8138
▁ואת	-8139
▁שמש	-8140
▁perd	-8141
ilen	-8142
▁Danke	-8143
▁cento	-8144
▁campaign	-8145
רוע	-8146
ائل	-8147
▁hus	-8148
▁weap	-8149
▁aware	-8150
▁reflect	-8151
▁published	-8152
yle	-8153
▁Zuk	-8154
▁כאלה	-8155
▁profound	-8156
▁consciousness	-8157
ся	-8158
בתי	-8159
▁Bi	-8160
▁יע	-8161
ובות	-8162
▁bag	-8163
▁הבא	-8164
▁שהמ	-8165
▁mali	-8166
▁ללכת	-8167
▁Seite	-8168
قاء	-8169
▁contact	-8170
▁molecules	-8171
▁rappresent	-8172
át	-8173
hel	-8174
▁fal	-8175
board	-8176
čnosti	-8177
▁Europa	-8178
▁ungl	-8179
▁epidem	-8180
▁inizio	-8181
▁respect	-8182
▁capacità	-8183
opf	-8184
▁ومع	-8185
كب	-8186
grees	-8187
▁האדם	-8188
lement	-8189
▁cultural	-8190
פא	-8191
פוס	-8192
ارية	-8193
▁Asia	-8194
▁appar	-8195
▁großen	-8196
▁Zukunft	-8197
ota	-8198
▁جن	-8199
iteľ	-8200
usst	-8201
▁Som	-8202
▁spra	-8203
▁الإن	-8204
▁Islam	-8205
▁Thanks	-8206
▁potere	-8207
▁artifici	-8208
▁demonstr	-8209
ريس	-8210
▁יל	-8211
pret	-8212
▁Gru	-8213
▁שבע	-8214
▁عرض	-8215
▁כיום	-8216
▁المب	-8217
▁nuova	-8218
▁المال	-8219
▁אומרים	-8220
▁designers	-8221
قم	-8222
ליה	-8223
רופה	-8224
▁gran	-8225
▁paid	-8226
▁מאות	-8227
▁עובד	-8228
▁domin	-8229
▁Vielen	-8230
▁الأمور	-8231
▁Energie	-8232
▁interno	-8233
▁algorith	-8234
rig	-8235
▁اس	-8236
etzen	-8237
▁mesi	-8238
▁rule	-8239
▁השנים	-8240
▁supply	-8241
▁obvious	-8242
▁legal	-8243
▁pubblico	-8244
gia	-8245
▁شع	-8246
▁סביב	-8247
▁السبب	-8248
פע	-8249
פתח	-8250
ativo	-8251
▁isol	-8252
oló	-8253
▁تو	-8254
unter	-8255
▁degrees	-8256
▁malaria	-8257
▁raccont	-8258
▁differently	-8259
nu	-8260
ismus	-8261
▁myster	-8262
שיתי	-8263
▁Tom	-8264
▁nez	-8265
▁park	-8266
▁تغير	-8267
▁analy	-8268
▁carto	-8269
▁المكان	-8270
▁التكنولوجيا	-8271
üh	-8272
vin	-8273
סטי	-8274
▁tap	-8275
inary	-8276
▁mult	-8277
▁piano	-8278
▁smell	-8279
▁נש	-8280
▁سر	-8281
▁nas	-8282
▁وبال	-8283
▁הבעיה	-8284
▁Planet	-8285
▁popular	-8286
בק	-8287
سون	-8288
▁inj	-8289
▁להר	-8290
▁اكثر	-8291
▁Weise	-8292
▁الكون	-8293
▁missing	-8294
zlich	-8295
▁incont	-8296
حات	-8297
▁Far	-8298
▁mix	-8299
▁צעי	-8300
▁hair	-8301
▁تقول	-8302
▁حياة	-8303
▁فيما	-8304
yn	-8305
▁أهم	-8306
▁außer	-8307
▁basis	-8308
▁ş	-8309
▁naz	-8310
▁الكم	-8311
▁rough	-8312
▁philos	-8313
▁Mr	-8314
▁يا	-8315
▁אופ	-8316
▁קיי	-8317
▁صنع	-8318
arian	-8319
▁Frau	-8320
▁cogn	-8321
▁nerv	-8322
▁بينما	-8323
זים	-8324
▁vys	-8325
▁ניס	-8326
▁ארבע	-8327
▁נכנס	-8328
▁velo	-8329
▁الحر	-8330
▁produced	-8331
▁scientist	-8332
קן	-8333
קשר	-8334
وعة	-8335
▁הבר	-8336
aften	-8337
▁السل	-8338
▁feels	-8339
▁wenig	-8340
▁تغيير	-8341
▁aspett	-8342
▁cinque	-8343
▁slightly	-8344
aur	-8345
نان	-8346
▁عاما	-8347
▁forces	-8348
▁members	-8349
▁التفكير	-8350
▁famiglia	-8351
raid	-8352
▁إنت	-8353
▁hous	-8354
atives	-8355
▁tratt	-8356
▁cominc	-8357
▁website	-8358
▁industrial	-8359
ומרים	-8360
▁السر	-8361
▁Körper	-8362
▁original	-8363
▁possibly	-8364
▁responsibility	-8365
ozaj	-8366
▁pig	-8367
▁nearly	-8368
اط	-8369
زن	-8370
ünf	-8371
armi	-8372
ádza	-8373
▁קרי	-8374
▁שמו	-8375
▁לדוג	-8376
▁Milli	-8377
تهم	-8378
ناس	-8379
▁Eg	-8380
▁Bud	-8381
▁erf	-8382
▁etc	-8383
▁crow	-8384
▁الفر	-8385
▁sport	-8386
▁cooper	-8387
▁ganzen	-8388
▁acceler	-8389
reg	-8390
مان	-8391
▁heat	-8392
▁task	-8393
▁الشم	-8394
▁Times	-8395
▁بحاجة	-8396
▁afraid	-8397
▁שאנשים	-8398
▁globale	-8399
▁costruire	-8400
win	-8401
מנים	-8402
▁Hum	-8403
▁קרו	-8404
▁riusc	-8405
▁lights	-8406
koľ	-8407
▁wire	-8408
ashion	-8409
▁demand	-8410
▁esperienza	-8411
azz	-8412
שובה	-8413
▁poet	-8414
▁לדעת	-8415
▁dachte	-8416
▁Nor	-8417
▁Good	-8418
▁colon	-8419
▁שנקרא	-8420
▁وهناك	-8421
▁protot	-8422
عيش	-8423
▁כולנו	-8424
▁succede	-8425
الب	-8426
▁וזו	-8427
▁ולמ	-8428
▁جزي	-8429
▁بالإ	-8430
▁Menge	-8431
▁tough	-8432
▁الصور	-8433
▁infect	-8434
▁macchina	-8435
nah	-8436
ורק	-8437
נטים	-8438
▁máis	-8439
▁corner	-8440
▁platform	-8441
rire	-8442
فاعل	-8443
▁כוח	-8444
▁seed	-8445
▁schle	-8446
▁played	-8447
▁moments	-8448
▁tremend	-8449
▁gotten	-8450
▁vediamo	-8451
سان	-8452
גרים	-8453
▁כסף	-8454
▁Fort	-8455
▁lavorare	-8456
▁landscape	-8457
gno	-8458
▁ذه	-8459
▁Los	-8460
▁Groß	-8461
▁להבי	-8462
▁prepar	-8463
حيث	-8464
▁الجن	-8465
▁avanti	-8466
▁princip	-8467
lá	-8468
ické	-8469
mark	-8470
reng	-8471
▁gun	-8472
▁מנת	-8473
▁budú	-8474
▁الدا	-8475
▁جيدة	-8476
bri	-8477
oca	-8478
▁بك	-8479
▁نفسه	-8480
▁matem	-8481
▁offer	-8482
▁גדולה	-8483
▁hearing	-8484
▁mas	-8485
▁seas	-8486
▁match	-8487
▁nessuno	-8488
▁completamente	-8489
kte	-8490
عام	-8491
▁שש	-8492
aden	-8493
ersi	-8494
▁Met	-8495
▁wis	-8496
▁שמא	-8497
iando	-8498
▁מדוע	-8499
▁חושבת	-8500
▁potreb	-8501
▁surround	-8502
▁condition	-8503
▁cambiamento	-8504
▁gh	-8505
idden	-8506
▁Pati	-8507
▁allen	-8508
▁possa	-8509
▁الماء	-8510
▁states	-8511
▁animali	-8512
▁sharing	-8513
▁opin	-8514
▁منكم	-8515
▁twice	-8516
▁عملية	-8517
ception	-8518
ij	-8519
ברו	-8520
▁2.	-8521
▁none	-8522
▁Produ	-8523
essi	-8524
واجه	-8525
▁Did	-8526
▁להפ	-8527
▁بنفس	-8528
▁وذلك	-8529
▁اعتقد	-8530
▁answers	-8531
▁biological	-8532
▁significant	-8533
כתי	-8534
سرعة	-8535
▁His	-8536
▁MIT	-8537
▁easily	-8538
▁evolved	-8539
▁democrat	-8540
olar	-8541
▁كون	-8542
lu	-8543
▁Vir	-8544
▁aper	-8545
▁ba	-8546
▁خارج	-8547
▁مل	-8548
▁أحب	-8549
▁قلت	-8550
▁vent	-8551
▁الأمري	-8552
ckt	-8553
▁27	-8554
نامج	-8555
house	-8556
▁cand	-8557
▁telef	-8558
جار	-8559
▁איש	-8560
▁לפי	-8561
▁babies	-8562
▁forever	-8563
▁addition	-8564
▁sen	-8565
▁fully	-8566
▁ragazzi	-8567
▁diversity	-8568
hin	-8569
opt	-8570
▁intu	-8571
סטוריה	-8572
▁eating	-8573
▁correct	-8574
▁designer	-8575
nom	-8576
سطة	-8577
▁שמי	-8578
▁מתוך	-8579
▁differences	-8580
št	-8581
ياس	-8582
▁Ve	-8583
▁fro	-8584
▁قصة	-8585
▁القد	-8586
▁שינוי	-8587
▁genome	-8588
▁helping	-8589
▁ki	-8590
▁avo	-8591
▁giant	-8592
▁gather	-8593
▁creativity	-8594
▁وف	-8595
ondi	-8596
▁Ort	-8597
▁oft	-8598
▁2009	-8599
▁máme	-8600
reiben	-8601
▁oltre	-8602
▁pensato	-8603
▁surgery	-8604
▁spl	-8605
▁إست	-8606
▁frame	-8607
▁appena	-8608
▁ultimi	-8609
▁structures	-8610
▁nad	-8611
▁miglior	-8612
▁المجتمع	-8613
▁שצ	-8614
istry	-8615
▁السن	-8616
▁الصغيرة	-8617
öl	-8618
راك	-8619
vant	-8620
▁nes	-8621
▁الموج	-8622
▁bought	-8623
▁broken	-8624
otic	-8625
▁החו	-8626
▁מעל	-8627
▁Will	-8628
▁nome	-8629
▁vulner	-8630
▁probabilmente	-8631
vr	-8632
▁כנ	-8633
▁רח	-8634
שרים	-8635
▁nen	-8636
▁شكل	-8637
occup	-8638
▁القاد	-8639
▁وبالت	-8640
▁tissue	-8641
odi	-8642
▁forg	-8643
▁nich	-8644
▁dentro	-8645
▁Richard	-8646
▁فن	-8647
wand	-8648
▁הלי	-8649
▁מהי	-8650
▁spot	-8651
▁لديها	-8652
▁turning	-8653
ورا	-8654
▁והא	-8655
atura	-8656
▁mission	-8657
▁spending	-8658
▁רב	-8659
▁Questi	-8660
▁genere	-8661
▁kraj	-8662
▁photo	-8663
▁gentle	-8664
▁affront	-8665
▁bambino	-8666
▁المستقبل	-8667
▁institution	-8668
וגי	-8669
▁ад	-8670
ques	-8671
▁Red	-8672
gener	-8673
▁nello	-8674
▁corpor	-8675
▁sapere	-8676
▁تف	-8677
▁תוך	-8678
▁hoch	-8679
▁Entwick	-8680
▁matters	-8681
▁اع	-8682
▁للق	-8683
▁iron	-8684
▁jeho	-8685
▁القص	-8686
▁versuchen	-8687
ris	-8688
שיר	-8689
سبوع	-8690
▁Mol	-8691
▁bees	-8692
▁keinen	-8693
ня	-8694
بعض	-8695
orie	-8696
unst	-8697
▁מכם	-8698
▁Erde	-8699
▁core	-8700
▁moon	-8701
▁صغير	-8702
▁electr	-8703
▁תקו	-8704
▁اعت	-8705
▁prove	-8706
▁חשבתי	-8707
▁improv	-8708
▁incent	-8709
plex	-8710
▁More	-8711
▁geni	-8712
▁agree	-8713
▁نم	-8714
טיבי	-8715
▁Kar	-8716
▁קול	-8717
bleme	-8718
▁يجعل	-8719
▁Again	-8720
▁dello	-8721
▁photos	-8722
▁reduce	-8723
▁vielen	-8724
▁الطريق	-8725
tex	-8726
וות	-8727
▁sah	-8728
▁catt	-8729
شيء	-8730
aker	-8731
▁לפת	-8732
جتماعية	-8733
▁window	-8734
edia	-8735
▁flight	-8736
▁الأكثر	-8737
це	-8738
acc	-8739
▁join	-8740
▁river	-8741
▁partners	-8742
▁والع	-8743
▁giusto	-8744
▁importantly	-8745
خي	-8746
eld	-8747
ئلة	-8748
ادي	-8749
▁nep	-8750
▁הרי	-8751
▁הגיע	-8752
▁ללמוד	-8753
▁Moment	-8754
▁artists	-8755
شاء	-8756
ikan	-8757
▁מוכ	-8758
▁Buch	-8759
▁teen	-8760
▁מתכו	-8761
▁birds	-8762
erà	-8763
לון	-8764
פחה	-8765
ارع	-8766
شري	-8767
▁ма	-8768
▁Ged	-8769
▁enter	-8770
▁להפוך	-8771
▁والآن	-8772
▁disord	-8773
▁הסיפור	-8774
▁knowing	-8775
سمع	-8776
▁מבו	-8777
▁espl	-8778
▁funny	-8779
▁später	-8780
itz	-8781
mas	-8782
שימה	-8783
▁ترى	-8784
▁معد	-8785
▁2007	-8786
▁Jetzt	-8787
▁meters	-8788
▁farmers	-8789
رح	-8790
▁cla	-8791
▁quad	-8792
▁يفعل	-8793
▁imagination	-8794
iett	-8795
▁wood	-8796
▁لهذه	-8797
▁causa	-8798
▁أصبحت	-8799
▁ستكون	-8800
▁všetko	-8801
▁unglaub	-8802
▁complexity	-8803
▁أست	-8804
▁Potlesk	-8805
زر	-8806
ויר	-8807
▁וד	-8808
cles	-8809
شارك	-8810
▁عمر	-8811
▁مدى	-8812
urale	-8813
▁bomb	-8814
▁schl	-8815
▁processo	-8816
imensional	-8817
זון	-8818
othes	-8819
▁fand	-8820
▁airpl	-8821
▁umano	-8822
▁vista	-8823
▁grazie	-8824
▁virtual	-8825
▁bringing	-8826
▁television	-8827
▁Čo	-8828
nych	-8829
קרים	-8830
▁مجال	-8831
▁במהלך	-8832
וצאה	-8833
▁Ako	-8834
▁أنك	-8835
▁aggi	-8836
akujem	-8837
▁המידע	-8838
▁gesagt	-8839
▁מיליארד	-8840
ened	-8841
בלתי	-8842
סתכל	-8843
ודי	-8844
ופו	-8845
icks	-8846
▁התע	-8847
▁passed	-8848
▁However	-8849
alley	-8850
▁liqu	-8851
▁master	-8852
▁creates	-8853
▁Actually	-8854
▁entirely	-8855
▁ברח	-8856
legen	-8857
▁svoje	-8858
PS	-8859
▁תש	-8860
▁صوت	-8861
▁كام	-8862
▁mand	-8863
▁תהיה	-8864
▁Street	-8865
üm	-8866
ве	-8867
ham	-8868
ibr	-8869
ارا	-8870
قال	-8871
▁شب	-8872
otti	-8873
ساسية	-8874
▁Terra	-8875
▁מדהים	-8876
▁finger	-8877
ologists	-8878
▁leadership	-8879
▁קר	-8880
▁عب	-8881
uster	-8882
▁lack	-8883
▁advan	-8884
▁cheap	-8885
▁hovor	-8886
▁mente	-8887
▁switch	-8888
نف	-8889
▁احت	-8890
azine	-8891
▁أمري	-8892
▁Guard	-8893
▁implic	-8894
stellung	-8895
▁schaffen	-8896
wh	-8897
äus	-8898
هار	-8899
ائلة	-8900
▁neu	-8901
ively	-8902
tempt	-8903
▁agre	-8904
▁held	-8905
▁гэта	-8906
▁easier	-8907
▁eigenen	-8908
▁Audience	-8909
▁billions	-8910
מתי	-8911
▁až	-8912
ייקט	-8913
▁categ	-8914
▁enorme	-8915
כולם	-8916
ساطة	-8917
▁بدلا	-8918
▁party	-8919
ış	-8920
رين	-8921
▁قا	-8922
ests	-8923
▁Mag	-8924
▁Bewe	-8925
▁نكون	-8926
▁emiss	-8927
▁hätte	-8928
▁ignor	-8929
דל	-8930
heits	-8931
print	-8932
▁estab	-8933
▁mouth	-8934
▁popol	-8935
▁French	-8936
▁týchto	-8937
▁وش	-8938
עילות	-8939
ändert	-8940
▁أستطيع	-8941
▁بواسطة	-8942
▁diverso	-8943
isf	-8944
áme	-8945
▁nä	-8946
ائية	-8947
▁dot	-8948
based	-8949
▁בעיה	-8950
▁propr	-8951
▁Allora	-8952
▁oxygen	-8953
▁focused	-8954
▁glauben	-8955
▁באמצעות	-8956
ко	-8957
حاء	-8958
▁ko	-8959
▁var	-8960
▁NASA	-8961
▁fert	-8962
▁ktorú	-8963
▁trial	-8964
▁Bas	-8965
▁תוכ	-8966
▁فوق	-8967
▁Amaz	-8968
▁beim	-8969
▁vede	-8970
▁Siamo	-8971
▁אמרתי	-8972
▁spaces	-8973
▁British	-8974
chè	-8975
throp	-8976
▁kompl	-8977
▁עליהם	-8978
▁Israel	-8979
▁recover	-8980
▁trouble	-8981
čné	-8982
▁PM	-8983
▁קל	-8984
alsi	-8985
bild	-8986
oduch	-8987
▁bude	-8988
▁accad	-8989
▁stuck	-8990
▁Op	-8991
▁pap	-8992
ضة	-8993
vek	-8994
ولي	-8995
▁כח	-8996
▁hyd	-8997
gesch	-8998
▁vert	-8999
▁עצמי	-9000
▁galax	-9001
▁libro	-9002
▁المزيد	-9003
▁stellen	-9004
omy	-9005
▁למד	-9006
▁Cred	-9007
▁cert	-9008
▁להצי	-9009
▁absol	-9010
▁conto	-9011
▁دعونا	-9012
▁funktioniert	-9013
kr	-9014
עיל	-9015
▁Ur	-9016
vard	-9017
ysis	-9018
▁נעשה	-9019
▁calls	-9020
oration	-9021
▁piccola	-9022
▁تل	-9023
orse	-9024
gefähr	-9025
▁השאלה	-9026
▁الرئي	-9027
▁brings	-9028
▁dinosa	-9029
كتب	-9030
▁də	-9031
ding	-9032
▁pil	-9033
▁במח	-9034
▁veľa	-9035
▁describe	-9036
ку	-9037
term	-9038
▁מנה	-9039
▁الأد	-9040
▁להתחיל	-9041
▁accident	-9042
غر	-9043
log	-9044
▁Atl	-9045
eless	-9046
▁Bene	-9047
▁Life	-9048
▁shop	-9049
▁sviluppo	-9050
▁نش	-9051
▁התי	-9052
▁حالة	-9053
▁Natur	-9054
▁profession	-9055
ız	-9056
יין	-9057
▁hyp	-9058
▁Geme	-9059
▁poco	-9060
rieben	-9061
▁ancest	-9062
▁desert	-9063
▁lernen	-9064
טב	-9065
بغي	-9066
elte	-9067
▁jedes	-9068
▁Afrika	-9069
▁justice	-9070
▁investment	-9071
ees	-9072
▁600	-9073
▁Pal	-9074
▁nor	-9075
▁niem	-9076
▁شركة	-9077
▁engage	-9078
▁naozaj	-9079
▁Anderson	-9080
▁possibility	-9081
▁Bet	-9082
▁Sim	-9083
▁môj	-9084
▁קרה	-9085
apped	-9086
▁prem	-9087
ctions	-9088
rength	-9089
▁madre	-9090
▁guerra	-9091
ographic	-9092
▁Zwe	-9093
▁boys	-9094
▁sape	-9095
▁المش	-9096
▁Super	-9097
▁cloud	-9098
500	-9099
ליון	-9100
▁Mil	-9101
▁Sud	-9102
▁abst	-9103
▁Licht	-9104
▁donna	-9105
▁indem	-9106
▁Mutter	-9107
ظن	-9108
▁Pu	-9109
▁ופ	-9110
▁Uns	-9111
▁hod	-9112
icles	-9113
▁gall	-9114
▁Green	-9115
▁Spiel	-9116
▁exerc	-9117
▁figli	-9118
▁שלושה	-9119
▁Austral	-9120
▁konnten	-9121
▁regular	-9122
▁particolare	-9123
цца	-9124
וקר	-9125
بحث	-9126
שיים	-9127
▁Män	-9128
▁fle	-9129
▁rok	-9130
▁ešte	-9131
▁עליה	-9132
▁الرا	-9133
onders	-9134
▁equival	-9135
▁meravig	-9136
▁ragione	-9137
▁الإنترنت	-9138
▁vac	-9139
▁cure	-9140
▁تخيل	-9141
▁Antwort	-9142
▁irgendw	-9143
▁transpar	-9144
▁commercial	-9145
mu	-9146
זיק	-9147
arla	-9148
▁nik	-9149
▁מרו	-9150
▁فان	-9151
ietro	-9152
▁European	-9153
▁Francisco	-9154
aben	-9155
▁ďal	-9156
▁ובע	-9157
▁מבחי	-9158
▁svete	-9159
▁فل	-9160
▁Mat	-9161
▁Have	-9162
קב	-9163
uri	-9164
جابة	-9165
▁repe	-9166
▁wear	-9167
▁יהיו	-9168
▁الرجل	-9169
▁القرن	-9170
▁notion	-9171
▁identity	-9172
▁religious	-9173
orto	-9174
▁bio	-9175
bbero	-9176
▁Haus	-9177
▁George	-9178
▁Gesund	-9179
▁أود	-9180
▁ترك	-9181
ented	-9182
▁Augen	-9183
▁conos	-9184
▁אחרות	-9185
▁budget	-9186
جن	-9187
לינו	-9188
▁عنها	-9189
▁giorn	-9190
▁telesc	-9191
▁preoccup	-9192
už	-9193
ads	-9194
▁תו	-9195
▁בתי	-9196
▁طوي	-9197
▁مبا	-9198
▁רעיון	-9199
▁100,000	-9200
▁partner	-9201
cole	-9202
כונות	-9203
▁host	-9204
▁môže	-9205
▁مستوى	-9206
▁وكانت	-9207
▁definition	-9208
זל	-9209
حق	-9210
▁bil	-9211
▁ner	-9212
▁allo	-9213
▁poch	-9214
▁ascol	-9215
▁cercare	-9216
▁extreme	-9217
בוע	-9218
سين	-9219
فاع	-9220
▁та	-9221
▁biz	-9222
▁השו	-9223
▁fold	-9224
▁advant	-9225
▁attract	-9226
▁immagini	-9227
berg	-9228
oses	-9229
ulpt	-9230
▁Lie	-9231
▁vel	-9232
▁Mark	-9233
▁chip	-9234
aining	-9235
ruktur	-9236
▁campo	-9237
▁الممكن	-9238
▁bew	-9239
▁שיו	-9240
▁وصل	-9241
▁مثال	-9242
atamente	-9243
▁ambiente	-9244
▁studying	-9245
▁possibilità	-9246
ليات	-9247
קומות	-9248
ellschaft	-9249
▁strength	-9250
المي	-9251
امعة	-9252
▁Sun	-9253
izioni	-9254
▁tejto	-9255
▁nutzen	-9256
▁funziona	-9257
▁opposite	-9258
▁sì	-9259
nung	-9260
▁rom	-9261
▁Verb	-9262
▁חייבים	-9263
▁מקבלים	-9264
▁governo	-9265
طار	-9266
▁שפ	-9267
kých	-9268
▁scen	-9269
erebbe	-9270
▁heißt	-9271
▁motor	-9272
▁avrebbe	-9273
▁elements	-9274
▁majority	-9275
לוב	-9276
عاب	-9277
وها	-9278
lter	-9279
▁moj	-9280
▁להו	-9281
▁بحيث	-9282
minist	-9283
▁Would	-9284
▁walls	-9285
▁بكثير	-9286
▁commit	-9287
▁yellow	-9288
▁despite	-9289
▁modello	-9290
orre	-9291
▁kit	-9292
▁ומת	-9293
atures	-9294
▁ersch	-9295
▁תמונה	-9296
▁raised	-9297
جاه	-9298
eper	-9299
▁نست	-9300
▁ille	-9301
טל	-9302
chs	-9303
חתי	-9304
ativa	-9305
▁esist	-9306
▁museum	-9307
▁storie	-9308
nak	-9309
eding	-9310
ropri	-9311
▁noise	-9312
▁الأما	-9313
osition	-9314
▁cercando	-9315
▁öff	-9316
▁صنا	-9317
ležit	-9318
▁faces	-9319
▁previ	-9320
▁טובים	-9321
▁Selbst	-9322
ספ	-9323
vať	-9324
▁نع	-9325
▁טבע	-9326
▁Spra	-9327
▁niek	-9328
▁ster	-9329
▁وليس	-9330
▁shoot	-9331
▁foreign	-9332
יתנו	-9333
▁250	-9334
ionen	-9335
▁colors	-9336
▁fighting	-9337
ghi	-9338
bare	-9339
▁appe	-9340
▁bear	-9341
▁fünf	-9342
▁giro	-9343
▁לספר	-9344
▁שלוש	-9345
▁Frank	-9346
▁signal	-9347
▁progett	-9348
▁strategy	-9349
▁ultimately	-9350
שמע	-9351
▁بلا	-9352
▁failure	-9353
▁traffic	-9354
▁Probleme	-9355
ael	-9356
▁65	-9357
▁זק	-9358
▁ולכן	-9359
▁הילדים	-9360
ties	-9361
unge	-9362
▁Qui	-9363
known	-9364
▁chair	-9365
alsiasi	-9366
▁therap	-9367
▁attempt	-9368
oden	-9369
atico	-9370
▁bone	-9371
▁בעזרת	-9372
▁creato	-9373
▁phones	-9374
ification	-9375
uno	-9376
טרו	-9377
ünst	-9378
▁gam	-9379
▁faith	-9380
▁scienza	-9381
▁conference	-9382
ıq	-9383
تين	-9384
osis	-9385
ברתי	-9386
▁במע	-9387
▁שיה	-9388
▁coin	-9389
▁Kunst	-9390
▁Trans	-9391
▁neuen	-9392
▁parent	-9393
▁investig	-9394
▁Sometimes	-9395
gra	-9396
ffee	-9397
بيوتر	-9398
▁soil	-9399
ulations	-9400
▁Charles	-9401
ille	-9402
▁Pak	-9403
▁Bank	-9404
▁guid	-9405
▁valu	-9406
▁שונות	-9407
ologist	-9408
tenzione	-9409
▁opportunities	-9410
גור	-9411
▁Phil	-9412
▁proud	-9413
▁counter	-9414
▁childhood	-9415
حص	-9416
▁ра	-9417
bled	-9418
▁lat	-9419
itely	-9420
▁Wahr	-9421
▁فعله	-9422
▁parti	-9423
▁breast	-9424
▁brilli	-9425
▁double	-9426
▁fairly	-9427
▁seiner	-9428
▁sexual	-9429
▁radical	-9430
▁interpret	-9431
▁manip	-9432
▁stare	-9433
▁metaph	-9434
▁האחרונות	-9435
▁tremendous	-9436
שאר	-9437
osten	-9438
▁dobr	-9439
▁príbe	-9440
▁figured	-9441
▁organisms	-9442
▁phenomenon	-9443
جهزة	-9444
عاية	-9445
▁pau	-9446
▁grav	-9447
▁reve	-9448
▁coast	-9449
▁necessary	-9450
דן	-9451
▁صع	-9452
abili	-9453
▁מעניין	-9454
▁efficient	-9455
جي	-9456
▁רבות	-9457
▁prior	-9458
▁المرض	-9459
▁opened	-9460
▁negative	-9461
▁Australia	-9462
▁responsible	-9463
▁ax	-9464
▁פו	-9465
▁بعمل	-9466
▁نفسي	-9467
idente	-9468
isches	-9469
▁Kenya	-9470
▁betra	-9471
▁genug	-9472
▁microsc	-9473
מט	-9474
▁ור	-9475
▁اث	-9476
קלים	-9477
▁בכך	-9478
▁מני	-9479
▁modi	-9480
▁وعلى	-9481
▁dovuto	-9482
▁benefits	-9483
▁vogliamo	-9484
üs	-9485
צח	-9486
rend	-9487
▁comunic	-9488
▁Possiamo	-9489
כך	-9490
lep	-9491
olu	-9492
oval	-9493
▁למש	-9494
ciato	-9495
▁boat	-9496
▁sott	-9497
ography	-9498
▁pounds	-9499
▁leading	-9500
▁ecosystem	-9501
▁suffering	-9502
leg	-9503
the	-9504
ريت	-9505
صاب	-9506
ieht	-9507
▁neb	-9508
▁synth	-9509
▁Muslim	-9510
▁môžete	-9511
▁vivere	-9512
icamente	-9513
▁Harvard	-9514
▁kilometers	-9515
▁החד	-9516
▁paio	-9517
ulated	-9518
▁passato	-9519
נא	-9520
חלט	-9521
Tube	-9522
fahren	-9523
▁chiamato	-9524
وائ	-9525
uche	-9526
▁ההי	-9527
▁sess	-9528
▁destroy	-9529
▁holding	-9530
lə	-9531
▁Я	-9532
omm	-9533
▁وجه	-9534
▁fung	-9535
▁abbia	-9536
▁brother	-9537
▁fashion	-9538
▁Ďakujem	-9539
▁ungefähr	-9540
▁competition	-9541
▁šk	-9542
▁מאז	-9543
idents	-9544
▁YouTube	-9545
▁compared	-9546
zuf	-9547
ائج	-9548
صور	-9549
▁sozi	-9550
▁tour	-9551
▁العم	-9552
▁البحث	-9553
▁coffee	-9554
▁Vie	-9555
▁קודם	-9556
▁creatures	-9557
jav	-9558
פיע	-9559
ابق	-9560
▁רג	-9561
welt	-9562
▁fid	-9563
▁lucky	-9564
▁succe	-9565
▁display	-9566
▁engineers	-9567
هن	-9568
راف	-9569
זרים	-9570
▁Num	-9571
▁עומד	-9572
▁forza	-9573
artment	-9574
▁lesson	-9575
▁background	-9576
גני	-9577
▁لش	-9578
auer	-9579
ناها	-9580
▁Ave	-9581
▁בחו	-9582
▁عدم	-9583
▁bound	-9584
▁nuove	-9585
▁recon	-9586
▁להגיד	-9587
▁مدينة	-9588
▁bridge	-9589
▁emotions	-9590
mar	-9591
▁إي	-9592
▁arte	-9593
▁חדשה	-9594
▁מגיע	-9595
▁stava	-9596
▁veget	-9597
▁Nigeria	-9598
▁insects	-9599
▁separate	-9600
▁وبالتالي	-9601
▁discovery	-9602
▁ככל	-9603
▁roku	-9604
▁עצמו	-9605
▁وهكذا	-9606
▁antibi	-9607
▁particles	-9608
ompl	-9609
▁שהא	-9610
▁للن	-9611
alten	-9612
ester	-9613
▁zone	-9614
forest	-9615
▁simpl	-9616
▁Mensch	-9617
▁במיוחד	-9618
▁distance	-9619
▁migliaia	-9620
▁nächsten	-9621
▁qualsiasi	-9622
▁الحيوانات	-9623
цы	-9624
vet	-9625
zzi	-9626
▁Mid	-9627
▁indietro	-9628
▁wahrscheinlich	-9629
па	-9630
enty	-9631
▁vog	-9632
▁nasc	-9633
▁نعلم	-9634
▁newsp	-9635
▁بسرعة	-9636
▁معرفة	-9637
▁construct	-9638
▁diventare	-9639
ker	-9640
ואי	-9641
ואר	-9642
▁رس	-9643
ších	-9644
▁الحد	-9645
فز	-9646
car	-9647
קופ	-9648
cipl	-9649
▁Arm	-9650
▁pul	-9651
▁שזו	-9652
▁المهم	-9653
▁limited	-9654
▁Tu	-9655
▁Wow	-9656
▁Once	-9657
▁تفعل	-9658
▁helps	-9659
▁الحرب	-9660
▁analog	-9661
▁refuge	-9662
ме	-9663
hrer	-9664
onti	-9665
▁GPS	-9666
▁novel	-9667
▁weird	-9668
▁profit	-9669
▁empower	-9670
▁husband	-9671
жа	-9672
▁joy	-9673
▁نصف	-9674
▁שהיו	-9675
▁refer	-9676
▁interv	-9677
▁الخارج	-9678
▁الرجال	-9679
▁unserem	-9680
ونه	-9681
umin	-9682
▁Paul	-9683
▁occas	-9684
▁events	-9685
▁invisible	-9686
סם	-9687
hes	-9688
▁חדשות	-9689
▁צריכה	-9690
▁caught	-9691
▁hidden	-9692
ays	-9693
▁esc	-9694
▁god	-9695
chmal	-9696
idade	-9697
▁gute	-9698
▁zeigt	-9699
▁Canada	-9700
▁mettere	-9701
▁rispetto	-9702
▁fondament	-9703
يران	-9704
▁majú	-9705
▁התחלתי	-9706
▁surprise	-9707
oko	-9708
orr	-9709
שיג	-9710
▁Dop	-9711
▁כוכ	-9712
▁Mart	-9713
▁fals	-9714
▁luogo	-9715
▁require	-9716
▁التعليم	-9717
▁studenti	-9718
حدى	-9719
izes	-9720
▁Mäd	-9721
▁לסי	-9722
▁Film	-9723
▁hell	-9724
▁sche	-9725
issimo	-9726
▁Three	-9727
▁embra	-9728
▁anders	-9729
▁grandm	-9730
▁חודשים	-9731
▁everyday	-9732
▁نج	-9733
▁tiež	-9734
▁2,000	-9735
▁studi	-9736
isschen	-9737
▁dimost	-9738
▁erzählen	-9739
גת	-9740
čen	-9741
مسة	-9742
ielt	-9743
rian	-9744
torno	-9745
▁ברור	-9746
▁הטבע	-9747
▁grass	-9748
▁herum	-9749
▁הסיבה	-9750
▁ينبغي	-9751
▁לחלוטין	-9752
▁jednoduch	-9753
imal	-9754
▁Child	-9755
▁morte	-9756
▁pleas	-9757
▁managed	-9758
▁privile	-9759
ded	-9760
סות	-9761
עור	-9762
צאת	-9763
cile	-9764
▁בפני	-9765
▁aller	-9766
▁Brazil	-9767
ارس	-9768
متلك	-9769
▁لمدة	-9770
▁amici	-9771
▁elekt	-9772
▁dollar	-9773
▁finished	-9774
▁Gh	-9775
▁إد	-9776
▁ecc	-9777
▁למו	-9778
▁بعي	-9779
▁James	-9780
▁تحتاج	-9781
▁sector	-9782
▁Projekt	-9783
▁mathematics	-9784
خا	-9785
zus	-9786
stvo	-9787
ראים	-9788
▁nos	-9789
▁tox	-9790
▁diet	-9791
▁sole	-9792
▁cycle	-9793
▁nejak	-9794
▁deeply	-9795
▁bisschen	-9796
▁confront	-9797
▁alternative	-9798
▁necessarily	-9799
pper	-9800
ären	-9801
וצאות	-9802
heiten	-9803
▁Exper	-9804
▁erinn	-9805
▁recht	-9806
▁Wissen	-9807
▁piccoli	-9808
פקי	-9809
خفض	-9810
bere	-9811
icip	-9812
לחמה	-9813
▁iPh	-9814
▁وسي	-9815
▁damage	-9816
▁sentito	-9817
▁studied	-9818
ilie	-9819
وبوت	-9820
▁Sec	-9821
▁King	-9822
▁باست	-9823
▁diret	-9824
▁لأننا	-9825
▁argument	-9826
▁unfortunately	-9827
כז	-9828
čas	-9829
▁بو	-9830
wend	-9831
▁jej	-9832
▁ori	-9833
▁שהן	-9834
▁School	-9835
▁pubblic	-9836
▁أفريقيا	-9837
▁believed	-9838
kaz	-9839
oman	-9840
▁ens	-9841
▁nav	-9842
▁ott	-9843
▁pas	-9844
▁כלל	-9845
▁insight	-9846
▁predstav	-9847
נוך	-9848
▁Ap	-9849
▁бы	-9850
▁ير	-9851
aped	-9852
ينية	-9853
▁gre	-9854
▁Dunque	-9855
▁contem	-9856
▁frustr	-9857
▁sosten	-9858
dimensional	-9859
ee	-9860
ppi	-9861
▁سل	-9862
edes	-9863
▁bun	-9864
▁edge	-9865
▁bread	-9866
▁veloce	-9867
▁מאיתנו	-9868
či	-9869
load	-9870
▁hol	-9871
▁שהי	-9872
ossen	-9873
▁puzz	-9874
▁نفعل	-9875
▁crash	-9876
▁leads	-9877
▁resol	-9878
▁vuole	-9879
▁القصة	-9880
▁begins	-9881
▁dreams	-9882
▁Angeles	-9883
▁compare	-9884
▁رأي	-9885
▁وكن	-9886
bling	-9887
קשורת	-9888
▁click	-9889
▁mouse	-9890
▁periodo	-9891
قيقية	-9892
▁equal	-9893
▁البدا	-9894
▁oceans	-9895
▁domande	-9896
▁Ah	-9897
zess	-9898
▁úpl	-9899
estic	-9900
▁1960	-9901
▁coal	-9902
▁gender	-9903
▁עובדים	-9904
تا	-9905
ופר	-9906
ליח	-9907
omas	-9908
▁لتح	-9909
▁توجد	-9910
▁חדשים	-9911
▁influen	-9912
bene	-9913
wide	-9914
יוני	-9915
▁Sto	-9916
▁avv	-9917
▁שבא	-9918
▁hate	-9919
▁המון	-9920
undert	-9921
▁sorry	-9922
▁testa	-9923
▁أنواع	-9924
▁vá	-9925
izin	-9926
▁Each	-9927
▁gift	-9928
▁porta	-9929
▁לנסות	-9930
▁centro	-9931
▁rozhod	-9932
▁všetky	-9933
▁benefit	-9934
▁planning	-9935
▁Milliarden	-9936
čiť	-9937
abet	-9938
▁ממו	-9939
▁2005	-9940
▁Stan	-9941
▁bird	-9942
▁trill	-9943
▁לגרום	-9944
▁galaxies	-9945
▁differenza	-9946
▁ovviamente	-9947
خط	-9948
esa	-9949
▁36	-9950
▁scr	-9951
▁مرض	-9952
gehen	-9953
▁como	-9954
▁الات	-9955
▁Queste	-9956
▁balance	-9957
▁intorno	-9958
تر	-9959
anes	-9960
▁cav	-9961
▁elim	-9962
▁verd	-9963
▁במדי	-9964
▁النو	-9965
▁crime	-9966
▁מדברים	-9967
▁crescita	-9968
בן	-9969
äll	-9970
▁החלט	-9971
▁accur	-9972
▁impro	-9973
▁Darwin	-9974
▁closed	-9975
▁fellow	-9976
▁helfen	-9977
▁restaur	-9978
▁shouldn	-9979
▁wearing	-9980
▁الماضية	-9981
هذا	-9982
▁ככה	-9983
▁Very	-9984
▁otáz	-9985
▁rend	-9986
▁trip	-9987
achsen	-9988
▁Credo	-9989
▁truck	-9990
▁رائعة	-9991
▁kennen	-9992
▁proced	-9993
▁creation	-9994
▁intellect	-9995
▁cominciato	-9996
erò	-9997
▁كن	-9998
▁לאח	-9999
▁رجل	-10000
▁lange	-10001
▁consequences	-10002
agna	-10003
äche	-10004
לומר	-10005
▁fing	-10006
▁salv	-10007
▁scene	-10008
▁الحديث	-10009
ודת	-10010
▁Bere	-10011
▁reti	-10012
▁bauen	-10013
▁exhib	-10014
▁cultura	-10015
▁trovato	-10016
gin	-10017
kan	-10018
ulf	-10019
▁לשם	-10020
▁syst	-10021
▁שאין	-10022
▁والد	-10023
▁بدأنا	-10024
▁richtig	-10025
iu	-10026
רכז	-10027
▁cie	-10028
▁dat	-10029
▁secolo	-10030
▁מסוגלים	-10031
▁agriculture	-10032
▁incredibile	-10033
aq	-10034
נסי	-10035
▁وض	-10036
onto	-10037
▁למח	-10038
▁متح	-10039
▁Wort	-10040
▁band	-10041
▁exch	-10042
▁מחשב	-10043
▁أليس	-10044
ancing	-10045
▁posti	-10046
▁حياتي	-10047
▁لأنها	-10048
▁signals	-10049
דק	-10050
לם	-10051
ike	-10052
isi	-10053
דאו	-10054
▁chann	-10055
▁circle	-10056
▁slowly	-10057
▁المدينة	-10058
▁followed	-10059
▁constantly	-10060
ورو	-10061
ieri	-10062
zieh	-10063
נהגות	-10064
▁ring	-10065
▁בעוד	-10066
▁שאלה	-10067
▁القا	-10068
▁Ideen	-10069
▁reale	-10070
▁למרות	-10071
▁الثلا	-10072
▁typical	-10073
▁fascinating	-10074
משיך	-10075
▁Cam	-10076
▁bright	-10077
▁continent	-10078
го	-10079
וקה	-10080
كات	-10081
وجه	-10082
unte	-10083
▁ucc	-10084
▁Does	-10085
▁المق	-10086
▁Planeten	-10087
כיר	-10088
▁II	-10089
rupt	-10090
סקים	-10091
▁zam	-10092
▁recy	-10093
▁susp	-10094
▁يعيش	-10095
▁equip	-10096
▁schwer	-10097
▁disappear	-10098
cil	-10099
vod	-10100
רוא	-10101
▁Sì	-10102
▁יצ	-10103
▁Alz	-10104
ulous	-10105
▁משנה	-10106
▁adopt	-10107
▁erken	-10108
▁الجزء	-10109
▁مشروع	-10110
▁observ	-10111
▁leaving	-10112
▁mercato	-10113
▁باستخدام	-10114
▁אג	-10115
▁يؤ	-10116
alle	-10117
ומות	-10118
▁gig	-10119
riage	-10120
▁chim	-10121
▁נפלא	-10122
lection	-10123
▁desire	-10124
ýš	-10125
tov	-10126
ובדה	-10127
▁Sat	-10128
▁ned	-10129
▁ילד	-10130
leben	-10131
מינים	-10132
▁cook	-10133
▁date	-10134
▁רואה	-10135
▁stamp	-10136
▁sympt	-10137
▁لكنها	-10138
▁failed	-10139
▁multiple	-10140
▁satellite	-10141
▁researchers	-10142
hö	-10143
▁Kor	-10144
▁unf	-10145
▁Port	-10146
▁adults	-10147
▁replic	-10148
▁related	-10149
▁survival	-10150
▁straordin	-10151
DP	-10152
spe	-10153
ساسي	-10154
▁Pub	-10155
▁الصحي	-10156
▁Mexico	-10157
▁aument	-10158
▁debate	-10159
▁sculpt	-10160
▁á	-10161
jek	-10162
▁لس	-10163
ובים	-10164
▁asi	-10165
▁התא	-10166
▁ماي	-10167
quality	-10168
▁expert	-10169
▁motivo	-10170
▁môžeme	-10171
طية	-10172
ملة	-10173
▁Alex	-10174
▁איפה	-10175
▁מעבר	-10176
▁ricon	-10177
▁الامر	-10178
uli	-10179
ختي	-10180
allo	-10181
izio	-10182
▁gör	-10183
akter	-10184
▁geme	-10185
▁pace	-10186
▁אוכל	-10187
▁fresh	-10188
▁Amazon	-10189
▁Germany	-10190
ונה	-10191
موع	-10192
▁Lu	-10193
▁طفل	-10194
שורים	-10195
▁החלק	-10196
▁جزيلا	-10197
▁Michael	-10198
וחר	-10199
ופה	-10200
أخذ	-10201
▁אד	-10202
ختبر	-10203
▁anf	-10204
▁weg	-10205
▁Arten	-10206
▁names	-10207
▁curious	-10208
▁טכנולוגיה	-10209
לל	-10210
רוק	-10211
ammo	-10212
athy	-10213
ونها	-10214
▁מוג	-10215
تمعات	-10216
▁tomu	-10217
▁אמרו	-10218
▁חייב	-10219
▁اللا	-10220
rative	-10221
▁מתחילים	-10222
anu	-10223
äre	-10224
לול	-10225
حدا	-10226
essed	-10227
▁jede	-10228
▁soul	-10229
▁whom	-10230
▁מעור	-10231
▁أبدا	-10232
▁تصبح	-10233
chnitt	-10234
ologie	-10235
▁avoid	-10236
▁spieg	-10237
▁מבינים	-10238
▁المياه	-10239
▁received	-10240
▁mentioned	-10241
▁professional	-10242
ואה	-10243
▁ام	-10244
ربما	-10245
▁Chi	-10246
▁rub	-10247
ingly	-10248
▁الإست	-10249
▁succeed	-10250
auj	-10251
▁מוק	-10252
▁arms	-10253
▁אוהב	-10254
itness	-10255
▁steps	-10256
▁povedal	-10257
▁النهاية	-10258
▁؛	-10259
eria	-10260
▁earn	-10261
▁hero	-10262
▁meat	-10263
▁bevor	-10264
▁Center	-10265
▁degree	-10266
▁salute	-10267
▁Mädchen	-10268
פיה	-10269
يانا	-10270
▁bat	-10271
▁הני	-10272
▁ارت	-10273
▁tick	-10274
ovanie	-10275
bringen	-10276
▁manage	-10277
▁chiesto	-10278
én	-10279
ťaž	-10280
ppen	-10281
▁seg	-10282
gency	-10283
place	-10284
right	-10285
▁1990	-10286
▁dens	-10287
▁pure	-10288
▁serie	-10289
▁replace	-10290
▁meravigli	-10291
ahn	-10292
estra	-10293
▁الخي	-10294
▁يصبح	-10295
hnlich	-10296
uments	-10297
▁Krank	-10298
▁caused	-10299
▁wisdom	-10300
▁Wirtschaft	-10301
▁Informationen	-10302
▁Sl	-10303
▁فا	-10304
▁Sil	-10305
▁הטי	-10306
▁بنا	-10307
chter	-10308
▁Last	-10309
▁deli	-10310
▁أعني	-10311
▁ذهبت	-10312
▁quote	-10313
abilità	-10314
▁movies	-10315
▁musica	-10316
▁يستخدم	-10317
ít	-10318
▁תת	-10319
▁بس	-10320
plom	-10321
▁wid	-10322
▁homes	-10323
▁invited	-10324
▁trained	-10325
attamente	-10326
▁otherwise	-10327
أكيد	-10328
ربون	-10329
gramm	-10330
uries	-10331
▁בשנה	-10332
▁إليه	-10333
▁النت	-10334
ondere	-10335
▁liegt	-10336
▁mohli	-10337
▁round	-10338
▁dispos	-10339
-19	-10340
זרח	-10341
▁Sy	-10342
isse	-10343
▁Rem	-10344
▁Tre	-10345
▁nan	-10346
▁لدى	-10347
ultur	-10348
▁Gebä	-10349
▁מתחת	-10350
▁الحل	-10351
▁Nicht	-10352
▁argue	-10353
▁padre	-10354
▁south	-10355
▁לעזור	-10356
▁divert	-10357
▁يمكنني	-10358
▁factory	-10359
ננו	-10360
قلت	-10361
aust	-10362
▁chc	-10363
▁tab	-10364
▁uká	-10365
▁fell	-10366
▁sang	-10367
▁الوح	-10368
▁وإذا	-10369
▁climb	-10370
▁parola	-10371
▁depression	-10372
cca	-10373
▁Fäh	-10374
▁moz	-10375
▁nak	-10376
▁eing	-10377
▁שעות	-10378
▁seinen	-10379
▁Everything	-10380
ix	-10381
▁المري	-10382
org	-10383
ova	-10384
▁CE	-10385
riff	-10386
▁žiad	-10387
▁بالح	-10388
bracht	-10389
▁Schul	-10390
▁אוקיי	-10391
orb	-10392
ستي	-10393
ault	-10394
hyth	-10395
▁Dep	-10396
▁dry	-10397
▁بأنه	-10398
▁جهاز	-10399
▁ויותר	-10400
▁harder	-10401
▁mothers	-10402
yt	-10403
▁inevit	-10404
▁leaves	-10405
▁الثانية	-10406
▁Pakistan	-10407
▁economia	-10408
▁increasingly	-10409
זיה	-10410
وفر	-10411
opia	-10412
▁באר	-10413
▁أولا	-10414
▁كلما	-10415
▁moves	-10416
▁במקרה	-10417
▁البلد	-10418
ollywood	-10419
▁Everybody	-10420
▁struttura	-10421
mö	-10422
del	-10423
ným	-10424
طبي	-10425
elet	-10426
▁Sci	-10427
▁שול	-10428
▁Verg	-10429
▁Zahl	-10430
▁الأف	-10431
▁المل	-10432
▁mater	-10433
▁select	-10434
▁überall	-10435
▁Revolution	-10436
▁businesses	-10437
ße	-10438
eno	-10439
rebs	-10440
resp	-10441
حيان	-10442
▁cio	-10443
▁emb	-10444
inder	-10445
▁klar	-10446
▁ايضا	-10447
▁grown	-10448
▁picked	-10449
▁concerned	-10450
▁opportunità	-10451
ту	-10452
▁خي	-10453
▁كي	-10454
▁Est	-10455
▁إلا	-10456
▁משום	-10457
▁tumor	-10458
▁Dieses	-10459
سع	-10460
قائق	-10461
▁tag	-10462
▁wus	-10463
▁בשם	-10464
▁صور	-10465
▁tons	-10466
▁barri	-10467
▁أنحاء	-10468
▁currently	-10469
pan	-10470
وجب	-10471
▁mňa	-10472
lobal	-10473
▁hasn	-10474
▁thri	-10475
▁מעולם	-10476
▁seconda	-10477
▁influence	-10478
▁considered	-10479
سام	-10480
zust	-10481
▁ממה	-10482
ening	-10483
▁libr	-10484
▁lies	-10485
▁medzi	-10486
▁exists	-10487
▁remote	-10488
igkeiten	-10489
iev	-10490
▁נס	-10491
ength	-10492
▁king	-10493
▁ביחד	-10494
▁Hanno	-10495
▁Punkt	-10496
▁כנראה	-10497
▁permet	-10498
ئك	-10499
بعة	-10500
▁bic	-10501
▁Mont	-10502
▁الأش	-10503
▁السنة	-10504
▁מדינות	-10505
יתו	-10506
לוי	-10507
קהל	-10508
ويا	-10509
▁חס	-10510
▁يك	-10511
cket	-10512
טיים	-10513
▁tim	-10514
▁העצ	-10515
ويورك	-10516
heimer	-10517
▁cancro	-10518
▁schwier	-10519
▁sequence	-10520
ví	-10521
שרות	-10522
▁mať	-10523
▁soff	-10524
▁assem	-10525
▁quiet	-10526
▁rates	-10527
ruzione	-10528
▁Perciò	-10529
▁magazine	-10530
▁advantage	-10531
און	-10532
▁vaš	-10533
ranno	-10534
▁wicht	-10535
▁تاريخ	-10536
▁motion	-10537
▁illustr	-10538
gono	-10539
onym	-10540
ברסי	-10541
▁Ist	-10542
▁fan	-10543
▁ren	-10544
craft	-10545
▁flat	-10546
▁talks	-10547
▁scienzi	-10548
▁weather	-10549
▁migliori	-10550
▁32	-10551
schl	-10552
▁ends	-10553
▁lift	-10554
▁קטנה	-10555
▁nuovi	-10556
▁plast	-10557
▁sopra	-10558
▁vicino	-10559
▁Dobbiamo	-10560
מוקר	-10561
▁Vol	-10562
▁çox	-10563
▁وحت	-10564
▁bits	-10565
▁stro	-10566
▁מדהי	-10567
▁السا	-10568
ולוגיה	-10569
▁navig	-10570
▁إعادة	-10571
▁regist	-10572
▁الطبيعة	-10573
▁programm	-10574
▁described	-10575
רחש	-10576
▁ضد	-10577
اتنا	-10578
▁הממש	-10579
▁כשאת	-10580
▁darum	-10581
▁gioco	-10582
▁horri	-10583
▁paura	-10584
▁stále	-10585
▁battle	-10586
▁אחוזים	-10587
▁essential	-10588
▁verändern	-10589
▁emo	-10590
▁המדע	-10591
ushing	-10592
▁nulla	-10593
▁למעלה	-10594
▁أشخاص	-10595
▁حينها	-10596
▁unless	-10597
▁emotion	-10598
▁contract	-10599
▁cognitive	-10600
häng	-10601
▁Star	-10602
▁איזה	-10603
▁Penso	-10604
▁sister	-10605
▁surprised	-10606
▁Us	-10607
ösen	-10608
▁Sam	-10609
▁ants	-10610
▁warm	-10611
▁היכן	-10612
▁ascolt	-10613
▁nennen	-10614
▁יכולות	-10615
▁experts	-10616
▁الجديدة	-10617
▁interaction	-10618
זק	-10619
טוס	-10620
▁BG	-10621
gent	-10622
▁Sep	-10623
▁Str	-10624
▁voc	-10625
▁1980	-10626
▁stock	-10627
▁الفضاء	-10628
kten	-10629
▁Ciò	-10630
▁row	-10631
▁تتح	-10632
ücken	-10633
▁Bost	-10634
▁tail	-10635
▁teda	-10636
▁camer	-10637
▁الرائ	-10638
▁iPhone	-10639
▁launched	-10640
▁existence	-10641
▁qualunque	-10642
gegn	-10643
▁Cons	-10644
▁High	-10645
▁erkl	-10646
▁مهمة	-10647
tember	-10648
▁pregn	-10649
▁organic	-10650
▁المدرسة	-10651
set	-10652
ديق	-10653
فيد	-10654
▁là	-10655
emos	-10656
▁Kle	-10657
▁Meine	-10658
▁treated	-10659
▁laborator	-10660
kop	-10661
čia	-10662
icial	-10663
▁grab	-10664
▁מיני	-10665
▁fields	-10666
▁married	-10667
▁esattamente	-10668
دع	-10669
šia	-10670
בדה	-10671
מיות	-10672
▁uso	-10673
כולנו	-10674
▁Kopf	-10675
▁moje	-10676
בריאות	-10677
▁Robot	-10678
▁ballo	-10679
▁eleph	-10680
▁musste	-10681
▁stehen	-10682
▁مباشرة	-10683
▁guardare	-10684
שום	-10685
▁وظ	-10686
▁auton	-10687
▁daily	-10688
▁surge	-10689
▁wheel	-10690
▁الدرا	-10691
▁الصوت	-10692
▁gehört	-10693
▁highest	-10694
▁protein	-10695
▁identify	-10696
una	-10697
▁מן	-10698
מריק	-10699
▁Für	-10700
▁Int	-10701
▁יפה	-10702
▁مال	-10703
▁الاب	-10704
▁Grand	-10705
▁Leuten	-10706
▁vorrei	-10707
▁generations	-10708
מאות	-10709
▁gay	-10710
▁2006	-10711
angers	-10712
▁folks	-10713
▁בעיות	-10714
▁Schule	-10715
▁belong	-10716
▁capable	-10717
▁property	-10718
مم	-10719
נוע	-10720
▁كث	-10721
apse	-10722
olds	-10723
▁للك	-10724
רופות	-10725
▁bran	-10726
▁mett	-10727
▁myth	-10728
▁العد	-10729
▁preso	-10730
▁reward	-10731
▁pensate	-10732
▁privacy	-10733
▁university	-10734
▁صف	-10735
▁עמו	-10736
▁Krie	-10737
▁použ	-10738
▁Could	-10739
▁brief	-10740
▁rural	-10741
▁Potete	-10742
▁minuti	-10743
▁potuto	-10744
▁clinical	-10745
box	-10746
ادر	-10747
▁Acc	-10748
▁verk	-10749
▁Obama	-10750
▁dolph	-10751
▁יודעת	-10752
▁أطفال	-10753
▁confer	-10754
▁imparato	-10755
▁universo	-10756
▁مز	-10757
zahl	-10758
عامل	-10759
فترض	-10760
▁sna	-10761
ציאות	-10762
▁الصنا	-10763
▁مجتمع	-10764
▁نفسها	-10765
▁smiech	-10766
xim	-10767
צוע	-10768
مام	-10769
abol	-10770
fang	-10771
iest	-10772
▁קלי	-10773
▁محد	-10774
▁Oggi	-10775
▁grad	-10776
▁לשלו	-10777
▁שנות	-10778
acters	-10779
▁perso	-10780
▁Thomas	-10781
▁deeper	-10782
▁faccio	-10783
▁sicure	-10784
▁molecule	-10785
▁seriously	-10786
cə	-10787
▁Sem	-10788
▁lont	-10789
▁snow	-10790
▁אינו	-10791
▁والإ	-10792
▁north	-10793
▁العلم	-10794
▁אנרגיה	-10795
▁calling	-10796
▁creature	-10797
ovo	-10798
pet	-10799
▁erl	-10800
▁ובמ	-10801
▁فهي	-10802
alien	-10803
▁kurz	-10804
▁الجي	-10805
▁والح	-10806
▁technical	-10807
▁artificial	-10808
pekt	-10809
▁egg	-10810
▁רגע	-10811
andon	-10812
▁Netz	-10813
▁lifet	-10814
▁vehicle	-10815
▁الإنسان	-10816
▁designing	-10817
▁languages	-10818
▁popolazione	-10819
▁civilization	-10820
תר	-10821
طاء	-10822
▁Vo	-10823
▁وص	-10824
ccio	-10825
▁Lös	-10826
▁sod	-10827
▁מוצא	-10828
vention	-10829
▁genitori	-10830
▁perfectly	-10831
▁entwickelt	-10832
zy	-10833
rej	-10834
▁ضخ	-10835
iore	-10836
umen	-10837
▁Las	-10838
▁mira	-10839
▁העיר	-10840
▁נקרא	-10841
▁falls	-10842
▁stood	-10843
▁הייתם	-10844
▁רציתי	-10845
▁arbeit	-10846
▁Alzheimer	-10847
▁idi	-10848
zeich	-10849
▁2011	-10850
▁bell	-10851
▁orch	-10852
▁جيدا	-10853
▁conduct	-10854
▁intelligent	-10855
də	-10856
pty	-10857
▁Kore	-10858
▁gold	-10859
▁intr	-10860
▁poem	-10861
▁soph	-10862
▁أردت	-10863
▁تحصل	-10864
▁Steve	-10865
▁plane	-10866
▁skill	-10867
▁تصميم	-10868
connect	-10869
▁universal	-10870
▁characters	-10871
▁principles	-10872
يري	-10873
zept	-10874
▁Sap	-10875
▁האמ	-10876
▁שוא	-10877
▁roof	-10878
▁בתור	-10879
▁chain	-10880
▁שימוש	-10881
ontroll	-10882
▁ingred	-10883
▁appropri	-10884
▁principle	-10885
▁Geschichten	-10886
קול	-10887
بقى	-10888
▁err	-10889
▁היי	-10890
▁2004	-10891
▁explan	-10892
▁מוזיקה	-10893
▁covered	-10894
▁requires	-10895
▁brilliant	-10896
iff	-10897
הים	-10898
▁אש	-10899
▁120	-10900
▁ani	-10901
▁rie	-10902
▁سيا	-10903
▁وإن	-10904
▁דקות	-10905
▁בנוגע	-10906
▁Fragen	-10907
▁safety	-10908
▁האחרון	-10909
▁الثاني	-10910
َّ	-10911
len	-10912
ocol	-10913
onia	-10914
voll	-10915
▁Jahrh	-10916
▁الضوء	-10917
▁Boston	-10918
▁circum	-10919
▁großart	-10920
▁sociale	-10921
▁watched	-10922
▁المشاكل	-10923
oriť	-10924
عتمد	-10925
▁Kön	-10926
נרגיה	-10927
▁elev	-10928
▁كتاب	-10929
▁charge	-10930
רחב	-10931
هتم	-10932
arre	-10933
▁gap	-10934
▁כלי	-10935
קהילה	-10936
▁קטנים	-10937
antwort	-10938
▁Erfahr	-10939
▁versus	-10940
▁Fol	-10941
▁mad	-10942
▁להצ	-10943
▁Gree	-10944
▁hadn	-10945
▁אלפי	-10946
▁درجة	-10947
▁chiama	-10948
▁toward	-10949
▁נמצאים	-10950
▁England	-10951
▁normally	-10952
سوب	-10953
دينا	-10954
ittel	-10955
liono	-10956
דמנות	-10957
▁ange	-10958
▁لكنه	-10959
▁liquid	-10960
▁גדולים	-10961
▁sistemi	-10962
▁tomorrow	-10963
▁Institute	-10964
ראש	-10965
لاد	-10966
▁لج	-10967
▁Air	-10968
▁Dio	-10969
▁bull	-10970
▁بالك	-10971
▁petro	-10972
▁schop	-10973
▁veloc	-10974
▁hinter	-10975
▁symmet	-10976
עתי	-10977
ضافة	-10978
▁فترة	-10979
terday	-10980
▁אפשרי	-10981
▁البحر	-10982
▁facile	-10983
▁garden	-10984
▁systém	-10985
▁לפעמים	-10986
▁engineer	-10987
▁experienced	-10988
חן	-10989
ادل	-10990
▁ps	-10991
fish	-10992
▁lic	-10993
▁לשא	-10994
▁נגד	-10995
esome	-10996
▁كلمة	-10997
▁každý	-10998
▁centina	-10999
▁condivid	-11000
▁erreichen	-11001
▁equivalent	-11002
cast	-11003
▁Imm	-11004
▁Pap	-11005
▁להכ	-11006
▁وهم	-11007
nisse	-11008
owers	-11009
▁Chic	-11010
▁cosm	-11011
▁rete	-11012
▁State	-11013
▁buona	-11014
▁entde	-11015
▁compar	-11016
inazione	-11017
▁feedback	-11018
liv	-11019
▁om	-11020
aled	-11021
pass	-11022
uses	-11023
انيا	-11024
▁smo	-11025
▁fate	-11026
▁tall	-11027
▁Their	-11028
▁možno	-11029
▁primi	-11030
▁spoke	-11031
▁להשיג	-11032
▁soprav	-11033
▁station	-11034
▁importanti	-11035
šet	-11036
erte	-11037
מיין	-11038
▁arr	-11039
igten	-11040
▁však	-11041
▁בכדי	-11042
▁الجم	-11043
▁وكنت	-11044
▁schön	-11045
▁úplne	-11046
▁Bilder	-11047
▁imparare	-11048
▁הטכנולוגיה	-11049
زمة	-11050
قدر	-11051
▁cha	-11052
▁Nein	-11053
▁beat	-11054
▁השנה	-11055
▁pages	-11056
▁عبارة	-11057
▁attach	-11058
▁العملية	-11059
▁emerging	-11060
▁resource	-11061
uso	-11062
▁üç	-11063
wohl	-11064
▁Del	-11065
gress	-11066
▁eins	-11067
▁wide	-11068
▁בכלל	-11069
قتصادي	-11070
glichen	-11071
▁arrest	-11072
▁galaxy	-11073
▁sbagli	-11074
▁الجانب	-11075
▁bereits	-11076
▁variety	-11077
▁metaphor	-11078
ús	-11079
ذب	-11080
fit	-11081
خيل	-11082
▁يص	-11083
eline	-11084
▁metà	-11085
▁ride	-11086
▁אמרה	-11087
▁المي	-11088
etting	-11089
▁forte	-11090
▁ihrem	-11091
عيد	-11092
▁عق	-11093
▁Noi	-11094
פריקה	-11095
▁drag	-11096
▁vote	-11097
▁weak	-11098
▁الصف	-11099
▁holes	-11100
▁vidieť	-11101
▁anderes	-11102
▁volunte	-11103
▁advanced	-11104
▁analysis	-11105
▁microbes	-11106
▁entrepreneurs	-11107
gie	-11108
▁غا	-11109
icon	-11110
iring	-11111
▁flex	-11112
▁פולי	-11113
וקיינו	-11114
▁saved	-11115
▁processes	-11116
וים	-11117
ייק	-11118
▁sé	-11119
force	-11120
▁vite	-11121
▁לחיות	-11122
▁paying	-11123
▁ingredi	-11124
▁dovrebbe	-11125
▁operating	-11126
bia	-11127
אשר	-11128
ريك	-11129
واب	-11130
itud	-11131
▁sab	-11132
▁belief	-11133
▁island	-11134
▁البشرية	-11135
▁President	-11136
▁verschiedene	-11137
بلغ	-11138
▁leb	-11139
▁ולע	-11140
▁חברת	-11141
▁يحصل	-11142
▁arrived	-11143
▁saranno	-11144
ثي	-11145
itti	-11146
olit	-11147
▁los	-11148
▁سري	-11149
▁لست	-11150
astro	-11151
▁חזרה	-11152
▁illness	-11153
▁struggle	-11154
▁besonders	-11155
▁management	-11156
▁מנ	-11157
rict	-11158
ußen	-11159
▁Lat	-11160
▁Mys	-11161
▁ואנו	-11162
▁למשל	-11163
▁מחקר	-11164
▁سواء	-11165
▁والن	-11166
▁metal	-11167
▁פעמים	-11168
▁لأنني	-11169
▁fourth	-11170
▁reaction	-11171
spr	-11172
▁لب	-11173
gere	-11174
▁Mic	-11175
agers	-11176
▁reden	-11177
▁forced	-11178
▁תמונות	-11179
life	-11180
▁glo	-11181
▁sue	-11182
▁בתח	-11183
▁להא	-11184
▁حسن	-11185
▁زوج	-11186
▁ممت	-11187
erein	-11188
▁Paci	-11189
▁الحم	-11190
rument	-11191
▁claim	-11192
▁dagli	-11193
▁Museum	-11194
▁announ	-11195
▁filled	-11196
▁intens	-11197
▁sentire	-11198
▁dimensions	-11199
cin	-11200
لاك	-11201
▁قدم	-11202
anche	-11203
ivano	-11204
▁Auto	-11205
▁toll	-11206
▁أقوم	-11207
▁Tutti	-11208
▁sites	-11209
▁מדובר	-11210
▁dicono	-11211
▁التصميم	-11212
▁risultato	-11213
▁attenzione	-11214
▁grandmother	-11215
шы	-11216
▁26	-11217
wind	-11218
▁ped	-11219
▁הלו	-11220
▁بالض	-11221
▁عادة	-11222
▁infer	-11223
▁לאורך	-11224
▁عليهم	-11225
▁stupid	-11226
▁hopefully	-11227
ema	-11228
ומי	-11229
סיק	-11230
unto	-11231
يجاد	-11232
▁doká	-11233
▁seat	-11234
▁وحتى	-11235
▁risks	-11236
▁אמיתי	-11237
▁מסביב	-11238
▁المحت	-11239
▁portare	-11240
▁release	-11241
▁worried	-11242
ilfe	-11243
▁תחו	-11244
▁Herz	-11245
▁puoi	-11246
▁Anche	-11247
▁Apple	-11248
▁input	-11249
▁varia	-11250
▁אומרת	-11251
▁rovnak	-11252
▁status	-11253
▁Chicago	-11254
▁الحكومة	-11255
ذك	-11256
ové	-11257
ubl	-11258
enni	-11259
גשתי	-11260
▁sow	-11261
uchte	-11262
▁cave	-11263
▁devo	-11264
▁peak	-11265
▁rých	-11266
▁הפרו	-11267
▁سؤال	-11268
▁lunch	-11269
▁miest	-11270
▁tempor	-11271
▁الوحيد	-11272
▁تستخدم	-11273
▁sentence	-11274
זע	-11275
iro	-11276
ses	-11277
▁וכש	-11278
▁ומש	-11279
▁biom	-11280
▁الشر	-11281
▁والا	-11282
▁voices	-11283
▁موسيقى	-11284
▁aspetto	-11285
▁promise	-11286
▁quantum	-11287
▁raggiung	-11288
▁controllo	-11289
▁emissions	-11290
قف	-11291
جرة	-11292
werk	-11293
▁suit	-11294
▁heads	-11295
▁shapes	-11296
▁thinks	-11297
▁الوصول	-11298
▁keeping	-11299
▁attività	-11300
▁Unterschied	-11301
▁פל	-11302
arle	-11303
▁GDP	-11304
▁הסת	-11305
▁قائ	-11306
ilien	-11307
▁grat	-11308
נתונים	-11309
▁dinner	-11310
▁utilizz	-11311
▁instrument	-11312
irt	-11313
▁תק	-11314
▁spr	-11315
▁glam	-11316
▁למדי	-11317
▁وكيف	-11318
▁כלומר	-11319
▁Valley	-11320
▁advert	-11321
▁valore	-11322
▁arrivare	-11323
ده	-11324
▁Sal	-11325
▁חשמ	-11326
▁melt	-11327
▁أدرك	-11328
▁capit	-11329
▁طويلة	-11330
▁machte	-11331
▁letters	-11332
▁reprodu	-11333
▁التاريخ	-11334
▁absolute	-11335
bly	-11336
כור	-11337
orno	-11338
▁tuo	-11339
▁יצא	-11340
igung	-11341
▁dich	-11342
▁האמת	-11343
▁الأل	-11344
▁موقع	-11345
▁maint	-11346
▁exercise	-11347
▁sophistic	-11348
са	-11349
osh	-11350
▁Od	-11351
▁Haw	-11352
▁وقال	-11353
▁umana	-11354
▁obiett	-11355
▁volume	-11356
▁المنزل	-11357
▁وأعتقد	-11358
▁nervous	-11359
▁testing	-11360
▁نيويورك	-11361
▁president	-11362
▁techniques	-11363
▁effectively	-11364
ذة	-11365
ائي	-11366
ופים	-11367
وقات	-11368
▁dip	-11369
▁سبب	-11370
usive	-11371
▁Sign	-11372
▁purs	-11373
▁waves	-11374
▁credit	-11375
▁المواد	-11376
▁forests	-11377
▁September	-11378
80	-11379
iaľ	-11380
لاح	-11381
▁قل	-11382
שיבה	-11383
▁geb	-11384
▁pet	-11385
aters	-11386
icani	-11387
ision	-11388
▁Cina	-11389
▁urob	-11390
▁לבצע	-11391
▁מנסים	-11392
▁بداية	-11393
▁namens	-11394
▁البداية	-11395
▁strumenti	-11396
▁التد	-11397
▁Since	-11398
▁sinist	-11399
▁Familie	-11400
▁coinvol	-11401
▁ottenere	-11402
hem	-11403
▁Hig	-11404
▁iba	-11405
▁قوة	-11406
▁للج	-11407
▁nech	-11408
▁perc	-11409
▁swim	-11410
▁עצמם	-11411
▁users	-11412
▁organs	-11413
▁تعرفون	-11414
▁povedať	-11415
▁messages	-11416
▁connections	-11417
מכם	-11418
▁حر	-11419
irur	-11420
▁נוסף	-11421
▁Angst	-11422
▁tomto	-11423
▁تأثير	-11424
▁render	-11425
▁economics	-11426
▁בנ	-11427
▁rod	-11428
▁nest	-11429
▁suic	-11430
▁ביום	-11431
▁كريس	-11432
▁conten	-11433
▁reform	-11434
▁aziende	-11435
nou	-11436
اتف	-11437
▁95	-11438
▁Ac	-11439
▁191	-11440
▁Abs	-11441
▁Tal	-11442
▁تنت	-11443
▁diam	-11444
▁تأتي	-11445
▁ولقد	-11446
▁באותה	-11447
▁الطعام	-11448
▁cutting	-11449
▁feelings	-11450
▁valuable	-11451
▁settimana	-11452
äť	-11453
صي	-11454
دمة	-11455
سرع	-11456
وتي	-11457
▁Bel	-11458
icolo	-11459
▁enem	-11460
▁המים	-11461
▁polar	-11462
▁finish	-11463
▁misura	-11464
▁opening	-11465
▁conversations	-11466
му	-11467
kel	-11468
ثلة	-11469
onds	-11470
וחים	-11471
عرفة	-11472
▁Bau	-11473
▁Sing	-11474
▁מתחיל	-11475
▁שקורה	-11476
▁vytvor	-11477
▁trillion	-11478
lip	-11479
into	-11480
ريبة	-11481
▁Jer	-11482
▁להס	-11483
▁تعل	-11484
abled	-11485
▁Gott	-11486
▁Oder	-11487
▁prečo	-11488
▁steht	-11489
▁الغذا	-11490
▁الغرب	-11491
▁dealing	-11492
▁internet	-11493
▁corruption	-11494
▁Unternehmen	-11495
ké	-11496
داع	-11497
itet	-11498
▁dun	-11499
▁ferm	-11500
▁naše	-11501
▁pare	-11502
▁väčš	-11503
▁שאפשר	-11504
▁الحال	-11505
▁magnet	-11506
▁الكهرب	-11507
▁sopravv	-11508
üş	-11509
vid	-11510
واج	-11511
iors	-11512
▁اسم	-11513
innen	-11514
itted	-11515
▁muscle	-11516
▁usando	-11517
▁videos	-11518
▁התמונה	-11519
▁killing	-11520
▁questione	-11521
▁Gesellschaft	-11522
▁construction	-11523
voj	-11524
дзе	-11525
▁חופ	-11526
▁רשת	-11527
aptop	-11528
ffici	-11529
▁ideal	-11530
▁sight	-11531
▁fragen	-11532
▁halten	-11533
▁mostra	-11534
▁sagten	-11535
▁contain	-11536
▁weapons	-11537
▁airplane	-11538
▁concentr	-11539
но	-11540
וביל	-11541
▁tear	-11542
▁user	-11543
▁zauj	-11544
usione	-11545
▁shark	-11546
▁shoes	-11547
▁שניתן	-11548
▁medium	-11549
▁perchè	-11550
▁preced	-11551
▁أمريكا	-11552
▁اللحظة	-11553
▁braucht	-11554
▁dovremmo	-11555
▁sicurezza	-11556
▁importance	-11557
cr	-11558
sam	-11559
כבים	-11560
▁lon	-11561
▁nič	-11562
▁לחי	-11563
▁Weil	-11564
▁firm	-11565
ionali	-11566
MS	-11567
رع	-11568
hle	-11569
נון	-11570
خلق	-11571
▁Wal	-11572
▁1950	-11573
▁Doch	-11574
▁aria	-11575
▁reag	-11576
▁ואמר	-11577
▁وكما	-11578
▁Glück	-11579
▁broke	-11580
▁vlastne	-11581
▁العالمية	-11582
▁programma	-11583
pot	-11584
▁וק	-11585
מודד	-11586
שיות	-11587
resso	-11588
▁Alcun	-11589
▁Polit	-11590
▁cuore	-11591
▁messo	-11592
▁richt	-11593
▁unica	-11594
▁devono	-11595
▁collection	-11596
▁statistics	-11597
סטר	-11598
رام	-11599
▁Mary	-11600
▁تجعل	-11601
▁לפחות	-11602
▁Materi	-11603
▁seinem	-11604
ميز	-11605
هام	-11606
▁טו	-11607
▁מאי	-11608
▁עולם	-11609
▁coral	-11610
▁fossil	-11611
▁relatively	-11612
▁skutočnosti	-11613
ôz	-11614
öff	-11615
كسي	-11616
▁km	-11617
▁אק	-11618
▁ועל	-11619
▁امر	-11620
▁حجم	-11621
▁ينت	-11622
▁grid	-11623
▁wake	-11624
▁corso	-11625
▁Please	-11626
▁expected	-11627
▁comfortable	-11628
kou	-11629
ידי	-11630
راءة	-11631
▁età	-11632
▁náš	-11633
▁معي	-11634
grund	-11635
itare	-11636
ppure	-11637
▁manif	-11638
▁يتعلق	-11639
▁propria	-11640
▁المشروع	-11641
▁ordinary	-11642
וצ	-11643
קלא	-11644
قرا	-11645
esis	-11646
ديمة	-11647
neath	-11648
▁أعلى	-11649
▁اللي	-11650
▁Forse	-11651
▁drawing	-11652
▁prosper	-11653
▁philosop	-11654
▁specifically	-11655
فن	-11656
bal	-11657
lem	-11658
▁Bü	-11659
▁Ko	-11660
cons	-11661
▁hur	-11662
▁הרג	-11663
▁unex	-11664
▁כמות	-11665
▁إنهم	-11666
▁פעולה	-11667
mission	-11668
▁riusci	-11669
▁Regierung	-11670
▁independent	-11671
▁manufacturing	-11672
▁transformation	-11673
▁Hö	-11674
ťast	-11675
▁אצל	-11676
▁אותך	-11677
▁דומה	-11678
essero	-11679
▁sechs	-11680
▁الأقل	-11681
enziale	-11682
▁encoun	-11683
▁erkennen	-11684
▁organized	-11685
▁electrical	-11686
ämp	-11687
ذين	-11688
هدف	-11689
▁וס	-11690
erer	-11691
▁cow	-11692
▁ארג	-11693
▁מכן	-11694
▁שבי	-11695
▁Fahr	-11696
▁blow	-11697
▁Stell	-11698
▁trova	-11699
▁comment	-11700
ло	-11701
زم	-11702
טור	-11703
▁195	-11704
▁bare	-11705
▁الإع	-11706
▁solid	-11707
▁חברות	-11708
▁losing	-11709
▁terrib	-11710
▁Britain	-11711
▁التغيير	-11712
▁movimento	-11713
▁А	-11714
דיו	-11715
باح	-11716
oste	-11717
ائرة	-11718
▁פרי	-11719
▁dots	-11720
▁הגוף	-11721
▁Higgs	-11722
▁horiz	-11723
▁article	-11724
▁extract	-11725
▁Vielleicht	-11726
▁Hy	-11727
▁Hol	-11728
▁אליו	-11729
icious	-11730
▁gerne	-11731
▁heavy	-11732
▁تجربة	-11733
▁Indien	-11734
▁dietro	-11735
▁cameras	-11736
صبية	-11737
▁Hel	-11738
▁רצי	-11739
▁cous	-11740
▁deti	-11741
▁graf	-11742
▁oben	-11743
▁stell	-11744
▁בעיקר	-11745
▁دقيقة	-11746
▁קוראים	-11747
lichkeit	-11748
▁dôležit	-11749
▁الآخرين	-11750
▁الأفكار	-11751
▁benutzen	-11752
▁mortality	-11753
▁transition	-11754
מק	-11755
▁אב	-11756
نيات	-11757
▁Wik	-11758
▁מופ	-11759
state	-11760
ائنات	-11761
▁Städ	-11762
▁colp	-11763
▁hide	-11764
▁reci	-11765
▁ושוב	-11766
▁ימים	-11767
▁hören	-11768
▁inten	-11769
▁signs	-11770
▁traum	-11771
▁capito	-11772
▁unters	-11773
▁בריאות	-11774
▁Entsche	-11775
▁factors	-11776
ליק	-11777
▁са	-11778
oint	-11779
▁Imp	-11780
▁mən	-11781
▁יצר	-11782
▁أصد	-11783
▁يتح	-11784
▁alta	-11785
▁lasc	-11786
▁tipi	-11787
▁מסוי	-11788
▁خاصة	-11789
▁Russia	-11790
▁breath	-11791
▁comune	-11792
▁אפריקה	-11793
▁portato	-11794
▁theater	-11795
hov	-11796
дзі	-11797
جاح	-11798
ونة	-11799
▁פית	-11800
▁مذه	-11801
okrat	-11802
כויות	-11803
▁ממנו	-11804
encies	-11805
imming	-11806
▁keeps	-11807
▁layer	-11808
▁resto	-11809
▁stream	-11810
▁ultimo	-11811
▁details	-11812
▁roughly	-11813
▁generate	-11814
▁thoughts	-11815
▁carefully	-11816
▁employees	-11817
bors	-11818
▁üçün	-11819
mittel	-11820
▁cellul	-11821
ließlich	-11822
ña	-11823
wart	-11824
zing	-11825
לפון	-11826
▁Gra	-11827
▁לבד	-11828
شاركة	-11829
▁overw	-11830
▁správ	-11831
▁trend	-11832
▁coordin	-11833
▁chemistry	-11834
▁wondering	-11835
▁vorstellen	-11836
▁ə	-11837
kes	-11838
nik	-11839
זות	-11840
שרה	-11841
פיים	-11842
שונה	-11843
▁700	-11844
▁lep	-11845
▁מתח	-11846
▁שמח	-11847
▁dnes	-11848
▁také	-11849
▁اننا	-11850
▁يأتي	-11851
▁حاليا	-11852
▁warming	-11853
▁Congress	-11854
▁evolutionary	-11855
שק	-11856
zug	-11857
أكد	-11858
ويات	-11859
▁Fir	-11860
▁zap	-11861
▁בקו	-11862
▁עבד	-11863
▁euch	-11864
▁التأ	-11865
▁التس	-11866
▁بالع	-11867
▁goods	-11868
▁Gruppe	-11869
▁succed	-11870
▁associated	-11871
▁underneath	-11872
▁intellectual	-11873
ды	-11874
طن	-11875
ınd	-11876
ždy	-11877
izza	-11878
كتشف	-11879
▁surf	-11880
▁trag	-11881
▁darin	-11882
▁נתונים	-11883
▁sending	-11884
▁الشركات	-11885
▁vogliono	-11886
▁producing	-11887
מס	-11888
▁מיו	-11889
▁מין	-11890
▁שית	-11891
ichte	-11892
orgen	-11893
▁mont	-11894
▁השלי	-11895
leiche	-11896
جتماعي	-11897
▁estim	-11898
▁הברית	-11899
▁الزمن	-11900
▁script	-11901
▁simile	-11902
▁היכולת	-11903
▁discipl	-11904
▁infinite	-11905
▁Entscheid	-11906
طاق	-11907
فاء	-11908
وحة	-11909
asta	-11910
راعة	-11911
▁ברו	-11912
▁פור	-11913
▁أني	-11914
▁curios	-11915
▁scared	-11916
▁الموضوع	-11917
▁antibiot	-11918
isl	-11919
ста	-11920
اول	-11921
▁اح	-11922
▁Mad	-11923
▁سنت	-11924
▁فهو	-11925
▁práve	-11926
▁בחיים	-11927
▁الصين	-11928
▁يحتاج	-11929
▁accompl	-11930
▁giovani	-11931
▁marriage	-11932
▁quantità	-11933
▁marketing	-11934
▁professor	-11935
▁Jahrhundert	-11936
صا	-11937
ira	-11938
▁Pa	-11939
bble	-11940
سباب	-11941
▁ומי	-11942
annte	-11943
mlich	-11944
▁matt	-11945
▁vive	-11946
▁notte	-11947
▁opera	-11948
▁autism	-11949
▁height	-11950
▁pazienti	-11951
▁rational	-11952
▁chemicals	-11953
▁distribution	-11954
שבה	-11955
ريف	-11956
cred	-11957
osen	-11958
▁hab	-11959
▁בהן	-11960
▁בהת	-11961
▁מסי	-11962
endet	-11963
indung	-11964
▁facing	-11965
▁consist	-11966
▁nations	-11967
▁sources	-11968
▁possibilities	-11969
äl	-11970
خة	-11971
zte	-11972
طاع	-11973
▁Fü	-11974
hler	-11975
▁copy	-11976
▁salt	-11977
▁segn	-11978
▁wave	-11979
▁وسوف	-11980
arbeit	-11981
▁Found	-11982
▁academ	-11983
▁sicuro	-11984
▁desider	-11985
ну	-11986
سك	-11987
žas	-11988
▁إل	-11989
enej	-11990
▁בעל	-11991
orest	-11992
robiť	-11993
פתחות	-11994
▁Talk	-11995
▁Tutto	-11996
▁aging	-11997
▁jedem	-11998
▁mosqu	-11999
▁staff	-12000
▁כיוון	-12001
▁الكبيرة	-12002
▁narrative	-12003
▁healthcare	-12004
▁tecnologie	-12005
AR	-12006
uren	-12007
▁Pat	-12008
▁تنا	-12009
▁Luft	-12010
▁gioc	-12011
ologia	-12012
▁Preto	-12013
▁imper	-12014
▁links	-12015
▁unico	-12016
▁capture	-12017
▁affected	-12018
▁criminal	-12019
▁encourag	-12020
▁foundation	-12021
משך	-12022
פעה	-12023
زية	-12024
▁تؤ	-12025
hält	-12026
hľad	-12027
iero	-12028
▁rat	-12029
allow	-12030
▁puts	-12031
▁الطب	-12032
▁Macht	-12033
▁avrei	-12034
▁gesam	-12035
▁honor	-12036
▁metri	-12037
▁יוצרים	-12038
▁cartoon	-12039
▁properties	-12040
ki	-12041
يه	-12042
vern	-12043
فهوم	-12044
▁entr	-12045
ríklad	-12046
▁5,000	-12047
▁basso	-12048
▁expon	-12049
▁بعيدا	-12050
▁ingegn	-12051
▁proven	-12052
▁severe	-12053
▁نستخدم	-12054
▁assolut	-12055
abilities	-12056
الث	-12057
ذية	-12058
צוני	-12059
▁rôz	-12060
▁משפ	-12061
▁أيض	-12062
▁Wind	-12063
▁الور	-12064
▁Richt	-12065
areness	-12066
▁beiden	-12067
▁include	-12068
▁spielen	-12069
▁equipment	-12070
▁immaginare	-12071
ماع	-12072
▁Inf	-12073
▁Yet	-12074
▁הור	-12075
▁והי	-12076
▁جاء	-12077
akers	-12078
apher	-12079
icano	-12080
▁2012	-12081
▁Wall	-12082
elling	-12083
▁Black	-12084
▁Gefühl	-12085
▁אוהבים	-12086
▁relevant	-12087
▁transportation	-12088
بان	-12089
ində	-12090
ácia	-12091
▁ובא	-12092
▁מהת	-12093
▁túto	-12094
▁verm	-12095
▁cyber	-12096
▁דרכים	-12097
▁לעבור	-12098
▁القوة	-12099
▁يعتقد	-12100
▁behaviors	-12101
▁increased	-12102
حم	-12103
▁Uno	-12104
▁שרו	-12105
▁Ergeb	-12106
▁Women	-12107
▁awful	-12108
▁החברה	-12109
ultural	-12110
▁perman	-12111
כנולוגיות	-12112
▁lifetime	-12113
▁politica	-12114
äuf	-12115
ober	-12116
▁Eth	-12117
▁שמה	-12118
▁impe	-12119
▁vend	-12120
father	-12121
▁rivol	-12122
▁Männer	-12123
▁unknown	-12124
▁بالتأكيد	-12125
▁х	-12126
ené	-12127
שרת	-12128
tail	-12129
ظروا	-12130
▁Mik	-12131
▁pill	-12132
▁أكون	-12133
▁الاخت	-12134
▁France	-12135
▁esiste	-12136
▁לדוגמה	-12137
▁automob	-12138
hab	-12139
iat	-12140
▁יד	-12141
weit	-12142
بعاد	-12143
▁מתי	-12144
▁linea	-12145
▁stanza	-12146
▁الحقيقي	-12147
▁Stanford	-12148
▁yesterday	-12149
▁processing	-12150
rieb	-12151
יתים	-12152
▁חול	-12153
fluss	-12154
▁מראה	-12155
▁بالق	-12156
▁statt	-12157
▁released	-12158
▁Patienten	-12159
▁politicians	-12160
▁verschiedenen	-12161
BI	-12162
قق	-12163
גיט	-12164
▁גד	-12165
ians	-12166
lymp	-12167
▁Ten	-12168
▁aqu	-12169
▁lawy	-12170
liches	-12171
▁Masch	-12172
▁Paris	-12173
▁curve	-12174
▁mondi	-12175
isation	-12176
▁Sicher	-12177
▁driven	-12178
▁einzel	-12179
▁الحالة	-12180
▁environments	-12181
▁Ju	-12182
▁Môž	-12183
▁Best	-12184
▁auss	-12185
▁מרגי	-12186
▁crowd	-12187
▁sides	-12188
▁الملا	-12189
▁Middle	-12190
▁driver	-12191
gestellt	-12192
▁finanzi	-12193
▁epidemic	-12194
▁situazione	-12195
han	-12196
inz	-12197
rog	-12198
▁תה	-12199
רבות	-12200
▁pad	-12201
oglie	-12202
▁Stim	-12203
liegen	-12204
ptions	-12205
▁3,000	-12206
▁Durch	-12207
▁Eltern	-12208
▁overwhel	-12209
▁exploration	-12210
פתי	-12211
جيل	-12212
aret	-12213
avia	-12214
iate	-12215
▁Job	-12216
▁toh	-12217
▁tua	-12218
lying	-12219
▁גישה	-12220
▁ישנם	-12221
▁מחוץ	-12222
ניינים	-12223
▁Antar	-12224
▁tanti	-12225
▁Sapete	-12226
▁candid	-12227
▁define	-12228
▁consegu	-12229
▁primary	-12230
▁السنوات	-12231
за	-12232
מך	-12233
ديل	-12234
▁lit	-12235
ativi	-12236
vania	-12237
isters	-12238
▁إليها	-12239
▁دعوني	-12240
▁trials	-12241
▁profond	-12242
▁Zusammen	-12243
▁consumer	-12244
▁implement	-12245
ולת	-12246
عون	-12247
arie	-12248
▁המק	-12249
▁מהע	-12250
▁exec	-12251
▁אינט	-12252
▁أمام	-12253
▁inher	-12254
▁blocks	-12255
▁diagnost	-12256
▁potrebbero	-12257
nel	-12258
▁3.	-12259
tile	-12260
▁Bes	-12261
▁בדר	-12262
▁המה	-12263
▁unit	-12264
▁empty	-12265
▁החוצה	-12266
▁العمر	-12267
▁منطقة	-12268
▁convert	-12269
▁rapidly	-12270
▁location	-12271
aun	-12272
ליט	-12273
▁Sü	-12274
▁تا	-12275
▁Rad	-12276
▁Tex	-12277
▁נמו	-12278
זורים	-12279
▁Ogni	-12280
▁gear	-12281
▁kick	-12282
▁מדבר	-12283
▁accum	-12284
▁passo	-12285
▁posit	-12286
▁effica	-12287
▁الذهاب	-12288
▁required	-12289
gust	-12290
ليون	-12291
▁Arbe	-12292
▁Tele	-12293
▁fronte	-12294
▁myslím	-12295
▁remain	-12296
▁stabil	-12297
▁العامة	-12298
▁potremmo	-12299
▁السيارات	-12300
רס	-12301
أت	-12302
دات	-12303
▁طف	-12304
erei	-12305
greg	-12306
▁رئي	-12307
▁znam	-12308
▁الحب	-12309
▁الشا	-12310
▁prosp	-12311
▁الجنس	-12312
▁colleg	-12313
▁esplor	-12314
▁repres	-12315
▁Minuten	-12316
▁Science	-12317
▁battery	-12318
▁however	-12319
▁רעיונות	-12320
▁التقنية	-12321
▁irgendwie	-12322
▁Möglichkeit	-12323
ві	-12324
лю	-12325
-20	-12326
stüt	-12327
ficie	-12328
führt	-12329
▁mang	-12330
▁neut	-12331
▁أعلم	-12332
▁الاس	-12333
▁مركز	-12334
▁march	-12335
▁hätten	-12336
▁محاولة	-12337
▁previous	-12338
▁centinaia	-12339
▁introduce	-12340
▁superficie	-12341
вы	-12342
شل	-12343
בוט	-12344
▁تغ	-12345
reck	-12346
▁Gal	-12347
▁הצל	-12348
▁ומו	-12349
▁lady	-12350
▁Other	-12351
▁hyper	-12352
▁parli	-12353
▁tante	-12354
▁מאמין	-12355
▁adoles	-12356
▁radiation	-12357
ül	-12358
ба	-12359
▁2,	-12360
rows	-12361
itals	-12362
punkt	-12363
▁2001	-12364
▁Ever	-12365
▁jail	-12366
▁root	-12367
▁sees	-12368
▁wohl	-12369
▁Count	-12370
▁uncle	-12371
▁أهمية	-12372
▁التعا	-12373
▁dynamic	-12374
▁risorse	-12375
cut	-12376
جلي	-12377
icky	-12378
vajú	-12379
▁Nar	-12380
▁מאח	-12381
icato	-12382
▁Alle	-12383
▁حاول	-12384
▁Stand	-12385
▁horse	-12386
▁עיצוב	-12387
▁intero	-12388
▁מערכות	-12389
▁البشري	-12390
▁Hi	-12391
▁לרו	-12392
▁משי	-12393
▁بان	-12394
agram	-12395
ختيار	-12396
▁2003	-12397
▁Four	-12398
▁maps	-12399
▁نعيش	-12400
▁grade	-12401
▁Gebäude	-12402
▁paradig	-12403
▁المناطق	-12404
ket	-12405
ؤية	-12406
شاه	-12407
▁שט	-12408
▁إع	-12409
lder	-12410
▁משא	-12411
▁Prof	-12412
▁رأيت	-12413
apping	-12414
▁entsch	-12415
▁spectrum	-12416
▁convinced	-12417
▁mountains	-12418
وغ	-12419
▁т	-12420
ros	-12421
صوص	-12422
▁dl	-12423
▁وث	-12424
▁Ans	-12425
▁clip	-12426
▁moder	-12427
▁Health	-12428
▁Kultur	-12429
▁ändern	-12430
▁ولكنها	-12431
▁anticip	-12432
▁regions	-12433
▁selling	-12434
▁existing	-12435
▁worldwide	-12436
▁ער	-12437
▁תג	-12438
elta	-12439
يريا	-12440
▁Net	-12441
▁בהי	-12442
▁دما	-12443
▁نجد	-12444
erved	-12445
דברים	-12446
▁Pers	-12447
▁cord	-12448
▁תראו	-12449
stream	-12450
▁subst	-12451
▁الشمس	-12452
▁نتحدث	-12453
▁Project	-12454
▁entertain	-12455
▁represents	-12456
▁informazione	-12457
قية	-12458
▁mur	-12459
▁الأص	-12460
▁بالر	-12461
▁usato	-12462
▁length	-12463
▁wollten	-12464
ady	-12465
▁יר	-12466
erci	-12467
gang	-12468
נציא	-12469
▁Sar	-12470
▁تجد	-12471
▁brut	-12472
▁dign	-12473
▁העול	-12474
▁alter	-12475
▁doubt	-12476
▁nutri	-12477
▁الطرق	-12478
▁القدرة	-12479
▁actions	-12480
▁illegal	-12481
▁Japanese	-12482
▁verwenden	-12483
uz	-12484
ôr	-12485
מח	-12486
▁”	-12487
down	-12488
▁ألف	-12489
▁decl	-12490
▁sola	-12491
▁يدعى	-12492
▁להביא	-12493
▁bestimm	-12494
▁violent	-12495
▁vulnerable	-12496
סיס	-12497
كلم	-12498
▁جا	-12499
מדים	-12500
▁dey	-12501
poved	-12502
rooms	-12503
▁toil	-12504
▁أنتم	-12505
▁المز	-12506
▁ممكن	-12507
alität	-12508
▁stavo	-12509
▁steel	-12510
▁לייצר	-12511
▁לקרוא	-12512
▁Global	-12513
▁almeno	-12514
▁string	-12515
▁التجربة	-12516
▁العالمي	-12517
▁circumst	-12518
▁parlando	-12519
▁whenever	-12520
▁risultati	-12521
▁activities	-12522
▁consumption	-12523
oe	-12524
מל	-12525
šiel	-12526
▁ree	-12527
▁قاب	-12528
šlien	-12529
▁najv	-12530
▁plus	-12531
▁rast	-12532
▁spost	-12533
▁teeth	-12534
▁factor	-12535
▁terrif	-12536
▁guardate	-12537
▁symptoms	-12538
▁naturally	-12539
▁innovative	-12540
ints	-12541
נאים	-12542
كلفة	-12543
▁ואח	-12544
▁احد	-12545
iform	-12546
▁Nobel	-12547
▁Titan	-12548
▁added	-12549
▁deciso	-12550
▁מכירים	-12551
▁sophisticated	-12552
ظل	-12553
טרי	-12554
רתי	-12555
ابه	-12556
▁Ox	-12557
oust	-12558
שבתי	-12559
▁סוף	-12560
icing	-12561
istor	-12562
▁subt	-12563
▁كوكب	-12564
▁komun	-12565
▁centers	-12566
▁definitely	-12567
▁challenging	-12568
GO	-12569
zed	-12570
▁DH	-12571
▁فح	-12572
▁Bra	-12573
▁איי	-12574
▁ולב	-12575
rejme	-12576
▁2050	-12577
▁thro	-12578
▁beach	-12579
▁facts	-12580
▁فيديو	-12581
▁Sprache	-12582
▁musical	-12583
▁quarter	-12584
▁الاشياء	-12585
▁inequality	-12586
▁ва	-12587
דימה	-12588
צבים	-12589
▁Kap	-12590
ritte	-12591
▁cura	-12592
▁welt	-12593
▁ברגע	-12594
▁חברה	-12595
▁فرصة	-12596
▁Scott	-12597
▁stark	-12598
▁מאוחר	-12599
▁diplom	-12600
▁houses	-12601
▁הציבור	-12602
▁برنامج	-12603
▁gravity	-12604
▁reached	-12605
▁setting	-12606
▁carrying	-12607
▁contrast	-12608
ET	-12609
età	-12610
hnt	-12611
iek	-12612
▁كأ	-12613
ávať	-12614
▁חמש	-12615
▁לבית	-12616
▁chart	-12617
▁flies	-12618
▁rende	-12619
▁acting	-12620
▁physic	-12621
▁propos	-12622
▁spring	-12623
▁يقومون	-12624
▁termini	-12625
▁المنطقة	-12626
▁erhalten	-12627
▁malattie	-12628
▁perception	-12629
otz	-12630
pra	-12631
امة	-12632
راب	-12633
▁Jew	-12634
▁robiť	-12635
▁scala	-12636
▁الشكل	-12637
▁המדינה	-12638
▁falling	-12639
▁naturale	-12640
▁movements	-12641
▁mathematical	-12642
ciu	-12643
▁28	-12644
▁Pi	-12645
חילו	-12646
ציות	-12647
▁Ero	-12648
▁שומ	-12649
▁Flug	-12650
▁أربعة	-12651
▁Indust	-12652
▁member	-12653
▁solito	-12654
▁الكوكب	-12655
▁avevamo	-12656
▁victims	-12657
▁الأعمال	-12658
▁swimming	-12659
▁laboratorio	-12660
sť	-12661
ovi	-12662
ibri	-12663
▁Sau	-12664
▁Typ	-12665
immer	-12666
▁Manh	-12667
▁Pred	-12668
▁يملك	-12669
▁okolo	-12670
▁نموذج	-12671
itarian	-12672
▁clever	-12673
▁sinistra	-12674
▁combination	-12675
▁fundamentally	-12676
▁мы	-12677
▁פח	-12678
ernt	-12679
viol	-12680
בורה	-12681
▁lan	-12682
▁מנו	-12683
▁תחת	-12684
▁لاي	-12685
ación	-12686
▁وجدت	-12687
▁Ghana	-12688
▁drill	-12689
▁ricev	-12690
▁المدن	-12691
▁Forsch	-12692
▁negoti	-12693
▁diventa	-12694
▁concrete	-12695
▁election	-12696
▁memories	-12697
▁interface	-12698
▁entwickeln	-12699
wa	-12700
cit	-12701
iker	-12702
▁Bed	-12703
▁Law	-12704
▁než	-12705
▁sce	-12706
▁נית	-12707
רויות	-12708
▁môžu	-12709
▁tale	-12710
▁يسمى	-12711
▁Olymp	-12712
▁האנושי	-12713
▁القليل	-12714
▁courage	-12715
aka	-12716
ؤول	-12717
خرا	-12718
دين	-12719
avor	-12720
elly	-12721
ický	-12722
omin	-12723
ässt	-12724
ارنة	-12725
ريات	-12726
▁הנק	-12727
▁مفت	-12728
▁يعلم	-12729
▁incor	-12730
▁minim	-12731
▁Heraus	-12732
▁assign	-12733
▁עומדים	-12734
▁bewegen	-12735
▁المختلف	-12736
▁traveling	-12737
צאה	-12738
enia	-12739
البا	-12740
▁Ser	-12741
▁vod	-12742
▁שעו	-12743
▁دور	-12744
konom	-12745
▁Gene	-12746
▁שלהן	-12747
▁femin	-12748
▁všetci	-12749
▁التالي	-12750
▁applied	-12751
▁disgust	-12752
لكت	-12753
▁zl	-12754
▁תכ	-12755
haft	-12756
▁Rio	-12757
▁בלו	-12758
▁והע	-12759
▁مجد	-12760
ienen	-12761
▁Jeff	-12762
▁alte	-12763
▁bemer	-12764
▁Stunden	-12765
▁einigen	-12766
כבת	-12767
غرق	-12768
igte	-12769
▁Tur	-12770
▁žen	-12771
▁انهم	-12772
▁מסויי	-12773
▁שאלות	-12774
▁عليكم	-12775
▁winter	-12776
▁metabol	-12777
▁exchange	-12778
▁verändert	-12779
uď	-12780
▁״	-12781
وام	-12782
amma	-12783
onie	-12784
ماية	-12785
▁Sir	-12786
▁كلا	-12787
▁Sand	-12788
▁cast	-12789
▁האור	-12790
▁نقطة	-12791
▁amore	-12792
▁لكننا	-12793
▁يتحدث	-12794
▁buying	-12795
▁worlds	-12796
▁بيانات	-12797
▁hydrogen	-12798
▁manchmal	-12799
▁participate	-12800
▁technological	-12801
جح	-12802
liš	-12803
neh	-12804
vej	-12805
טון	-12806
ערב	-12807
fera	-12808
sled	-12809
uits	-12810
قافة	-12811
▁Tem	-12812
▁van	-12813
▁pair	-12814
▁uman	-12815
▁ďale	-12816
▁تبدأ	-12817
▁astero	-12818
▁parall	-12819
▁života	-12820
▁Manhatt	-12821
▁realmente	-12822
בלת	-12823
דוע	-12824
▁Ir	-12825
▁zm	-12826
▁ча	-12827
agon	-12828
▁Ven	-12829
▁bul	-12830
▁מהו	-12831
▁سطح	-12832
▁وتح	-12833
eller	-12834
▁voce	-12835
▁goals	-12836
▁hotel	-12837
▁takže	-12838
▁بعضها	-12839
▁والدي	-12840
▁devast	-12841
▁ועכשיו	-12842
▁harvest	-12843
▁الفيديو	-12844
▁practical	-12845
had	-12846
מלה	-12847
תחלה	-12848
▁Cap	-12849
▁skú	-12850
▁רגי	-12851
▁طرق	-12852
▁gain	-12853
▁silk	-12854
▁تمكن	-12855
▁فنحن	-12856
▁ننظر	-12857
ortion	-12858
▁pezzo	-12859
▁počas	-12860
▁עצמנו	-12861
▁rischio	-12862
▁witness	-12863
▁chiamata	-12864
▁innerhalb	-12865
دن	-12866
alf	-12867
igr	-12868
جوم	-12869
ächt	-12870
▁וכמ	-12871
▁עשה	-12872
▁Janu	-12873
▁Mill	-12874
▁الذك	-12875
▁getan	-12876
▁גבוהה	-12877
▁Robert	-12878
▁awesome	-12879
▁vaccine	-12880
▁abstract	-12881
əş	-12882
קרון	-12883
▁800	-12884
kommt	-12885
בורים	-12886
▁Jack	-12887
▁Ober	-12888
▁مثير	-12889
ettiva	-12890
▁alien	-12891
▁sugar	-12892
▁כשאני	-12893
▁joined	-12894
▁vessel	-12895
▁Central	-12896
▁Kindern	-12897
▁לאחרונה	-12898
▁prodotto	-12899
▁soldiers	-12900
▁gentlemen	-12901
▁soluzione	-12902
▁protection	-12903
St	-12904
וש	-12905
arr	-12906
ائف	-12907
▁لر	-12908
umps	-12909
טיות	-12910
▁les	-12911
▁gross	-12912
▁skelet	-12913
▁أنفسنا	-12914
▁habitat	-12915
▁niektor	-12916
▁piccole	-12917
▁singing	-12918
▁visible	-12919
▁according	-12920
▁classroom	-12921
▁encounter	-12922
▁terrorism	-12923
▁components	-12924
جاز	-12925
▁мо	-12926
icol	-12927
olden	-12928
מיינו	-12929
▁Flor	-12930
▁hurt	-12931
▁חוסר	-12932
▁Hause	-12933
▁أتحدث	-12934
▁حينما	-12935
▁Freund	-12936
▁מגיעים	-12937
▁suffici	-12938
▁viaggio	-12939
▁menschlichen	-12940
umn	-12941
פני	-12942
hlte	-12943
גלית	-12944
▁Cor	-12945
▁שנת	-12946
alled	-12947
▁larg	-12948
▁lens	-12949
▁الحض	-12950
▁fewer	-12951
▁laser	-12952
ificare	-12953
▁niekoľ	-12954
▁patent	-12955
▁stesse	-12956
▁depends	-12957
▁printing	-12958
▁molecular	-12959
▁neighbors	-12960
▁productive	-12961
əb	-12962
ئا	-12963
orsa	-12964
راحة	-12965
▁Sym	-12966
▁muž	-12967
▁שרא	-12968
▁أكن	-12969
▁hlav	-12970
▁شبكة	-12971
urance	-12972
▁Stück	-12973
▁orbit	-12974
▁piedi	-12975
▁sacco	-12976
▁songs	-12977
▁forgot	-12978
▁formed	-12979
▁review	-12980
▁pratica	-12981
▁scritto	-12982
▁cultures	-12983
▁Foundation	-12984
▁unglaublich	-12985
oby	-12986
ová	-12987
קשה	-12988
רגש	-12989
جات	-12990
ريكم	-12991
ماذج	-12992
▁ľuď	-12993
▁mund	-12994
▁الها	-12995
▁Labor	-12996
▁Vater	-12997
▁reven	-12998
▁לשאול	-12999
▁Dieser	-13000
▁Publik	-13001
▁bubble	-13002
▁season	-13003
▁kitchen	-13004
entlichen	-13005
▁organism	-13006
▁recorded	-13007
▁risolvere	-13008
▁restaurant	-13009
ığ	-13010
دنا	-13011
arti	-13012
כרים	-13013
▁pár	-13014
entic	-13015
haupt	-13016
▁1970	-13017
▁eher	-13018
▁úžas	-13019
▁למען	-13020
▁Mount	-13021
▁nikdy	-13022
▁former	-13023
▁sample	-13024
▁vostri	-13025
▁niemand	-13026
▁nämlich	-13027
▁expression	-13028
▁resistance	-13029
▁unterschied	-13030
vas	-13031
جين	-13032
وفة	-13033
áciu	-13034
▁Beg	-13035
▁raz	-13036
änger	-13037
▁cest	-13038
zeugen	-13039
▁Space	-13040
▁breve	-13041
▁minor	-13042
▁Umwelt	-13043
▁besten	-13044
▁mystery	-13045
▁myšlien	-13046
▁beginnen	-13047
▁33	-13048
odes	-13049
▁Kal	-13050
▁לומ	-13051
vedom	-13052
▁zist	-13053
▁قليل	-13054
▁المحا	-13055
▁Martin	-13056
▁geomet	-13057
▁volevo	-13058
▁البيئة	-13059
▁monitor	-13060
▁للاهتمام	-13061
▁potentially	-13062
سيا	-13063
لكم	-13064
وين	-13065
asti	-13066
ifen	-13067
▁Tas	-13068
▁deň	-13069
▁رسم	-13070
hythm	-13071
وانين	-13072
▁scon	-13073
▁הסרט	-13074
essimo	-13075
▁poetry	-13076
▁מתכוון	-13077
▁operate	-13078
▁parlato	-13079
▁introduced	-13080
▁kr	-13081
▁tá	-13082
amoz	-13083
bage	-13084
ونات	-13085
▁Werk	-13086
▁atom	-13087
▁mani	-13088
▁לשים	-13089
▁خمسة	-13090
▁fatta	-13091
▁relat	-13092
▁ľudsk	-13093
▁الصعب	-13094
▁علاقة	-13095
▁Bezieh	-13096
▁cortex	-13097
▁הגדולה	-13098
genommen	-13099
▁Perhaps	-13100
▁discussion	-13101
▁مم	-13102
ften	-13103
חסים	-13104
▁Bol	-13105
▁Dov	-13106
▁baş	-13107
▁באו	-13108
▁بيت	-13109
gende	-13110
▁bian	-13111
▁الرس	-13112
▁ansch	-13113
▁scher	-13114
▁القصص	-13115
▁pulled	-13116
▁بالضبط	-13117
▁ktorých	-13118
▁الكربون	-13119
zustellen	-13120
▁ancestors	-13121
▁invention	-13122
▁conservation	-13123
nic	-13124
ייס	-13125
وبي	-13126
▁uč	-13127
▁اش	-13128
atar	-13129
▁Bür	-13130
▁עבוד	-13131
fläche	-13132
▁glück	-13133
▁scann	-13134
▁בהרבה	-13135
▁مليار	-13136
▁destra	-13137
▁microbi	-13138
▁scienziati	-13139
מץ	-13140
ודד	-13141
▁تصل	-13142
produ	-13143
▁arts	-13144
▁ساعة	-13145
uchten	-13146
▁Haiti	-13147
▁false	-13148
▁משתמש	-13149
▁ولكنه	-13150
▁Anyway	-13151
▁advent	-13152
▁conver	-13153
▁option	-13154
▁orient	-13155
▁engaged	-13156
▁funding	-13157
▁lessons	-13158
▁graduate	-13159
▁Hollywood	-13160
▁interessant	-13161
بين	-13162
▁Eb	-13163
▁tý	-13164
rett	-13165
ديدا	-13166
▁Adam	-13167
▁Only	-13168
▁dogs	-13169
▁Innov	-13170
▁cards	-13171
▁chimp	-13172
▁roads	-13173
▁tohto	-13174
▁לדמיין	-13175
▁ببساطة	-13176
▁feature	-13177
▁Manhattan	-13178
▁democratic	-13179
דיר	-13180
قدة	-13181
▁טר	-13182
fekt	-13183
בלות	-13184
ינים	-13185
▁אוב	-13186
osion	-13187
▁hang	-13188
▁vera	-13189
▁أشهر	-13190
▁عملي	-13191
▁Willi	-13192
دف	-13193
völ	-13194
zin	-13195
רחק	-13196
▁Vy	-13197
isto	-13198
ادية	-13199
▁Mot	-13200
▁Nem	-13201
▁phr	-13202
atici	-13203
▁تجاه	-13204
▁نسبة	-13205
▁نفكر	-13206
▁zdrav	-13207
▁einzige	-13208
▁nemmeno	-13209
▁schauen	-13210
▁astronom	-13211
▁mechanism	-13212
▁affrontare	-13213
бі	-13214
نب	-13215
erk	-13216
נסה	-13217
ctic	-13218
طاقة	-13219
inson	-13220
▁lect	-13221
▁بالا	-13222
▁Union	-13223
▁dokon	-13224
▁rozpr	-13225
▁uncom	-13226
▁القادمة	-13227
▁awareness	-13228
▁Herausford	-13229
▁comportamento	-13230
קח	-13231
الا	-13232
▁Bur	-13233
▁Dam	-13234
▁Lab	-13235
▁gon	-13236
▁המג	-13237
▁sage	-13238
▁الشع	-13239
لكترون	-13240
▁الاعت	-13241
erweise	-13242
▁economies	-13243
▁assolutamente	-13244
ugg	-13245
איר	-13246
رنا	-13247
عرض	-13248
ccan	-13249
oked	-13250
ستان	-13251
▁Dopo	-13252
▁Prot	-13253
▁מנסה	-13254
▁سمعت	-13255
▁deploy	-13256
▁entram	-13257
▁regard	-13258
▁hospitals	-13259
▁differenti	-13260
▁explanation	-13261
שע	-13262
ابع	-13263
▁أط	-13264
igli	-13265
لسلة	-13266
▁ers	-13267
▁gal	-13268
▁גיל	-13269
indet	-13270
orter	-13271
▁Five	-13272
▁golf	-13273
▁mile	-13274
▁rout	-13275
▁einge	-13276
▁hoping	-13277
▁viruses	-13278
▁במהירות	-13279
سد	-13280
aded	-13281
טחון	-13282
▁Spr	-13283
▁ern	-13284
▁בצד	-13285
▁כרי	-13286
▁לקו	-13287
build	-13288
falls	-13289
onnen	-13290
▁sopr	-13291
▁zwar	-13292
▁ועוד	-13293
imeter	-13294
▁datab	-13295
▁grant	-13296
▁storm	-13297
▁الغير	-13298
▁Sachen	-13299
öll	-13300
قطع	-13301
▁ובי	-13302
scale	-13303
▁Ziel	-13304
▁wars	-13305
▁حصلت	-13306
ifying	-13307
ulating	-13308
▁wireless	-13309
צבע	-13310
ليد	-13311
▁Zu	-13312
▁usc	-13313
amera	-13314
▁inno	-13315
▁House	-13316
▁lasci	-13317
▁libri	-13318
▁sanit	-13319
▁wegen	-13320
▁Gemein	-13321
▁gemeins	-13322
▁interests	-13323
▁newspaper	-13324
▁typically	-13325
iy	-13326
rd	-13327
asp	-13328
▁0.	-13329
▁مف	-13330
▁يل	-13331
cano	-13332
chod	-13333
חקים	-13334
פואה	-13335
▁Get	-13336
▁Jed	-13337
▁aer	-13338
▁תאי	-13339
▁prac	-13340
▁אינם	-13341
ension	-13342
▁conce	-13343
▁שאולי	-13344
▁תוכלו	-13345
וניברסי	-13346
▁Anfang	-13347
▁führen	-13348
▁موجودة	-13349
▁dropped	-13350
▁الأحيان	-13351
▁pensiamo	-13352
▁literature	-13353
lyn	-13354
▁וז	-13355
adow	-13356
haus	-13357
rale	-13358
äten	-13359
נטית	-13360
ضيات	-13361
▁Rel	-13362
▁rab	-13363
▁משחק	-13364
▁المه	-13365
ternal	-13366
▁Krebs	-13367
▁ברחבי	-13368
▁הביתה	-13369
▁וידאו	-13370
▁أثناء	-13371
▁arriva	-13372
▁verità	-13373
schaften	-13374
▁qualità	-13375
▁convince	-13376
▁organizz	-13377
▁prepared	-13378
plo	-13379
קרי	-13380
▁تك	-13381
▁odd	-13382
▁برا	-13383
נקודה	-13384
▁lato	-13385
▁إحدى	-13386
▁تطور	-13387
▁העתיד	-13388
▁يمكنه	-13389
▁Länder	-13390
▁bottle	-13391
▁trochu	-13392
▁ultima	-13393
▁המערכת	-13394
▁حياتنا	-13395
▁للقيام	-13396
▁Stellen	-13397
▁aiutare	-13398
▁davanti	-13399
▁outcome	-13400
pir	-13401
▁لط	-13402
roso	-13403
▁frü	-13404
▁mim	-13405
▁בפי	-13406
▁ענק	-13407
▁ذهب	-13408
רונים	-13409
▁busy	-13410
▁מושג	-13411
▁While	-13412
▁sorpr	-13413
▁sprav	-13414
▁conven	-13415
▁survey	-13416
▁strumento	-13417
▁الكمبيوتر	-13418
uld	-13419
ťah	-13420
▁إذ	-13421
▁اد	-13422
▁بض	-13423
▁ضع	-13424
▁لق	-13425
stro	-13426
▁Eig	-13427
▁Jim	-13428
▁לכת	-13429
▁جون	-13430
eranno	-13431
▁klein	-13432
▁impatto	-13433
▁opinion	-13434
▁silence	-13435
▁accurate	-13436
▁האינטרנט	-13437
út	-13438
למי	-13439
جاج	-13440
▁יא	-13441
▁Kan	-13442
▁האל	-13443
▁שהע	-13444
وروبا	-13445
▁oldu	-13446
▁الصح	-13447
▁Wikip	-13448
▁fondo	-13449
▁وربما	-13450
▁Techni	-13451
▁desper	-13452
▁האמריק	-13453
▁לוקחים	-13454
▁يكونوا	-13455
▁الأخيرة	-13456
▁constant	-13457
▁contempor	-13458
▁explained	-13459
▁29	-13460
foot	-13461
odob	-13462
שאים	-13463
▁تيد	-13464
▁ستة	-13465
▁Lage	-13466
▁רחוק	-13467
▁تعيش	-13468
▁أماكن	-13469
▁deaths	-13470
▁dispon	-13471
▁flower	-13472
▁inject	-13473
▁poteva	-13474
▁שהייתי	-13475
▁occurred	-13476
▁transplant	-13477
iar	-13478
נהל	-13479
צרת	-13480
שבת	-13481
بون	-13482
فات	-13483
دمات	-13484
▁Lin	-13485
▁عائ	-13486
▁guar	-13487
▁قطعة	-13488
pected	-13489
▁dress	-13490
▁Musica	-13491
▁Nobody	-13492
▁advice	-13493
▁intent	-13494
▁aliment	-13495
mí	-13496
נדה	-13497
רקע	-13498
انة	-13499
ilit	-13500
▁Zum	-13501
▁ged	-13502
▁חצי	-13503
▁להג	-13504
▁icon	-13505
▁tack	-13506
▁מידה	-13507
▁الرق	-13508
achten	-13509
istics	-13510
▁sweet	-13511
▁المئة	-13512
▁satisf	-13513
▁malattia	-13514
▁transfer	-13515
▁photographs	-13516
تل	-13517
דיה	-13518
عبة	-13519
نيا	-13520
▁CEO	-13521
▁ťaž	-13522
▁שלמ	-13523
esten	-13524
rator	-13525
▁נהדר	-13526
▁المغ	-13527
▁המקום	-13528
▁بسيطة	-13529
▁posled	-13530
▁volete	-13531
▁להתמודד	-13532
▁pleasure	-13533
▁pollution	-13534
▁destruction	-13535
▁grandfather	-13536
ypt	-13537
ספי	-13538
▁85	-13539
▁ве	-13540
▁ند	-13541
ares	-13542
atte	-13543
essa	-13544
idere	-13545
▁spar	-13546
▁اخرى	-13547
ודנטים	-13548
▁forme	-13549
▁produz	-13550
▁urobiť	-13551
▁fantastico	-13552
öp	-13553
aco	-13554
וגל	-13555
▁זי	-13556
word	-13557
ücke	-13558
כלית	-13559
▁Cop	-13560
▁aug	-13561
▁rou	-13562
▁urč	-13563
icate	-13564
night	-13565
▁Ment	-13566
▁tank	-13567
▁unus	-13568
עיונות	-13569
▁admit	-13570
▁anten	-13571
▁mille	-13572
▁קדימה	-13573
▁denaro	-13574
▁drives	-13575
▁player	-13576
▁העובדה	-13577
▁الموسيقى	-13578
▁Entwicklung	-13579
-4	-13580
▁ומא	-13581
▁للش	-13582
power	-13583
נויים	-13584
▁Sinn	-13585
▁club	-13586
▁Texas	-13587
▁sfida	-13588
▁vanno	-13589
▁dialog	-13590
▁pollen	-13591
▁fossero	-13592
▁options	-13593
▁versucht	-13594
▁všetkých	-13595
▁encourage	-13596
▁generally	-13597
לס	-13598
صط	-13599
eso	-13600
ému	-13601
roll	-13602
סיקה	-13603
▁Que	-13604
▁fen	-13605
▁vit	-13606
▁ולי	-13607
▁بتح	-13608
achst	-13609
▁horm	-13610
▁אינה	-13611
▁تأخذ	-13612
▁allem	-13613
▁objav	-13614
▁figlio	-13615
▁السكان	-13616
▁attacks	-13617
▁oggetti	-13618
▁الأماكن	-13619
▁überhaupt	-13620
בוק	-13621
asto	-13622
itos	-13623
שיית	-13624
شرين	-13625
▁kil	-13626
▁mare	-13627
▁pump	-13628
▁runs	-13629
▁أفكر	-13630
istica	-13631
source	-13632
▁שיהיה	-13633
▁النمو	-13634
▁correl	-13635
▁להסתכל	-13636
▁الانترنت	-13637
▁computing	-13638
PA	-13639
igu	-13640
▁Sa	-13641
לווי	-13642
מחים	-13643
▁דור	-13644
▁עבר	-13645
▁طول	-13646
كتشاف	-13647
▁bicy	-13648
▁bild	-13649
▁המוד	-13650
denken	-13651
▁Immag	-13652
▁istitu	-13653
▁territ	-13654
▁Pacific	-13655
▁komplex	-13656
▁remains	-13657
▁מסתכלים	-13658
▁المختلفة	-13659
▁algorithm	-13660
onde	-13661
oten	-13662
פקיד	-13663
▁Wel	-13664
▁שיי	-13665
▁army	-13666
▁mite	-13667
▁نعمل	-13668
▁spett	-13669
▁thick	-13670
▁الطفل	-13671
richten	-13672
▁cittad	-13673
▁cresci	-13674
▁entfer	-13675
▁evolve	-13676
▁neuron	-13677
▁התחלנו	-13678
▁iniziare	-13679
▁macchine	-13680
▁Möglichkeiten	-13681
aní	-13682
aint	-13683
inde	-13684
resa	-13685
▁Bei	-13686
▁blu	-13687
▁cez	-13688
▁doz	-13689
▁והח	-13690
iglie	-13691
▁Aufg	-13692
▁casi	-13693
▁fatt	-13694
▁השמש	-13695
▁quart	-13696
▁topic	-13697
▁גברים	-13698
▁assume	-13699
▁solved	-13700
▁الهواء	-13701
▁ملايين	-13702
▁tonight	-13703
▁dramatic	-13704
▁Universum	-13705
▁operation	-13706
▁providing	-13707
▁physically	-13708
▁שס	-13709
▁مغ	-13710
▁Zug	-13711
▁cab	-13712
earch	-13713
▁ener	-13714
▁zoom	-13715
▁הבאה	-13716
▁תהליך	-13717
▁Nessun	-13718
▁esseri	-13719
▁raccol	-13720
▁Prozess	-13721
▁termine	-13722
▁unexpected	-13723
leb	-13724
itto	-13725
▁buon	-13726
▁flag	-13727
iziert	-13728
▁chose	-13729
▁notes	-13730
▁plate	-13731
▁עשיתי	-13732
▁scorso	-13733
▁יכולתי	-13734
▁clothes	-13735
▁treffen	-13736
▁appreciate	-13737
▁Unfortunately	-13738
üng	-13739
hips	-13740
onen	-13741
rass	-13742
▁Budd	-13743
▁beob	-13744
▁piac	-13745
▁دولة	-13746
▁films	-13747
▁יכולת	-13748
▁gruppi	-13749
▁النووي	-13750
▁يمكنها	-13751
azionale	-13752
ressione	-13753
▁interag	-13754
▁nächste	-13755
amozrejme	-13756
▁internal	-13757
▁prodotti	-13758
▁technoló	-13759
▁М	-13760
דרה	-13761
▁дз	-13762
▁náj	-13763
▁جمع	-13764
▁ميل	-13765
▁Kong	-13766
▁Norm	-13767
▁طوال	-13768
▁نظرة	-13769
▁logic	-13770
▁critic	-13771
▁faccia	-13772
▁teoria	-13773
▁Publikum	-13774
▁gleichen	-13775
▁ultimate	-13776
▁improvvis	-13777
▁algorithms	-13778
weg	-13779
wär	-13780
öst	-13781
ורד	-13782
▁Ug	-13783
▁Za	-13784
כבות	-13785
يرات	-13786
▁Lib	-13787
▁مقد	-13788
iders	-13789
▁כשהם	-13790
▁قالت	-13791
▁Tiere	-13792
▁azienda	-13793
▁empathy	-13794
▁applications	-13795
ша	-13796
ضم	-13797
واة	-13798
miss	-13799
sein	-13800
חילה	-13801
شرات	-13802
▁cad	-13803
▁קשר	-13804
nahme	-13805
▁dico	-13806
▁trop	-13807
▁وكأن	-13808
▁ridic	-13809
▁جامعة	-13810
▁قاموا	-13811
▁الجديد	-13812
▁parking	-13813
▁comunque	-13814
▁pregnant	-13815
▁situations	-13816
▁Information	-13817
כח	-13818
bec	-13819
ísk	-13820
כלי	-13821
خول	-13822
▁dá	-13823
▁הלב	-13824
▁prin	-13825
▁تظهر	-13826
▁בשנות	-13827
▁bringt	-13828
▁fabric	-13829
▁secure	-13830
▁يريدون	-13831
▁chicken	-13832
▁mussten	-13833
úp	-13834
ענו	-13835
طرة	-13836
▁Eins	-13837
▁aree	-13838
▁chia	-13839
▁فإنه	-13840
▁وبدأ	-13841
▁وراء	-13842
▁humor	-13843
▁cammin	-13844
▁estate	-13845
▁estrem	-13846
▁whales	-13847
▁ragazzo	-13848
▁proteins	-13849
aticamente	-13850
▁centuries	-13851
oco	-13852
ína	-13853
כוח	-13854
▁ah	-13855
over	-13856
▁anx	-13857
ujete	-13858
لاقات	-13859
▁Hoff	-13860
▁الأغ	-13861
▁رؤيت	-13862
▁كلها	-13863
▁liked	-13864
▁tests	-13865
▁نحاول	-13866
▁scegli	-13867
▁בשבילי	-13868
▁الأيام	-13869
▁يقولون	-13870
▁accesso	-13871
▁dicendo	-13872
▁diction	-13873
ventional	-13874
▁infected	-13875
▁الأساسية	-13876
▁istruzione	-13877
BC	-13878
odo	-13879
▁طب	-13880
stra	-13881
ände	-13882
▁Ros	-13883
▁קילו	-13884
▁تفكر	-13885
rosoft	-13886
▁Teraz	-13887
▁lying	-13888
▁vyzer	-13889
▁دراسة	-13890
▁rising	-13891
▁معلومات	-13892
▁Wikipedia	-13893
DA	-13894
asm	-13895
ádz	-13896
טיה	-13897
רוס	-13898
منة	-13899
▁نن	-13900
▁خمس	-13901
▁مؤس	-13902
▁كامل	-13903
ificio	-13904
▁embar	-13905
▁faced	-13906
▁offic	-13907
▁strat	-13908
▁יוכלו	-13909
▁اللغة	-13910
▁خلايا	-13911
▁mistake	-13912
▁normale	-13913
▁الاقتصاد	-13914
كار	-13915
▁rum	-13916
▁ذكر	-13917
▁tape	-13918
▁atoms	-13919
▁Zellen	-13920
▁immune	-13921
▁closely	-13922
ру	-13923
ומת	-13924
מיה	-13925
كمة	-13926
▁اج	-13927
▁فج	-13928
erta	-13929
icit	-13930
irds	-13931
ouds	-13932
בוצה	-13933
ננים	-13934
ظيمة	-13935
لاحظ	-13936
▁Pan	-13937
▁ack	-13938
▁inn	-13939
▁לרא	-13940
▁بحث	-13941
▁بهم	-13942
ávajú	-13943
כונית	-13944
▁Wahl	-13945
▁تعلمت	-13946
▁يتوجب	-13947
ostante	-13948
▁Oxford	-13949
▁التطور	-13950
▁الإطلاق	-13951
▁meaningful	-13952
▁inspiration	-13953
▁collaboration	-13954
טיב	-13955
ادث	-13956
شاط	-13957
▁Os	-13958
Amer	-13959
engu	-13960
uden	-13961
פאים	-13962
▁ליד	-13963
vanie	-13964
▁lebo	-13965
▁množ	-13966
▁refr	-13967
▁الار	-13968
▁غرفة	-13969
▁Elekt	-13970
▁legge	-13971
▁לחזור	-13972
▁الحدي	-13973
möglich	-13974
▁meines	-13975
▁זקוקים	-13976
▁evening	-13977
▁figures	-13978
▁sociali	-13979
čný	-13980
وضع	-13981
▁fib	-13982
▁أيام	-13983
▁ester	-13984
▁fatti	-13985
▁punti	-13986
▁לגלות	-13987
▁לדעתי	-13988
▁suffer	-13989
▁afterno	-13990
▁magnetic	-13991
▁mistakes	-13992
▁partecip	-13993
▁Erfahrung	-13994
▁sensitive	-13995
▁חל	-13996
fern	-13997
▁anz	-13998
▁ogn	-13999
▁twe	-14000
▁خلف	-14001
שירים	-14002
▁Bush	-14003
▁táto	-14004
▁الأب	-14005
▁argom	-14006
▁assic	-14007
▁frank	-14008
▁kamen	-14009
▁letto	-14010
▁toxic	-14011
▁קרובות	-14012
▁الصحية	-14013
▁Microsoft	-14014
▁settimane	-14015
هو	-14016
bles	-14017
يروس	-14018
▁במס	-14019
▁מתמ	-14020
▁loud	-14021
▁völl	-14022
mitted	-14023
▁dense	-14024
▁maxim	-14025
▁mirror	-14026
▁الكبير	-14027
▁يمكنهم	-14028
▁sensors	-14029
▁therapy	-14030
▁features	-14031
▁riguardo	-14032
▁costruito	-14033
▁confidence	-14034
anne	-14035
▁מטר	-14036
alian	-14037
ächst	-14038
▁eggs	-14039
▁skup	-14040
▁لحظة	-14041
▁error	-14042
▁בסופו	-14043
▁המחשב	-14044
flanzen	-14045
▁Sweden	-14046
▁puzzle	-14047
▁remove	-14048
aneously	-14049
ريط	-14050
▁وز	-14051
ívne	-14052
▁Dor	-14053
▁Oce	-14054
▁Tes	-14055
▁Pero	-14056
▁Všet	-14057
▁cens	-14058
▁obes	-14059
▁הקול	-14060
▁الشئ	-14061
▁تذهب	-14062
▁Gates	-14063
▁parla	-14064
▁spazi	-14065
▁verde	-14066
▁אמריק	-14067
▁מקווה	-14068
▁שנוכל	-14069
▁boring	-14070
▁المرأة	-14071
inations	-14072
▁rendere	-14073
▁caratter	-14074
סס	-14075
צג	-14076
bie	-14077
ння	-14078
פית	-14079
اند	-14080
▁Bob	-14081
▁Tim	-14082
cking	-14083
▁west	-14084
▁בלבד	-14085
▁تذكر	-14086
▁upper	-14087
▁Dingen	-14088
▁measured	-14089
▁Something	-14090
▁statement	-14091
▁Gesundheits	-14092
EC	-14093
bei	-14094
usa	-14095
ייר	-14096
▁אס	-14097
ched	-14098
yram	-14099
ומית	-14100
اريع	-14101
▁ערך	-14102
▁bias	-14103
▁قامت	-14104
friend	-14105
▁carta	-14106
▁صناعة	-14107
▁worden	-14108
▁Archite	-14109
▁unusual	-14110
▁disaster	-14111
ož	-14112
הל	-14113
rane	-14114
اصيل	-14115
هولة	-14116
▁voj	-14117
▁מבט	-14118
jekte	-14119
▁obst	-14120
▁vere	-14121
▁تنظر	-14122
▁جانب	-14123
▁amico	-14124
▁Island	-14125
▁weitere	-14126
▁International	-14127
zd	-14128
opp	-14129
قود	-14130
يجة	-14131
ollo	-14132
סטרו	-14133
الجة	-14134
▁Oze	-14135
▁להן	-14136
▁תופ	-14137
▁نشر	-14138
▁Wand	-14139
▁بسيط	-14140
▁label	-14141
▁sette	-14142
▁الاحت	-14143
▁Vedete	-14144
▁meccan	-14145
▁príbeh	-14146
▁solche	-14147
▁Everyone	-14148
▁manifest	-14149
▁protected	-14150
LA	-14151
ais	-14152
zia	-14153
▁ספ	-14154
▁فض	-14155
hers	-14156
opes	-14157
raum	-14158
rück	-14159
ديات	-14160
▁ומע	-14161
▁1000	-14162
▁Mand	-14163
▁scan	-14164
▁בעבר	-14165
▁והנה	-14166
▁court	-14167
▁súčas	-14168
isieren	-14169
▁Myslím	-14170
▁struck	-14171
▁passare	-14172
▁Geschäft	-14173
▁wondered	-14174
▁chimpanze	-14175
▁electronic	-14176
أس	-14177
lád	-14178
כני	-14179
ولد	-14180
tech	-14181
تيجة	-14182
وارد	-14183
واعد	-14184
▁Day	-14185
▁המט	-14186
▁מוס	-14187
▁ראי	-14188
▁مكت	-14189
acing	-14190
ových	-14191
▁bass	-14192
▁הופך	-14193
▁הלאה	-14194
▁ישנה	-14195
▁Fried	-14196
▁embed	-14197
▁suono	-14198
▁andato	-14199
▁האמיתי	-14200
▁amounts	-14201
▁storytell	-14202
▁passionate	-14203
lap	-14204
niť	-14205
sum	-14206
▁أض	-14207
▁شر	-14208
esth	-14209
ראית	-14210
לקטרו	-14211
موعات	-14212
▁Tanz	-14213
▁acts	-14214
▁cioè	-14215
▁mnoh	-14216
▁pall	-14217
▁pool	-14218
▁כולל	-14219
▁לצאת	-14220
▁מזון	-14221
▁עולה	-14222
▁الفق	-14223
▁Erfol	-14224
▁sacri	-14225
וקיינוס	-14226
▁aspect	-14227
▁traged	-14228
▁Staaten	-14229
▁balloon	-14230
▁maggiore	-14231
mm	-14232
maq	-14233
אור	-14234
داة	-14235
غيل	-14236
agne	-14237
keys	-14238
▁ويت	-14239
vesse	-14240
▁hits	-14241
▁shel	-14242
▁בסיס	-14243
▁החדש	-14244
▁الجد	-14245
▁مئات	-14246
▁مثلا	-14247
▁Colle	-14248
▁biodi	-14249
▁rooms	-14250
▁split	-14251
▁Pretože	-14252
▁borders	-14253
▁embrace	-14254
▁flowers	-14255
оў	-14256
ماك	-14257
ميه	-14258
▁BF	-14259
born	-14260
מינו	-14261
▁חלו	-14262
orden	-14263
▁Oper	-14264
▁mere	-14265
▁wine	-14266
▁למטה	-14267
▁Egypt	-14268
▁explo	-14269
▁seeds	-14270
▁عالية	-14271
▁eigene	-14272
▁قادرين	-14273
▁instrum	-14274
▁records	-14275
▁الرعاية	-14276
אלי	-14277
פרט	-14278
ارك	-14279
كمل	-14280
▁Sú	-14281
▁ao	-14282
brig	-14283
▁Bus	-14284
▁dop	-14285
▁пры	-14286
▁הסט	-14287
▁נשא	-14288
icare	-14289
ragen	-14290
▁thin	-14291
▁أعمل	-14292
▁فحسب	-14293
finden	-14294
making	-14295
▁Kraft	-14296
▁toler	-14297
▁Lassen	-14298
▁entsche	-14299
▁الجمهور	-14300
▁Struktur	-14301
▁equality	-14302
▁framework	-14303
▁materiale	-14304
sey	-14305
מול	-14306
orsi	-14307
álny	-14308
▁الظ	-14309
etter	-14310
▁Gebi	-14311
▁Gren	-14312
▁flew	-14313
▁تطبي	-14314
▁يوما	-14315
▁איננו	-14316
▁القول	-14317
▁extent	-14318
▁tested	-14319
▁thanks	-14320
▁comprom	-14321
▁players	-14322
▁progetti	-14323
▁cambiamenti	-14324
ýt	-14325
жы	-14326
vey	-14327
כוי	-14328
ראי	-14329
ריי	-14330
נועה	-14331
▁מתק	-14332
▁كتب	-14333
level	-14334
statt	-14335
▁Verl	-14336
▁Tages	-14337
▁feder	-14338
▁للناس	-14339
inction	-14340
▁Verein	-14341
▁našich	-14342
ichtlich	-14343
▁Arbeits	-14344
▁diversa	-14345
▁instruct	-14346
▁الموجودة	-14347
▁avrebbero	-14348
▁determine	-14349
▁personally	-14350
ení	-14351
opy	-14352
ýšľ	-14353
روا	-14354
مرض	-14355
▁ug	-14356
▁Kre	-14357
▁קרוב	-14358
▁تملك	-14359
▁يذهب	-14360
▁avvic	-14361
▁globe	-14362
▁lever	-14363
▁podob	-14364
▁sanno	-14365
▁shall	-14366
▁שנמצא	-14367
▁Grunde	-14368
▁Wochen	-14369
▁effett	-14370
▁placed	-14371
▁אלוהים	-14372
▁possano	-14373
▁pushing	-14374
▁العصبية	-14375
▁skutočne	-14376
▁menschliche	-14377
נח	-14378
▁MS	-14379
▁جز	-14380
▁صح	-14381
izie	-14382
▁Mah	-14383
▁akt	-14384
▁jaz	-14385
▁unt	-14386
▁הער	-14387
baren	-14388
inato	-14389
lungs	-14390
شاهدة	-14391
▁Mach	-14392
▁rede	-14393
▁قيمة	-14394
phones	-14395
▁boxes	-14396
▁dozen	-14397
▁score	-14398
attutto	-14399
▁intera	-14400
▁بالمئة	-14401
▁التواصل	-14402
▁policies	-14403
▁vehicles	-14404
▁instruments	-14405
aks	-14406
zio	-14407
חיד	-14408
ları	-14409
ابقة	-14410
▁toy	-14411
▁اقت	-14412
باتات	-14413
▁colt	-14414
▁trig	-14415
▁شاهد	-14416
▁مرات	-14417
▁Prima	-14418
▁fruit	-14419
▁smile	-14420
▁المطا	-14421
▁agreed	-14422
▁January	-14423
▁channel	-14424
▁circuit	-14425
▁largely	-14426
▁reverse	-14427
▁tornare	-14428
▁younger	-14429
▁الروبوت	-14430
▁allowing	-14431
▁afternoon	-14432
▁spiritual	-14433
mmo	-14434
íta	-14435
ľko	-14436
well	-14437
וציה	-14438
▁raw	-14439
▁tur	-14440
▁והה	-14441
▁כזו	-14442
▁chap	-14443
▁sets	-14444
bridge	-14445
isiert	-14446
ließen	-14447
▁alber	-14448
▁bones	-14449
▁depth	-14450
▁vesmí	-14451
▁لأنهم	-14452
▁موجود	-14453
▁scelta	-14454
▁aspects	-14455
▁fishing	-14456
▁nowhere	-14457
▁combined	-14458
▁equation	-14459
▁collected	-14460
uba	-14461
viť	-14462
ורם	-14463
כתב	-14464
קרב	-14465
حقا	-14466
iede	-14467
iniz	-14468
árov	-14469
▁Ric	-14470
▁ולק	-14471
▁يحت	-14472
▁يصل	-14473
ipend	-14474
ערכות	-14475
▁wund	-14476
▁בפעם	-14477
▁Autos	-14478
▁Essen	-14479
▁stere	-14480
▁דוגמה	-14481
▁לפתור	-14482
▁Before	-14483
▁accett	-14484
▁direkt	-14485
▁monkey	-14486
▁repair	-14487
▁vidíte	-14488
▁director	-14489
▁conoscenza	-14490
iso	-14491
هات	-14492
ورد	-14493
▁Öl	-14494
▁نف	-14495
▁Aug	-14496
▁התג	-14497
▁معه	-14498
▁bath	-14499
▁ears	-14500
▁تعني	-14501
▁معدل	-14502
▁angry	-14503
▁plané	-14504
▁taste	-14505
▁בהחלט	-14506
▁الجسم	-14507
▁bereit	-14508
▁filter	-14509
▁מקומות	-14510
▁carried	-14511
▁drinking	-14512
▁capitalism	-14513
▁percentage	-14514
▁implications	-14515
ст	-14516
äss	-14517
אום	-14518
ifth	-14519
oral	-14520
rutt	-14521
usto	-14522
zone	-14523
▁Bay	-14524
▁Sek	-14525
▁krá	-14526
▁מהן	-14527
reich	-14528
ليدية	-14529
▁Long	-14530
▁Matt	-14531
▁Miss	-14532
▁disk	-14533
▁גורם	-14534
▁حركة	-14535
▁فريق	-14536
فريقيا	-14537
▁Nacht	-14538
▁White	-14539
▁recyc	-14540
▁المؤس	-14541
▁تحقيق	-14542
▁fertil	-14543
▁oggetto	-14544
▁protest	-14545
▁provare	-14546
▁embarrass	-14547
▁underwater	-14548
▁І	-14549
yan	-14550
ını	-14551
قيت	-14552
▁כד	-14553
حيدة	-14554
▁Sex	-14555
▁كأن	-14556
▁tort	-14557
▁חשבו	-14558
▁deren	-14559
▁jedna	-14560
▁milió	-14561
▁osped	-14562
▁sveta	-14563
▁unten	-14564
▁vital	-14565
▁ואולי	-14566
▁enable	-14567
▁handle	-14568
▁regole	-14569
▁constra	-14570
▁edificio	-14571
▁functions	-14572
še	-14573
צט	-14574
واد	-14575
▁נג	-14576
iana	-14577
wert	-14578
נינו	-14579
▁Mas	-14580
▁كار	-14581
▁للس	-14582
razia	-14583
▁Ford	-14584
▁quar	-14585
▁sint	-14586
▁أشعر	-14587
▁التى	-14588
▁pengu	-14589
▁עשינו	-14590
▁العلاج	-14591
▁diagram	-14592
▁painful	-14593
אל	-14594
اة	-14595
ajú	-14596
cen	-14597
iko	-14598
iday	-14599
stup	-14600
äume	-14601
שתמש	-14602
▁לבי	-14603
▁مقا	-14604
▁Kont	-14605
▁בסוף	-14606
▁Markt	-14607
▁benöt	-14608
▁takto	-14609
▁Saturn	-14610
▁letzte	-14611
▁völlig	-14612
▁conness	-14613
▁defined	-14614
▁exploring	-14615
▁lavorando	-14616
▁condividere	-14617
rik	-14618
بني	-14619
هلك	-14620
מידה	-14621
خبار	-14622
▁והן	-14623
▁ضمن	-14624
itors	-14625
▁Gold	-14626
▁Tage	-14627
▁sito	-14628
▁סרטן	-14629
▁Congo	-14630
▁Hilfe	-14631
▁bella	-14632
▁miner	-14633
▁sembr	-14634
▁القلب	-14635
▁علماء	-14636
▁damals	-14637
▁Finally	-14638
▁commerci	-14639
▁stronger	-14640
şı	-14641
ליל	-14642
נדר	-14643
درس	-14644
▁як	-14645
▁كر	-14646
▁Nap	-14647
▁קהי	-14648
▁شهر	-14649
▁محت	-14650
▁June	-14651
▁איתם	-14652
▁Gründ	-14653
▁Vorrei	-14654
▁dessen	-14655
▁sphere	-14656
▁stayed	-14657
▁ואפילו	-14658
▁circumstances	-14659
زف	-14660
appy	-14661
iens	-14662
▁Pop	-14663
▁pip	-14664
▁عال	-14665
▁Nahr	-14666
▁Viet	-14667
▁butt	-14668
▁pray	-14669
▁spie	-14670
▁vecí	-14671
▁يظهر	-14672
▁Carol	-14673
▁Number	-14674
▁acknow	-14675
▁capita	-14676
▁stelle	-14677
▁vorher	-14678
▁Freunde	-14679
▁efficiency	-14680
▁sustainability	-14681
נר	-14682
▁Mac	-14683
▁Rei	-14684
▁أرى	-14685
▁inqu	-14686
▁البا	-14687
▁autor	-14688
▁pharm	-14689
▁wären	-14690
▁50,000	-14691
▁button	-14692
▁inizia	-14693
▁limits	-14694
▁marine	-14695
▁poster	-14696
▁الصغير	-14697
▁collapse	-14698
▁permette	-14699
▁provided	-14700
▁continued	-14701
▁distributed	-14702
IS	-14703
שט	-14704
asy	-14705
rix	-14706
ובב	-14707
▁tv	-14708
▁שיע	-14709
assem	-14710
icted	-14711
▁erlau	-14712
▁prize	-14713
▁سيارة	-14714
▁Uganda	-14715
▁attrib	-14716
▁elektr	-14717
▁ladies	-14718
▁Gesicht	-14719
▁cambiato	-14720
▁hardware	-14721
▁laboratory	-14722
ائر	-14723
شوا	-14724
▁Fot	-14725
▁Fun	-14726
▁Girl	-14727
▁fake	-14728
▁חומר	-14729
▁Human	-14730
▁Peter	-14731
▁cents	-14732
▁renew	-14733
▁teams	-14734
▁يعتبر	-14735
▁Republ	-14736
▁Stiamo	-14737
▁clinic	-14738
▁resili	-14739
▁frankly	-14740
▁neurosci	-14741
▁riguarda	-14742
▁subjects	-14743
əc	-14744
בש	-14745
dep	-14746
▁طي	-14747
aste	-14748
▁tod	-14749
▁اليس	-14750
▁obrov	-14751
▁stone	-14752
▁ultra	-14753
▁עניין	-14754
izieren	-14755
▁senses	-14756
▁wunder	-14757
▁ולמעשה	-14758
▁causing	-14759
▁library	-14760
▁סיפורים	-14761
▁velocità	-14762
▁educational	-14763
▁جو	-14764
ندوق	-14765
وجود	-14766
▁fas	-14767
▁מאו	-14768
▁מהפ	-14769
▁רוח	-14770
▁عرف	-14771
▁2002	-14772
▁eben	-14773
▁הבית	-14774
▁יורק	-14775
▁دماغ	-14776
annten	-14777
▁decre	-14778
▁البرا	-14779
▁Palest	-14780
▁border	-14781
▁النقطة	-14782
▁burning	-14783
▁الشخصية	-14784
▁horrible	-14785
▁generazione	-14786
يق	-14787
ané	-14788
lož	-14789
сць	-14790
صدق	-14791
ostí	-14792
▁Eis	-14793
▁ate	-14794
athan	-14795
child	-14796
esign	-14797
gence	-14798
uting	-14799
▁About	-14800
▁Heute	-14801
▁لكنني	-14802
▁Invest	-14803
▁feeding	-14804
▁persino	-14805
▁السيارة	-14806
▁recording	-14807
▁recognized	-14808
ця	-14809
يميا	-14810
▁dva	-14811
▁kni	-14812
▁مات	-14813
▁isto	-14814
▁تحمل	-14815
▁altru	-14816
▁anger	-14817
▁lässt	-14818
▁plays	-14819
▁wider	-14820
▁مجددا	-14821
▁ولذلك	-14822
▁lingua	-14823
▁accordo	-14824
▁equally	-14825
▁znamená	-14826
▁מאמינים	-14827
▁lavorato	-14828
▁sarebbero	-14829
▁schwierig	-14830
nie	-14831
משו	-14832
▁وخ	-14833
لامة	-14834
▁Tam	-14835
▁kto	-14836
תייחס	-14837
▁excl	-14838
▁الفن	-14839
▁لكني	-14840
▁grund	-14841
▁revol	-14842
▁šťast	-14843
▁בחזרה	-14844
▁بعدها	-14845
▁diabet	-14846
▁laptop	-14847
▁obwohl	-14848
▁sports	-14849
▁exposed	-14850
▁neanche	-14851
▁offered	-14852
▁receive	-14853
▁האחרונה	-14854
▁comincia	-14855
▁prostred	-14856
▁scrivere	-14857
▁controvers	-14858
oo	-14859
▁ň	-14860
via	-14861
ומה	-14862
ivil	-14863
ختار	-14864
وبات	-14865
▁ארה	-14866
atten	-14867
ovala	-14868
▁mail	-14869
▁otto	-14870
▁snaž	-14871
▁wash	-14872
▁המאה	-14873
lossen	-14874
▁disag	-14875
▁spont	-14876
▁המחקר	-14877
▁Cambridge	-14878
▁الأمريكية	-14879
▁betrachten	-14880
ליו	-14881
מרו	-14882
فاق	-14883
كاف	-14884
▁كه	-14885
viet	-14886
דיים	-14887
▁NSA	-14888
▁התק	-14889
▁calc	-14890
▁mush	-14891
▁máte	-14892
▁rive	-14893
▁shif	-14894
▁vždy	-14895
▁حديث	-14896
▁فكرت	-14897
ements	-14898
ession	-14899
▁honey	-14900
▁pilot	-14901
▁קבוצה	-14902
▁الرغم	-14903
▁يحاول	-14904
▁vivono	-14905
▁advance	-14906
▁conclusion	-14907
אם	-14908
pie	-14909
זית	-14910
▁né	-14911
▁га	-14912
▁bow	-14913
▁ועד	-14914
glese	-14915
▁Span	-14916
▁الرب	-14917
▁fears	-14918
▁polio	-14919
▁أعمال	-14920
illance	-14921
▁reject	-14922
▁signed	-14923
▁העניין	-14924
▁ovunque	-14925
▁Gedanken	-14926
ľú	-14927
pia	-14928
ومي	-14929
koch	-14930
▁aim	-14931
▁ear	-14932
▁وأي	-14933
▁Fern	-14934
▁anat	-14935
▁joke	-14936
▁Boden	-14937
▁Democ	-14938
▁molta	-14939
▁ראשית	-14940
schnitt	-14941
standen	-14942
▁Lehrer	-14943
▁Nothing	-14944
▁corresp	-14945
▁dancing	-14946
▁medicina	-14947
▁refugees	-14948
▁evoluzione	-14949
▁linguaggio	-14950
▁Т	-14951
sun	-14952
ראק	-14953
▁כר	-14954
rome	-14955
stru	-14956
uali	-14957
כונים	-14958
▁dett	-14959
▁ours	-14960
▁בחדר	-14961
▁Korea	-14962
▁מרגיש	-14963
▁الموت	-14964
▁حقيقي	-14965
anthrop	-14966
▁Unsere	-14967
▁linked	-14968
▁cooking	-14969
▁gleiche	-14970
▁באפריקה	-14971
▁Remember	-14972
▁digitale	-14973
▁neurolog	-14974
▁sunlight	-14975
60	-14976
ový	-14977
בלה	-14978
שהי	-14979
روس	-14980
عار	-14981
لون	-14982
▁Kü	-14983
alia	-14984
▁Ast	-14985
▁הפך	-14986
▁بلد	-14987
▁Dove	-14988
▁Next	-14989
▁cock	-14990
▁evil	-14991
▁במוח	-14992
▁البن	-14993
▁mobil	-14994
▁sorta	-14995
▁תרבות	-14996
onymous	-14997
▁Monate	-14998
▁metter	-14999
▁nutrit	-15000
▁maniera	-15001
▁spectac	-15002
▁domestic	-15003
▁tracking	-15004
▁technique	-15005
▁controlled	-15006
aya	-15007
оль	-15008
פוש	-15009
ائن	-15010
▁נמ	-15011
chem	-15012
hold	-15013
just	-15014
מיחה	-15015
ادثة	-15016
راضي	-15017
▁orb	-15018
▁كله	-15019
comes	-15020
ולוגי	-15021
עילים	-15022
▁anzi	-15023
▁shut	-15024
▁solu	-15025
▁vest	-15026
▁znov	-15027
▁získ	-15028
▁معها	-15029
ziehen	-15030
▁Latin	-15031
▁simul	-15032
▁بعضهم	-15033
▁rating	-15034
▁subito	-15035
▁maintain	-15036
▁speranza	-15037
▁department	-15038
▁economists	-15039
▁moi	-15040
▁مري	-15041
▁2015	-15042
▁السو	-15043
ettura	-15044
▁Thema	-15045
▁تعليم	-15046
▁Denken	-15047
▁היחידה	-15048
▁וכמובן	-15049
▁careful	-15050
▁erstaun	-15051
▁الطبيعي	-15052
▁schlecht	-15053
▁curiosity	-15054
icl	-15055
باط	-15056
تمر	-15057
afft	-15058
iach	-15059
ucia	-15060
▁הפת	-15061
▁أظن	-15062
aceut	-15063
čnosť	-15064
▁פנים	-15065
▁dimin	-15066
▁weigh	-15067
▁التلف	-15068
▁colore	-15069
▁elabor	-15070
▁portra	-15071
▁besteht	-15072
▁fiction	-15073
▁modelli	-15074
▁overall	-15075
▁regener	-15076
▁scoprire	-15077
▁corporate	-15078
▁spreading	-15079
ذر	-15080
rey	-15081
óns	-15082
חוד	-15083
ؤمن	-15084
▁Jul	-15085
▁האת	-15086
▁עול	-15087
cence	-15088
ujúce	-15089
▁Hall	-15090
▁frat	-15091
▁leap	-15092
▁sink	-15093
▁tess	-15094
▁flood	-15095
▁grows	-15096
▁pochi	-15097
▁accade	-15098
▁regime	-15099
▁התשובה	-15100
▁להמשיך	-15101
▁command	-15102
▁engaging	-15103
▁matematica	-15104
▁compassione	-15105
äß	-15106
öße	-15107
هدا	-15108
▁то	-15109
mber	-15110
wing	-15111
طوير	-15112
▁Dok	-15113
▁shr	-15114
▁ניו	-15115
▁للب	-15116
iable	-15117
rando	-15118
▁Stat	-15119
▁Ster	-15120
▁nego	-15121
▁tast	-15122
▁tech	-15123
▁divide	-15124
▁relate	-15125
▁leggere	-15126
▁savings	-15127
▁הבריאות	-15128
▁crescere	-15129
▁percento	-15130
▁personale	-15131
وأ	-15132
▁Н	-15133
▁55	-15134
▁ya	-15135
▁וצ	-15136
what	-15137
موال	-15138
▁להק	-15139
▁מצב	-15140
chsel	-15141
▁subs	-15142
▁בגיל	-15143
▁النف	-15144
▁واضح	-15145
called	-15146
▁Smith	-15147
▁reput	-15148
▁scary	-15149
▁terzo	-15150
▁الكتاب	-15151
▁المنتج	-15152
▁architects	-15153
▁produzione	-15154
▁transformed	-15155
сці	-15156
airs	-15157
▁zab	-15158
▁عما	-15159
▁Time	-15160
▁está	-15161
▁seba	-15162
▁יקרה	-15163
▁والش	-15164
ických	-15165
▁theme	-15166
▁טובות	-15167
▁ثانية	-15168
▁behand	-15169
▁column	-15170
▁unlike	-15171
▁דמיינו	-15172
▁autonom	-15173
▁الاشخاص	-15174
▁السرطان	-15175
▁imagined	-15176
▁reported	-15177
▁consumers	-15178
▁connecting	-15179
סא	-15180
בלו	-15181
▁גל	-15182
prim	-15183
פיות	-15184
طباء	-15185
▁pon	-15186
opard	-15187
orous	-15188
▁Beif	-15189
▁ermö	-15190
▁כלום	-15191
▁משות	-15192
struct	-15193
▁Woche	-15194
▁dobre	-15195
▁shame	-15196
through	-15197
▁hervor	-15198
▁legisl	-15199
▁removed	-15200
▁samples	-15201
▁speriment	-15202
núť	-15203
בדו	-15204
▁dà	-15205
▁kv	-15206
▁ובר	-15207
▁حرف	-15208
▁2020	-15209
▁Tier	-15210
▁guad	-15211
▁obrá	-15212
▁اريد	-15213
▁لاحظ	-15214
▁lösen	-15215
▁ought	-15216
▁plans	-15217
▁נוספת	-15218
▁cerebr	-15219
▁elettr	-15220
▁Vietnam	-15221
▁authority	-15222
▁collecting	-15223
▁soprattutto	-15224
▁experiencing	-15225
كد	-15226
fel	-15227
▁סר	-15228
▁نص	-15229
cich	-15230
imet	-15231
ابعة	-15232
▁Oct	-15233
▁הקי	-15234
▁להב	-15235
▁واض	-15236
▁judg	-15237
▁prvý	-15238
▁toss	-15239
▁הכוח	-15240
▁phase	-15241
▁إنتاج	-15242
▁تعتقد	-15243
▁قليلة	-15244
ausende	-15245
▁fright	-15246
▁jedoch	-15247
▁extinct	-15248
▁fingers	-15249
▁distinct	-15250
▁vaccines	-15251
▁surrounded	-15252
קע	-15253
عطي	-15254
illy	-15255
otta	-15256
לקים	-15257
خصوص	-15258
ينما	-15259
▁vag	-15260
▁şey	-15261
▁מהח	-15262
▁רצו	-15263
▁שקי	-15264
▁تقد	-15265
▁Team	-15266
▁ואתה	-15267
gefühl	-15268
▁condiv	-15269
ographer	-15270
▁floating	-15271
wirtschaft	-15272
▁strangers	-15273
▁naturalmente	-15274
rt	-15275
нне	-15276
כיט	-15277
خلص	-15278
زاء	-15279
▁فق	-15280
acci	-15281
aran	-15282
▁dve	-15283
▁zvy	-15284
▁והפ	-15285
▁Dere	-15286
▁pink	-15287
▁בארה	-15288
▁חיות	-15289
▁جنوب	-15290
▁chaos	-15291
▁veder	-15292
▁stellt	-15293
▁unseres	-15294
▁vertical	-15295
mus	-15296
áte	-15297
שרד	-15298
▁42	-15299
ادات	-15300
ورية	-15301
▁אכן	-15302
▁بمج	-15303
immen	-15304
▁Coll	-15305
▁Mond	-15306
▁Post	-15307
▁ببعض	-15308
▁aspir	-15309
▁ראיתי	-15310
▁مشاكل	-15311
▁infant	-15312
▁interf	-15313
▁teilen	-15314
▁Florida	-15315
▁efforts	-15316
▁nessuna	-15317
▁poorest	-15318
▁הנתונים	-15319
▁chiunque	-15320
▁microscope	-15321
▁antibiotics	-15322
▁personality	-15323
צם	-15324
▁İ	-15325
▁بخ	-15326
hrte	-15327
▁cup	-15328
▁פול	-15329
▁פרס	-15330
alità	-15331
endes	-15332
lagen	-15333
▁Vort	-15334
▁كنتم	-15335
issima	-15336
▁carri	-15337
▁costo	-15338
▁našej	-15339
▁إيجاد	-15340
▁Bürger	-15341
▁Lösung	-15342
▁writer	-15343
▁presence	-15344
▁somewhat	-15345
▁الطبيعية	-15346
▁dinosaurs	-15347
▁application	-15348
ws	-15349
dən	-15350
ued	-15351
נהי	-15352
▁זר	-15353
▁ath	-15354
▁בבי	-15355
▁للف	-15356
▁مني	-15357
▁abbi	-15358
▁طويل	-15359
gebung	-15360
▁ausge	-15361
▁enemy	-15362
▁führt	-15363
▁peggi	-15364
▁zuvor	-15365
▁المرك	-15366
▁falsch	-15367
▁wusste	-15368
▁الشبكة	-15369
▁aggress	-15370
▁suicide	-15371
▁visione	-15372
▁dettagli	-15373
▁download	-15374
▁occasion	-15375
▁sopravviv	-15376
▁mechanical	-15377
زد	-15378
hla	-15379
isí	-15380
תים	-15381
ارد	-15382
زام	-15383
ضيت	-15384
achs	-15385
igur	-15386
جراء	-15387
▁Dia	-15388
▁Off	-15389
▁Poz	-15390
▁etm	-15391
▁nau	-15392
▁obl	-15393
▁Erst	-15394
▁Tats	-15395
▁entw	-15396
▁spin	-15397
▁لابد	-15398
▁ghiac	-15399
▁مثيرة	-15400
▁contrad	-15401
▁birthday	-15402
▁paintings	-15403
مون	-15404
▁31	-15405
▁Von	-15406
▁מות	-15407
▁بام	-15408
▁رأس	-15409
פשרות	-15410
▁Tony	-15411
▁file	-15412
▁nero	-15413
▁אישה	-15414
▁שקרה	-15415
▁drove	-15416
▁tempi	-15417
▁كثيرة	-15418
▁magari	-15419
▁effetto	-15420
▁existed	-15421
▁príklad	-15422
▁האנושית	-15423
dır	-15424
צוות	-15425
ريطة	-15426
▁Jon	-15427
▁dif	-15428
▁hey	-15429
▁הים	-15430
▁חוו	-15431
iture	-15432
▁Situ	-15433
▁debt	-15434
▁nose	-15435
▁החלו	-15436
▁ובכל	-15437
▁معهم	-15438
umento	-15439
▁Prečo	-15440
▁Viele	-15441
▁abund	-15442
▁belle	-15443
▁مرحلة	-15444
▁Modell	-15445
▁barely	-15446
▁fragte	-15447
▁hungry	-15448
▁giovane	-15449
▁interse	-15450
▁monkeys	-15451
▁windows	-15452
▁petrolio	-15453
▁greenhouse	-15454
צרה	-15455
▁UN	-15456
▁NGO	-15457
▁Cont	-15458
▁Ethi	-15459
▁Vert	-15460
▁gray	-15461
▁mese	-15462
▁ברשת	-15463
▁الحظ	-15464
▁20,000	-15465
▁oceano	-15466
▁צעירים	-15467
▁decline	-15468
▁התנהגות	-15469
▁captured	-15470
▁football	-15471
▁footprint	-15472
▁selection	-15473
▁populations	-15474
▁Wissenschaftler	-15475
▁К	-15476
כפת	-15477
▁Ot	-15478
▁SS	-15479
tery	-15480
▁mel	-15481
▁pin	-15482
▁رقم	-15483
▁vibr	-15484
▁נשמע	-15485
ديمقرا	-15486
▁facer	-15487
▁judge	-15488
▁xente	-15489
▁כשאתם	-15490
▁نتيجة	-15491
▁نعتقد	-15492
▁fisher	-15493
▁pocket	-15494
▁Roboter	-15495
connected	-15496
▁entschied	-15497
▁к	-15498
opl	-15499
אית	-15500
וחה	-15501
מני	-15502
רוש	-15503
▁Və	-15504
▁ذو	-15505
tedy	-15506
מדתי	-15507
▁بات	-15508
▁stol	-15509
▁שאמר	-15510
▁يشبه	-15511
▁prova	-15512
▁style	-15513
▁התחיל	-15514
▁العقل	-15515
ötzlich	-15516
▁numeri	-15517
▁الشباب	-15518
▁cheaper	-15519
▁combatt	-15520
▁impress	-15521
▁obrovsk	-15522
▁النتائج	-15523
▁concepts	-15524
▁outcomes	-15525
▁paziente	-15526
▁الأمريكي	-15527
▁celebrate	-15528
▁emergency	-15529
▁transparent	-15530
-3	-15531
cci	-15532
mod	-15533
מדו	-15534
▁Id	-15535
▁nə	-15536
iché	-15537
ufen	-15538
völk	-15539
حساس	-15540
درجة	-15541
▁Ext	-15542
▁Lar	-15543
▁לפר	-15544
▁أمي	-15545
▁1998	-15546
▁eleg	-15547
▁rozd	-15548
▁בשנת	-15549
▁להתח	-15550
מנויות	-15551
▁utter	-15552
▁veter	-15553
▁ציבור	-15554
▁جميلة	-15555
▁lifest	-15556
▁plenty	-15557
▁sollen	-15558
▁protegg	-15559
▁Children	-15560
▁disorder	-15561
▁elephant	-15562
▁attravers	-15563
▁committed	-15564
▁entrepreneur	-15565
תף	-15566
ظا	-15567
هش	-15568
▁Á	-15569
▁Š	-15570
▁iş	-15571
cers	-15572
iled	-15573
رقام	-15574
▁Bit	-15575
▁Kir	-15576
▁עור	-15577
▁שהח	-15578
▁خلق	-15579
aming	-15580
inzip	-15581
zeigt	-15582
▁Mess	-15583
▁انني	-15584
▁بشدة	-15585
▁نبدأ	-15586
▁يكفي	-15587
▁Haupt	-15588
▁Sehen	-15589
▁Woman	-15590
▁apple	-15591
▁chies	-15592
▁civili	-15593
▁fühlen	-15594
▁يعملون	-15595
▁College	-15596
▁finance	-15597
▁wherever	-15598
▁Christmas	-15599
▁reference	-15600
▁appropriate	-15601
▁recognition	-15602
عه	-15603
▁»	-15604
eds	-15605
ned	-15606
رجح	-15607
زين	-15608
▁يف	-15609
airo	-15610
fare	-15611
geme	-15612
▁10-	-15613
▁הגר	-15614
▁ולח	-15615
▁ألا	-15616
agger	-15617
wesen	-15618
▁Wert	-15619
▁loop	-15620
▁sala	-15621
▁štud	-15622
▁המקו	-15623
▁banks	-15624
▁genoc	-15625
▁Alcuni	-15626
▁colony	-15627
▁crying	-15628
▁parlar	-15629
▁eravamo	-15630
▁obiettivo	-15631
▁المجتمعات	-15632
▁incentives	-15633
▁innovazione	-15634
▁surveillance	-15635
óm	-15636
ələr	-15637
מינה	-15638
زياء	-15639
ساسا	-15640
▁afr	-15641
▁قطع	-15642
▁للخ	-15643
▁نقل	-15644
elten	-15645
itore	-15646
▁cant	-15647
▁milk	-15648
▁rile	-15649
▁والس	-15650
▁يخبر	-15651
zellen	-15652
▁Prize	-15653
▁abuse	-15654
▁الرسم	-15655
▁Mittel	-15656
▁najlep	-15657
▁robust	-15658
▁bleiben	-15659
▁genauso	-15660
▁parallel	-15661
▁destroyed	-15662
▁industria	-15663
▁practices	-15664
▁esperimento	-15665
MA	-15666
▁«	-15667
ביע	-15668
ברר	-15669
جاب	-15670
▁וט	-15671
ismi	-15672
خرين	-15673
ميات	-15674
▁amm	-15675
▁מכך	-15676
▁ראש	-15677
▁Eric	-15678
▁dosť	-15679
▁הרשת	-15680
▁معنى	-15681
koľvek	-15682
▁output	-15683
▁zweite	-15684
▁הסביבה	-15685
▁מוצאים	-15686
▁intense	-15687
▁generated	-15688
▁relazione	-15689
▁behavioral	-15690
▁communications	-15691
70	-15692
aa	-15693
▁Ž	-15694
bau	-15695
dri	-15696
מוע	-15697
פוי	-15698
iani	-15699
▁190	-15700
▁Boy	-15701
▁Hen	-15702
▁בטח	-15703
▁הכח	-15704
▁מהה	-15705
שירות	-15706
▁hine	-15707
▁בעיר	-15708
▁كمية	-15709
▁والج	-15710
▁يأخذ	-15711
▁חולים	-15712
▁غالبا	-15713
ünstler	-15714
▁worker	-15715
▁Ländern	-15716
▁ambient	-15717
▁traveled	-15718
▁commitment	-15719
▁transparency	-15720
ťa	-15721
ду	-15722
fli	-15723
fun	-15724
ingt	-15725
▁tat	-15726
▁והש	-15727
▁לקח	-15728
▁מתע	-15729
point	-15730
▁Blue	-15731
▁prie	-15732
▁zona	-15733
▁כרגע	-15734
▁advoc	-15735
▁fixed	-15736
▁knock	-15737
▁použí	-15738
▁المرة	-15739
▁مالذي	-15740
▁borrow	-15741
▁rocket	-15742
▁verbess	-15743
▁الكلمات	-15744
▁Familien	-15745
▁suggests	-15746
▁identical	-15747
▁presented	-15748
▁resolution	-15749
خلي	-15750
▁وط	-15751
agos	-15752
ügen	-15753
▁fed	-15754
▁ביו	-15755
zeuge	-15756
▁mice	-15757
▁muse	-15758
▁zach	-15759
▁نطاق	-15760
stehen	-15761
▁aktiv	-15762
▁minus	-15763
▁youth	-15764
▁השראה	-15765
▁חברים	-15766
▁الأهم	-15767
▁لاحقا	-15768
▁scritt	-15769
▁suchen	-15770
▁sugger	-15771
▁triang	-15772
▁للحصول	-15773
▁anderer	-15774
▁combine	-15775
▁العلماء	-15776
▁Africans	-15777
▁customers	-15778
▁disorders	-15779
▁uncomfort	-15780
▁пе	-15781
▁אמא	-15782
gging	-15783
▁boom	-15784
▁mysl	-15785
▁rush	-15786
▁קיים	-15787
▁عظيم	-15788
▁chest	-15789
▁היחיד	-15790
▁أفكار	-15791
▁Virgin	-15792
▁Yorker	-15793
▁agenda	-15794
▁dovete	-15795
▁Beifall	-15796
▁breathe	-15797
▁draußen	-15798
▁solving	-15799
▁sterben	-15800
enschaften	-15801
▁Fähigkeit	-15802
▁velocemente	-15803
ضط	-15804
ظي	-15805
▁١	-15806
יוע	-15807
נתה	-15808
רוך	-15809
حاث	-15810
▁إث	-15811
▁فك	-15812
walk	-15813
▁gri	-15814
▁לוח	-15815
being	-15816
sters	-15817
علمون	-15818
▁jung	-15819
▁mala	-15820
▁škol	-15821
▁בחיי	-15822
▁צורך	-15823
▁لانه	-15824
▁يبدأ	-15825
ournal	-15826
▁liebe	-15827
מוקרטיה	-15828
▁manten	-15829
▁الأسئلة	-15830
▁Verhalten	-15831
▁chiamiamo	-15832
▁standards	-15833
▁journalist	-15834
zm	-15835
פן	-15836
▁П	-15837
can	-15838
לין	-15839
ניח	-15840
ألة	-15841
ängt	-15842
▁alz	-15843
▁giù	-15844
reten	-15845
▁Gore	-15846
▁Phys	-15847
▁Tell	-15848
▁stom	-15849
▁איתו	-15850
▁نظرت	-15851
▁وغير	-15852
▁aufge	-15853
▁epoca	-15854
▁erfol	-15855
▁exped	-15856
▁letzt	-15857
▁היקום	-15858
▁השניה	-15859
▁priest	-15860
▁základ	-15861
▁الحركة	-15862
▁الداخل	-15863
▁الغرفة	-15864
▁Bewegung	-15865
▁famiglie	-15866
kú	-15867
uť	-15868
▁С	-15869
ныя	-15870
пра	-15871
זיר	-15872
otyp	-15873
מישה	-15874
▁חזק	-15875
ading	-15876
flies	-15877
▁argu	-15878
▁hľad	-15879
▁laut	-15880
▁teil	-15881
▁עצמה	-15882
▁يمثل	-15883
ansion	-15884
▁Brook	-15885
▁Never	-15886
▁منتصف	-15887
tamente	-15888
▁oldest	-15889
▁implant	-15890
▁Research	-15891
▁apartment	-15892
▁exhibition	-15893
rof	-15894
▁إش	-15895
atik	-15896
▁Sub	-15897
▁fai	-15898
▁tav	-15899
▁הבה	-15900
▁השק	-15901
▁وست	-15902
apers	-15903
riamo	-15904
▁Turn	-15905
▁מושל	-15906
▁aston	-15907
▁cando	-15908
▁insan	-15909
▁massa	-15910
▁numer	-15911
▁מיוחד	-15912
▁السوق	-15913
▁المائ	-15914
century	-15915
prochen	-15916
▁clouds	-15917
▁fallen	-15918
▁التحكم	-15919
▁حقيقية	-15920
▁Bildung	-15921
▁amongst	-15922
▁scratch	-15923
▁הראשונים	-15924
▁searching	-15925
▁philosophy	-15926
si	-15927
بال	-15928
▁44	-15929
jšie	-15930
olum	-15931
voli	-15932
wich	-15933
واجد	-15934
▁Emp	-15935
▁Tor	-15936
▁Ball	-15937
▁devi	-15938
▁לוקח	-15939
▁السم	-15940
▁نملك	-15941
▁crops	-15942
▁essen	-15943
▁spolu	-15944
▁הולכת	-15945
▁أجهزة	-15946
▁church	-15947
▁Schritt	-15948
▁appears	-15949
▁classic	-15950
▁liberal	-15951
▁obsessed	-15952
▁overcome	-15953
▁telescope	-15954
זב	-15955
ený	-15956
لكة	-15957
▁حك	-15958
▁Ins	-15959
▁LED	-15960
▁Sor	-15961
▁סיי	-15962
▁أوه	-15963
▁خاط	-15964
▁وسط	-15965
▁Move	-15966
▁nast	-15967
▁onde	-15968
▁שבוע	-15969
person	-15970
▁pensa	-15971
▁בתחום	-15972
▁الترك	-15973
▁وجدنا	-15974
▁felice	-15975
▁fisica	-15976
▁propag	-15977
▁גדולות	-15978
▁prescri	-15979
▁università	-15980
▁В	-15981
זרו	-15982
▁رج	-15983
asst	-15984
znam	-15985
▁MRI	-15986
▁pir	-15987
▁shi	-15988
aktor	-15989
worth	-15990
▁plot	-15991
▁الاع	-15992
▁الخب	-15993
▁تقدم	-15994
▁Namen	-15995
▁River	-15996
▁trotz	-15997
ibilità	-15998
▁favore	-15999
▁simili	-16000
▁entrare	-16001
▁fiducia	-16002
▁baseball	-16003
▁erinnern	-16004
▁messaggio	-16005
▁precisely	-16006
▁Technologien	-16007
▁productivity	-16008
diy	-16009
ורג	-16010
ساد	-16011
كين	-16012
▁SW	-16013
▁pô	-16014
יתות	-16015
▁Dad	-16016
▁Squ	-16017
ching	-16018
oxide	-16019
ville	-16020
äsent	-16021
▁Pole	-16022
▁bist	-16023
▁boss	-16024
▁rely	-16025
▁seek	-16026
▁sque	-16027
▁הממו	-16028
▁ואיך	-16029
▁أنكم	-16030
▁הפולי	-16031
▁موضوع	-16032
לוויזיה	-16033
▁Nature	-16034
▁chirur	-16035
▁latest	-16036
▁methods	-16037
▁Minister	-16038
▁الكائنات	-16039
▁condizioni	-16040
▁interactions	-16041
kü	-16042
▁Г	-16043
uct	-16044
מדה	-16045
נלא	-16046
רוג	-16047
ربع	-16048
▁CD	-16049
ابيع	-16050
▁Bib	-16051
▁سان	-16052
oltre	-16053
torej	-16054
▁rifl	-16055
▁اليا	-16056
▁نحصل	-16057
▁نفسك	-16058
▁champ	-16059
▁craft	-16060
▁kreat	-16061
▁pelle	-16062
▁tasks	-16063
▁שצריך	-16064
▁facial	-16065
▁piante	-16066
▁raising	-16067
▁welches	-16068
völkerung	-16069
▁concetto	-16070
▁diabetes	-16071
▁insurance	-16072
▁verbunden	-16073
▁fascinated	-16074
ič	-16075
ىء	-16076
سيس	-16077
▁יס	-16078
▁סו	-16079
▁جل	-16080
gers	-16081
oret	-16082
äuft	-16083
صميم	-16084
▁sne	-16085
▁vib	-16086
▁שרי	-16087
▁سير	-16088
בוטים	-16089
▁Alla	-16090
▁rieš	-16091
▁semi	-16092
וטנציא	-16093
▁aiuto	-16094
▁inser	-16095
▁rocks	-16096
▁segre	-16097
▁yield	-16098
▁באמצע	-16099
▁Profess	-16100
▁libertà	-16101
▁origami	-16102
▁surgeon	-16103
▁wanting	-16104
▁administ	-16105
▁dolphins	-16106
▁paradigm	-16107
▁potreste	-16108
▁prototyp	-16109
▁optimistic	-16110
▁funktionieren	-16111
▁uncomfortable	-16112
ós	-16113
ctu	-16114
נדי	-16115
تني	-16116
osph	-16117
▁Nep	-16118
▁pit	-16119
▁ועם	-16120
▁להז	-16121
▁צבע	-16122
erven	-16123
טיבית	-16124
▁caps	-16125
▁יוצר	-16126
▁قررت	-16127
nejšie	-16128
▁Ebola	-16129
▁Ihren	-16130
▁Adesso	-16131
▁murder	-16132
▁surely	-16133
▁distant	-16134
▁produrre	-16135
▁accessible	-16136
▁expectations	-16137
ונת	-16138
▁RB	-16139
▁Rw	-16140
▁إس	-16141
inta	-16142
▁פסי	-16143
▁ابت	-16144
פונים	-16145
▁Solo	-16146
▁furn	-16147
▁منزل	-16148
▁وجهة	-16149
▁grain	-16150
▁proof	-16151
[...]
