▁t 100
▁a 100
▁, 100
▁. 100
er 100
in 100
▁th 100
en 100
▁s 100
▁w 100
▁d 100
on 100
at 100
▁c 100
re 100
▁& 100
▁the 100
nd 100
▁p 100
▁m 100
▁o 100
os 100
▁i 100
es 100
ot 100
ال 100
an 100
▁b 100
ou 100
qu 100
ch 100
ap 100
▁h 100
ll 100
or 100
▁ال 100
▁f 100
▁l 100
▁in 100
ing 100
it 100
apos 100
▁to 100
ar 100
is 100
▁n 100
quot 100
as 100
▁I 100
ed 100
▁ה 100
▁e 100
▁g 100
▁of 100
om 100
al 100
▁u 100
▁and 100
et 100
▁A 100
ic 100
le 100
▁א 100
ent 100
▁v 100
▁di 100
▁that 100
ut 100
▁y 100
ion 100
▁ל 100
st 100
ve 100
ים 100
▁ש 100
▁מ 100
▁م 100
ro 100
▁S 100
▁you 100
am 100
ere 100
▁wh 100
▁T 100
▁we 100
▁is 100
▁be 100
ות 100
ol 100
se 100
ie 100
he 100
ow 100
▁it 100
▁و 100
ra 100
▁أ 100
▁ב 100
▁re 100
ig 100
▁ل 100
▁st 100
ir 100
▁ha 100
▁k 100
ur 100
ct 100
el 100
▁on 100
▁W 100
il 100
ich 100
all 100
im 100
▁un 100
▁ب 100
ter 100
ay 100
▁an 100
▁And 100
▁، 100
ver 100
▁ف 100
est 100
id 100
au 100
▁this 100
▁se 100
ce 100
un 100
▁ت 100
▁ו 100
▁B 100
نا 100
▁de 100
▁? 100
▁do 100
▁M 100
ld 100
▁qu 100
ke 100
▁for 100
▁— 100
▁was 100
▁כ 100
▁ab 100
te 100
op 100
▁E 100
▁ع 100
▁r 100
▁com 100
▁ne 100
▁ه 100
to 100
נו 100
▁ي 100
▁per 100
▁ע 100
ia 100
ad 100
▁: 100
od 100
▁con 100
▁li 100
▁j 100
▁z 100
▁L 100
ag 100
▁are 100
ly 100
ith 100
ess 100
ان 100
▁D 100
▁al 100
▁) 100
▁( 100
em 100
ני 100
▁N 100
▁che 100
▁all 100
ri 100
▁ك 100
th 100
▁في 100
ally 100
▁so 100
▁י 100
▁have 100
▁me 100
▁with 100
ation 100
▁as 100
us 100
▁pro 100
▁go 100
▁من 100
ci 100
▁Th 100
▁can 100
and 100
▁الم 100
▁they 100
▁של 100
▁P 100
um 100
are 100
ant 100
ind 100
ul 100
ht 100
▁C 100
▁ein 100
ية 100
ול 100
ell 100
▁at 100
end 100
out 100
ات 100
ore 100
▁und 100
ור 100
▁H 100
▁So 100
ill 100
▁ver 100
▁le 100
▁G 100
ust 100
▁wor 100
ist 100
▁what 100
ost 100
▁ch 100
▁את 100
זה 100
▁not 100
ff 100
ould 100
ate 100
▁ن 100
ck 100
▁som 100
▁die 100
▁sp 100
▁ma 100
▁la 100
▁about 100
▁1 100
pl 100
▁ex 100
▁The 100
ها 100
art 100
▁su 100
▁he 100
▁im 100
▁أن 100
▁or 100
og 100
ge 100
ما 100
ون 100
ers 100
▁fr 100
▁my 100
ab 100
gh 100
ذا 100
ight 100
ause 100
ok 100
ית 100
iv 100
▁F 100
ort 100
ass 100
▁إ 100
▁pe 100
▁lo 100
ine 100
لى 100
iz 100
ين 100
▁there 100
▁It 100
▁O 100
ov 100
▁ح 100
▁è 100
ens 100
ure 100
▁U 100
ople 100
li 100
▁us 100
▁sa 100
ity 100
רו 100
▁ח 100
ار 100
لك 100
ive 100
▁one 100
▁people 100
▁sh 100
▁like 100
ach 100
▁from 100
▁R 100
ect 100
▁הי 100
▁We 100
ber 100
ير 100
▁our 100
de 100
▁س 100
▁kn 100
▁pr 100
▁الت 100
ies 100
one 100
▁pre 100
▁il 100
▁ar 100
ink 100
וד 100
▁quest 100
▁לה 100
▁but 100
▁tr 100
her 100
▁الأ 100
▁bec 100
hr 100
amo 100
▁out 100
▁K 100
ear 100
so 100
▁der 100
00 100
▁just 100
▁ق 100
▁לא 100
ول 100
يا 100
ak 100
▁es 100
▁ist 100
▁by 100
ten 100
وا 100
▁ا 100
ib 100
ast 100
בר 100
▁know 100
▁man 100
▁pl 100
▁זה 100
▁But 100
ست 100
cc 100
▁Y 100
ment 100
▁2 100
▁wir 100
ard 100
▁er 100
▁thing 100
ono 100
▁them 100
ung 100
▁המ 100
ier 100
ato 100
תי 100
▁V 100
▁these 100
av 100
az 100
ann 100
ose 100
▁very 100
▁In 100
pp 100
لا 100
be 100
ud 100
▁get 100
ري 100
▁up 100
לי 100
▁think 100
רי 100
▁if 100
די 100
io 100
ound 100
ne 100
uch 100
▁ج 100
را 100
ond 100
▁נ 100
كن 100
▁who 100
▁J 100
icht 100
iamo 100
▁te 100
ain 100
▁הא 100
▁see 100
וא 100
دي 100
▁zu 100
▁das 100
לו 100
▁act 100
▁going 100
▁fa 100
per 100
▁po 100
▁ת 100
▁when 100
▁على 100
▁no 100
▁had 100
▁more 100
▁some 100
ame 100
▁ק 100
▁Wh 100
▁en 100
▁year 100
ime 100
لي 100
וב 100
▁non 100
lich 100
▁because 100
if 100
our 100
ru 100
נה 100
ione 100
▁ever 100
هم 100
▁your 100
▁פ 100
▁ich 100
▁would 100
▁comp 100
▁were 100
▁si 100
ide 100
▁their 100
oss 100
▁מה 100
▁una 100
ous 100
▁how 100
▁♫ 100
reat 100
▁look 100
▁ro 100
itt 100
▁which 100
ale 100
ack 100
ente 100
ans 100
orm 100
▁work 100
▁dell 100
▁want 100
ually 100
▁really 100
ild 100
app 100
מו 100
دا 100
▁על 100
▁come 100
ano 100
שה 100
▁ר 100
ben 100
ence 100
▁الع 100
▁ג 100
hing 100
▁ش 100
nt 100
יו 100
▁inter 100
▁ما 100
ang 100
▁way 100
▁ag 100
ذه 100
▁sc 100
▁imp 100
בי 100
▁has 100
▁world 100
▁ev 100
lo 100
ite 100
ong 100
▁don 100
▁time 100
▁You 100
▁This 100
▁dis 100
che 100
יה 100
augh 100
ti 100
▁will 100
olog 100
מה 100
יות 100
oll 100
▁שה 100
ther 100
▁here 100
▁des 100
ough 100
uf 100
▁then 100
▁den 100
▁وال 100
▁هذا 100
▁dies 100
ions 100
res 100
▁every 100
לה 100
▁عن 100
ice 100
aughter 100
▁am 100
ble 100
▁sch 100
عل 100
נים 100
▁لل 100
▁into 100
▁pi 100
ew 100
ذلك 100
▁שא 100
ور 100
ica 100
▁بال 100
רא 100
ue 100
▁diff 100
▁actually 100
دة 100
▁could 100
▁ad 100
▁الح 100
▁da 100
age 100
ام 100
▁ס 100
▁sie 100
▁ד 100
chen 100
שים 100
▁now 100
ick 100
▁Laughter 100
▁years 100
mer 100
za 100
בל 100
▁bu 100
ign 100
▁where 100
▁Sie 100
ür 100
ni 100
מי 100
▁did 100
وم 100
▁say 100
▁צ 100
ome 100
ון 100
▁other 100
▁also 100
▁part 100
▁كان 100
▁St 100
قد 100
▁things 100
ace 100
ppl 100
▁ra 100
alk 100
pt 100
▁Now 100
▁par 100
ical 100
nen 100
כל 100
ire 100
▁They 100
פי 100
me 100
▁somet 100
▁cont 100
▁אח 100
▁או 100
▁וה 100
ip 100
▁been 100
wo 100
ank 100
▁nicht 100
ater 100
חי 100
▁pers 100
fe 100
▁na 100
▁ان 100
▁cl 100
▁von 100
▁Q 100
▁لا 100
▁ז 100
▁make 100
ati 100
we 100
▁וא 100
▁sol 100
▁gen 100
ft 100
▁any 100
▁need 100
▁del 100
▁tra 100
ry 100
▁sono 100
ile 100
ete 100
▁.. 100
▁happ 100
וק 100
רים 100
▁war 100
▁مع 100
▁dass 100
▁start 100
ata 100
▁אי 100
שי 100
irst 100
sel 100
▁Qu 100
▁אנ 100
נות 100
▁eine 100
▁right 100
cent 100
du 100
▁Und 100
▁over 100
▁Appl 100
ake 100
▁هذه 100
כול 100
ory 100
▁מא 100
▁differ 100
▁her 100
ult 100
▁אני 100
ree 100
ord 100
ount 100
form 100
اب 100
▁Z 100
▁something 100
▁בא 100
▁most 100
▁auf 100
▁الب 100
▁real 100
יי 100
▁those 100
ando 100
▁much 100
▁back 100
▁than 100
no 100
رة 100
قة 100
▁הוא 100
▁said 100
▁call 100
red 100
▁two 100
ett 100
▁الس 100
▁first 100
▁mo 100
▁למ 100
und 100
iss 100
▁res 100
ali 100
gen 100
ac 100
▁new 100
▁ide 100
ple 100
نت 100
act 100
blem 100
▁cos 100
مل 100
ents 100
▁bet 100
▁inc 100
men 100
▁3 100
▁kind 100
مكن 100
den 100
▁ر 100
▁got 100
ittle 100
مي 100
חנו 100
حد 100
▁mit 100
own 100
▁lot 100
ase 100
▁gr 100
▁spe 100
ely 100
▁little 100
hen 100
▁خ 100
▁ke 100
▁Be 100
▁uns 100
▁כל 100
▁più 100
בה 100
▁je 100
▁هو 100
kt 100
▁mod 100
000 100
▁she 100
קו 100
way 100
▁الق 100
▁ge 100
▁That 100
ني 100
enn 100
▁ob 100
able 100
že 100
▁sy 100
ade 100
vel 100
كل 100
▁הת 100
שו 100
▁إلى 100
▁אות 100
عة 100
▁fe 100
▁pot 100
▁التي 100
ep 100
▁under 100
שר 100
▁בע 100
als 100
ations 100
▁במ 100
גי 100
▁אבל 100
▁gra 100
gg 100
ah 100
▁؟ 100
טי 100
▁problem 100
▁ذلك 100
enti 100
ated 100
كم 100
int 100
▁אז 100
ors 100
▁tut 100
▁هنا 100
▁الذ 100
ody 100
aus 100
ern 100
▁even 100
▁; 100
ob 100
▁לע 100
▁life 100
▁only 100
▁hum 100
att 100
▁talk 100
▁pu 100
▁ص 100
▁um 100
▁What 100
▁الج 100
▁كل 100
chn 100
▁his 100
▁dem 100
▁questo 100
סי 100
ys 100
ici 100
▁- 100
ars 100
va 100
▁Le 100
▁gu 100
ert 100
▁He 100
▁day 100
ren 100
▁ent 100
▁ci 100
سا 100
▁הע 100
ves 100
أن 100
ze 100
רה 100
▁take 100
▁sich 100
▁poss 100
get 100
ità 100
كون 100
▁br 100
ght 100
vers 100
▁ph 100
▁Ich 100
oc 100
▁יכול 100
في 100
pe 100
▁many 100
ance 100
▁الن 100
other 100
ik 100
anno 100
rough 100
ish 100
لة 100
wn 100
bl 100
ict 100
כם 100
▁different 100
▁د 100
▁Applause 100
stem 100
ont 100
▁off 100
▁bo 100
▁بع 100
▁around 100
ste 100
בו 100
ene 100
▁della 100
▁Un 100
▁dec 100
ange 100
▁There 100
▁لي 100
▁bra 100
ento 100
▁&# 100
▁&#9 100
ied 100
كث 100
▁does 100
▁ט 100
ותר 100
▁wie 100
▁tak 100
▁20 100
ons 100
ili 100
▁יש 100
▁ط 100
▁good 100
▁لم 100
▁ho 100
▁הש 100
▁הם 100
▁acc 100
▁sind 100
ark 100
▁sm 100
▁through 100
ving 100
ין 100
قي 100
▁let 100
der 100
ائ 100
▁ins 100
عت 100
ioni 100
amente 100
▁down 100
▁mol 100
iel 100
▁comm 100
▁الش 100
▁שי 100
▁الا 100
▁inv 100
ופ 100
▁19 100
▁co 100
▁em 100
▁يمكن 100
lie 100
▁ter 100
▁import 100
urn 100
▁put 100
▁ind 100
ön 100
خر 100
▁find 100
ces 100
▁הח 100
▁av 100
▁5 100
co 100
▁יותר 100
▁car 100
▁app 100
tern 100
ko 100
▁stud 100
xt 100
▁show 100
▁מת 100
▁עם 100
▁הר 100
▁الإ 100
ומ 100
▁haben 100
▁tell 100
ary 100
▁وه 100
اد 100
▁ris 100
ori 100
über 100
▁ed 100
▁pol 100
▁! 100
▁bl 100
▁רו 100
▁hat 100
▁sec 100
ute 100
▁أو 100
biamo 100
▁für 100
▁being 100
azione 100
ho 100
sch 100
מש 100
oro 100
gan 100
mi 100
▁use 100
▁מס 100
ng 100
וג 100
▁same 100
▁10 100
رب 100
▁mi 100
ject 100
▁מע 100
ese 100
سي 100
▁happen 100
ought 100
צי 100
مر 100
ress 100
fr 100
▁soci 100
بر 100
وج 100
▁מי 100
▁לי 100
▁Well 100
▁alt 100
▁sim 100
po 100
ina 100
رف 100
day 100
chnolog 100
▁ess 100
▁Se 100
row 100
▁cap 100
illion 100
▁fin 100
سب 100
שב 100
▁Ch 100
وق 100
לא 100
▁fact 100
▁היא 100
▁percent 100
כו 100
▁count 100
▁Al 100
arn 100
▁att 100
▁الص 100
تي 100
▁far 100
ful 100
rit 100
ma 100
מת 100
▁4 100
▁quell 100
▁aus 100
ico 100
▁may 100
▁cons 100
▁try 100
اء 100
ower 100
بي 100
▁מש 100
▁Es 100
elt 100
▁idea 100
igh 100
ible 100
رك 100
פר 100
▁human 100
▁str 100
▁gi 100
▁big 100
vo 100
ved 100
ise 100
vi 100
▁If 100
con 100
fter 100
orn 100
▁doing 100
▁person 100
▁great 100
▁sur 100
مة 100
▁الط 100
▁med 100
يف 100
tor 100
▁ac 100
ari 100
▁cre 100
▁Ar 100
▁إن 100
▁sci 100
▁coll 100
ual 100
gr 100
حت 100
▁č 100
▁system 100
▁ser 100
▁mus 100
▁الف 100
▁cu 100
▁three 100
▁Ma 100
▁ve 100
▁Das 100
ition 100
▁الخ 100
ahr 100
▁wer 100
ically 100
▁kön 100
▁exper 100
▁cam 100
▁hel 100
▁אנחנו 100
▁... 100
▁child 100
,000 100
fore 100
▁že 100
▁qual 100
يد 100
old 100
▁pres 100
thing 100
▁היה 100
▁Wir 100
▁ask 100
ante 100
▁وا 100
▁called 100
וח 100
▁met 100
ché 100
self 100
غير 100
▁mat 100
▁هي 100
▁rel 100
وع 100
▁well 100
שות 100
▁Sch 100
▁als 100
▁nell 100
▁build 100
▁אם 100
▁الآ 100
stand 100
▁لكن 100
▁rem 100
ics 100
▁über 100
▁again 100
לים 100
צא 100
▁sk 100
hl 100
▁made 100
uto 100
▁nel 100
ven 100
تم 100
ities 100
▁Er 100
ito 100
ism 100
ולם 100
▁own 100
דים 100
רות 100
دما 100
▁هناك 100
קה 100
▁fam 100
▁الذي 100
▁end 100
▁ولك 100
▁produ 100
▁long 100
▁design 100
▁learn 100
ום 100
▁ele 100
enza 100
▁pass 100
cess 100
olo 100
▁technolog 100
▁علي 100
▁creat 100
▁nat 100
imes 100
ting 100
▁ض 100
▁An 100
▁fl 100
ty 100
قا 100
▁bas 100
erg 100
▁Thank 100
▁wom 100
ating 100
ution 100
דר 100
▁الر 100
▁important 100
▁ث 100
יתי 100
▁mak 100
▁after 100
ates 100
מר 100
▁trans 100
pr 100
▁today 100
كان 100
▁vo 100
ta 100
zi 100
דה 100
▁diese 100
▁הז 100
▁ktor 100
עים 100
ברים 100
▁change 100
uj 100
▁ولكن 100
▁should 100
les 100
صل 100
ize 100
ork 100
▁why 100
▁Pro 100
bi 100
▁fat 100
وي 100
מים 100
▁sl 100
▁eff 100
body 100
▁בה 100
▁מו 100
قط 100
▁nost 100
ction 100
▁vis 100
▁turn 100
▁כא 100
כי 100
▁ved 100
ood 100
uc 100
▁أي 100
▁vol 100
▁didn 100
▁min 100
▁vi 100
كر 100
▁dei 100
▁لدي 100
▁exp 100
ath 100
ita 100
▁its 100
בע 100
ých 100
ool 100
bo 100
▁num 100
▁started 100
ود 100
▁inform 100
▁bit 100
▁לח 100
▁cosa 100
▁cor 100
▁cour 100
▁et 100
ph 100
▁exam 100
▁mom 100
▁compl 100
▁fu 100
zione 100
fer 100
▁feel 100
▁era 100
▁last 100
▁cent 100
ien 100
وف 100
▁brain 100
▁thought 100
ily 100
▁cell 100
▁him 100
gli 100
את 100
▁fun 100
▁הזה 100
igen 100
▁understand 100
▁molto 100
▁mean 100
▁Re 100
▁قد 100
▁jed 100
▁الك 100
الم 100
▁שמ 100
▁interest 100
נית 100
כים 100
▁prim 100
▁לש 100
▁art 100
▁might 100
طي 100
ave 100
ular 100
▁rec 100
خت 100
▁200 100
דע 100
▁better 100
▁help 100
▁never 100
▁ext 100
من 100
ura 100
كثر 100
▁before 100
▁שלי 100
▁det 100
▁Quest 100
ility 100
gether 100
▁אתם 100
عا 100
▁dur 100
▁speci 100
ists 100
ero 100
▁hand 100
▁gli 100
▁mon 100
▁הג 100
با 100
▁einen 100
▁Ge 100
zen 100
esch 100
▁went 100
conom 100
וי 100
▁dire 100
▁second 100
▁כמו 100
▁pri 100
▁story 100
▁vie 100
▁op 100
▁Amer 100
בים 100
▁questa 100
▁הה 100
▁wenn 100
▁together 100
▁לפ 100
▁delle 100
▁able 100
▁abbiamo 100
▁מח 100
ini 100
▁belie 100
بل 100
▁few 100
▁el 100
▁نح 100
▁point 100
▁ih 100
فس 100
▁وأ 100
▁another 100
אות 100
▁still 100
esso 100
▁form 100
رض 100
▁play 100
ane 100
מן 100
▁pos 100
▁הפ 100
ug 100
▁נו 100
▁vor 100
▁commun 100
عد 100
خص 100
שת 100
▁6 100
▁tri 100
▁course 100
▁bi 100
شر 100
▁give 100
▁int 100
▁النا 100
אים 100
▁col 100
▁مث 100
fl 100
▁wr 100
▁הק 100
▁found 100
lt 100
▁können 100
mente 100
▁power 100
▁Non 100
uro 100
לק 100
▁partic 100
▁comput 100
▁econom 100
تح 100
▁חו 100
▁best 100
▁nie 100
▁gener 100
gn 100
br 100
ced 100
سم 100
ca 100
▁cr 100
▁ago 100
▁loro 100
▁prot 100
▁כך 100
▁cui 100
alth 100
▁שלנו 100
נס 100
▁organ 100
بد 100
▁הד 100
▁imag 100
its 100
▁live 100
▁sem 100
▁sort 100
ger 100
מות 100
▁حي 100
▁cost 100
▁شي 100
▁water 100
يل 100
▁לנו 100
▁pens 100
▁בש 100
צה 100
rem 100
ited 100
velop 100
נט 100
▁tem 100
▁came 100
שהו 100
▁Ind 100
oth 100
inn 100
▁beg 100
▁reg 100
ings 100
▁anni 100
כת 100
▁next 100
▁perché 100
נת 100
▁alle 100
▁high 100
▁זו 100
ins 100
osa 100
▁werden 100
lle 100
▁essere 100
▁ako 100
▁place 100
▁fare 100
up 100
ora 100
▁וב 100
▁uni 100
▁kid 100
▁mag 100
▁Per 100
▁La 100
anet 100
▁school 100
▁הב 100
▁אחד 100
▁ול 100
ines 100
▁old 100
▁لأن 100
arch 100
▁As 100
▁הס 100
▁used 100
endo 100
▁alla 100
▁sign 100
wer 100
▁que 100
▁רק 100
lob 100
ungen 100
כן 100
iert 100
▁When 100
▁each 100
▁sel 100
na 100
▁سي 100
que 100
▁technology 100
▁beh 100
▁Te 100
aut 100
▁oder 100
ורה 100
▁مت 100
▁gl 100
ward 100
▁בת 100
▁כדי 100
▁vy 100
read 100
▁كانت 100
▁question 100
ola 100
▁عندما 100
ational 100
▁How 100
▁Afr 100
ige 100
اج 100
▁mov 100
مت 100
cht 100
rov 100
قت 100
▁develop 100
▁الآن 100
▁persone 100
ween 100
▁– 100
قل 100
▁تص 100
حي 100
▁בי 100
▁men 100
▁grand 100
רת 100
כש 100
ative 100
▁לב 100
ized 100
▁pa 100
▁יכולים 100
وت 100
cy 100
▁9 100
▁anim 100
▁sag 100
▁تع 100
ures 100
▁between 100
לות 100
▁sein 100
▁small 100
▁anche 100
bab 100
ondo 100
▁too 100
▁data 100
vent 100
1; 100
▁&#91; 100
▁nur 100
▁imm 100
3; 100
▁&#93; 100
▁example 100
▁Die 100
▁contro 100
ضا 100
▁All 100
قوم 100
وب 100
▁fut 100
ific 100
اص 100
aph 100
ודה 100
▁כי 100
cept 100
ways 100
ala 100
ience 100
ky 100
▁stor 100
indi 100
▁להיות 100
▁inst 100
▁resp 100
▁chi 100
zt 100
▁dar 100
▁kann 100
ظر 100
▁expl 100
ieren 100
mo 100
شكل 100
iter 100
▁تلك 100
▁No 100
▁إذا 100
حدث 100
▁Ver 100
▁grow 100
لف 100
ital 100
▁الد 100
▁كنت 100
יים 100
▁آ 100
▁gover 100
izz 100
▁مج 100
דו 100
▁quando 100
▁aut 100
▁hanno 100
בור 100
▁Aber 100
ať 100
▁7 100
▁15 100
▁auch 100
reb 100
▁succ 100
حك 100
▁love 100
חוק 100
ät 100
▁לק 100
▁dist 100
▁Bec 100
▁אנשים 100
עות 100
▁care 100
▁يت 100
▁aber 100
itu 100
▁done 100
▁Because 100
äch 100
▁women 100
▁doll 100
פה 100
▁cer 100
▁einer 100
▁Mens 100
raz 100
▁rep 100
פו 100
ستخ 100
ek 100
▁يع 100
▁lar 100
▁solo 100
la 100
▁ass 100
יתה 100
ness 100
▁energ 100
▁30 100
▁doesn 100
ino 100
iness 100
▁8 100
▁looking 100
ياء 100
עי 100
רג 100
▁process 100
ense 100
ural 100
▁chang 100
דול 100
שוב 100
▁hier 100
▁100 100
مو 100
gram 100
ets 100
ds 100
▁four 100
▁nach 100
ss 100
▁ste 100
▁sub 100
▁سن 100
ideo 100
hn 100
▁بد 100
▁wanted 100
▁50 100
ands 100
▁צרי 100
ED 100
▁einem 100
▁aff 100
ibt 100
ope 100
حة 100
نات 100
ron 100
ott 100
▁read 100
di 100
▁away 100
▁Or 100
atch 100
▁children 100
▁est 100
▁probab 100
iti 100
riend 100
änd 100
▁mil 100
ret 100
led 100
▁così 100
▁glob 100
▁move 100
▁وب 100
▁pop 100
▁sehr 100
▁wird 100
▁light 100
▁hard 100
né 100
▁الناس 100
▁New 100
▁etw 100
▁always 100
▁وت 100
selves 100
▁به 100
oto 100
ian 100
בות 100
חו 100
▁אנו 100
▁polit 100
علم 100
oney 100
▁less 100
cer 100
▁rob 100
pport 100
▁sing 100
▁גם 100
▁reas 100
▁million 100
isch 100
▁pred 100
▁whole 100
▁לת 100
▁Sp 100
▁sme 100
▁جدا 100
▁trying 100
▁prop 100
▁bus 100
ub 100
▁giv 100
▁עו 100
▁test 100
▁hal 100
كت 100
▁lav 100
▁أكثر 100
רח 100
rib 100
▁mal 100
ולי 100
حا 100
ischen 100
▁غ 100
ken 100
אי 100
פת 100
▁الي 100
▁أع 100
▁أنه 100
▁prof 100
ider 100
▁believe 100
▁Il 100
ries 100
▁health 100
▁cas 100
▁ná 100
▁فقط 100
ments 100
▁Ris 100
▁Ab 100
עה 100
لم 100
נשים 100
▁Menschen 100
▁lead 100
ruct 100
ric 100
▁My 100
הם 100
▁tutti 100
▁mondo 100
▁working 100
▁country 100
▁Ne 100
▁بعض 100
עשה 100
▁dall 100
סט 100
uff 100
ורים 100
חת 100
▁ומ 100
hal 100
ück 100
קר 100
▁fig 100
▁using 100
بة 100
nect 100
▁טוב 100
ps 100
כה 100
الي 100
ende 100
cun 100
▁לכם 100
hip 100
▁project 100
فعل 100
ats 100
▁mein 100
▁od 100
arth 100
▁يج 100
חות 100
רך 100
فا 100
▁val 100
▁לעשות 100
▁information 100
▁govern 100
▁العالم 100
ím 100
כשיו 100
ather 100
دم 100
vol 100
▁pict 100
▁tutto 100
aft 100
▁ric 100
▁fil 100
▁quello 100
▁modo 100
▁friend 100
ican 100
eme 100
▁dann 100
▁ضحك 100
▁יוד 100
▁الى 100
▁bring 100
▁TED 100
رت 100
▁cur 100
سة 100
▁לג 100
ote 100
▁nu 100
▁book 100
قول 100
▁means 100
▁mich 100
ters 100
▁contin 100
yp 100
▁cir 100
▁compan 100
▁עצ 100
ým 100
נחנו 100
▁everything 100
خل 100
eren 100
▁space 100
▁def 100
▁kom 100
▁run 100
▁צחוק 100
▁set 100
▁gibt 100
nov 100
▁تح 100
iten 100
קים 100
ggi 100
ראה 100
▁eng 100
gi 100
▁took 100
▁For 100
شا 100
▁كيف 100
▁create 100
ape 100
عتقد 100
▁ans 100
▁thinking 100
ues 100
▁הרבה 100
▁لقد 100
ms 100
ör 100
عي 100
▁dav 100
ivid 100
▁ليس 100
▁money 100
▁open 100
▁leg 100
▁One 100
▁הצ 100
يرة 100
▁mind 100
▁fatto 100
▁wur 100
וכ 100
ريد 100
ract 100
ateri 100
▁publ 100
▁Africa 100
▁Is 100
erv 100
▁sú 100
▁She 100
▁تت 100
جل 100
erm 100
يت 100
▁maybe 100
חד 100
ראות 100
isten 100
▁cou 100
eng 100
uss 100
▁Man 100
▁fac 100
tell 100
▁become 100
ورة 100
▁future 100
anz 100
▁home 100
▁Jahr 100
▁dri 100
verse 100
ogr 100
▁mir 100
קום 100
▁food 100
▁societ 100
▁planet 100
▁لن 100
▁computer 100
שא 100
▁social 100
▁cle 100
▁lang 100
▁מאוד 100
▁number 100
▁الث 100
anti 100
▁Ih 100
par 100
תם 100
oy 100
ouse 100
▁ment 100
на 100
▁kids 100
קי 100
▁שע 100
▁enough 100
kay 100
▁left 100
▁cose 100
▁lu 100
▁parte 100
▁add 100
▁مثل 100
▁Applaus 100
ices 100
▁mach 100
▁וזה 100
وس 100
▁Let 100
▁نحن 100
▁Ze 100
▁š 100
▁bis 100
▁These 100
طيع 100
▁five 100
זי 100
▁program 100
iste 100
▁Me 100
ember 100
▁grou 100
▁mark 100
here 100
▁cult 100
▁head 100
▁היו 100
▁month 100
▁כמה 100
cover 100
▁nella 100
▁ست 100
arly 100
خرى 100
طة 100
bra 100
▁walk 100
▁hist 100
▁pret 100
▁شيء 100
iare 100
ستطيع 100
ka 100
most 100
▁עלי 100
▁أنا 100
▁quite 100
rop 100
صب 100
▁זאת 100
▁noch 100
كثير 100
וך 100
▁Mus 100
▁happened 100
▁getting 100
ارة 100
▁עכשיו 100
▁etwas 100
▁interesting 100
▁pie 100
irl 100
aps 100
▁ale 100
▁חושב 100
onder 100
▁sent 100
▁שנ 100
chi 100
til 100
▁dep 100
▁لت 100
anto 100
▁making 100
גל 100
▁comes 100
▁elect 100
▁sehen 100
▁حس 100
ross 100
▁ai 100
ديد 100
فض 100
شياء 100
▁dre 100
דם 100
▁وج 100
▁sense 100
▁Risate 100
▁بعد 100
▁body 100
sten 100
▁Intern 100
▁teach 100
iche 100
▁vers 100
▁times 100
▁dom 100
reen 100
▁connect 100
▁להת 100
▁stand 100
lla 100
ivo 100
رق 100
تى 100
▁without 100
ilt 100
uge 100
▁rest 100
azioni 100
▁הנ 100
▁qui 100
▁אמ 100
ail 100
bor 100
▁% 100
vir 100
▁moment 100
aces 100
els 100
▁habe 100
rie 100
▁خل 100
▁וכ 100
▁inf 100
▁كما 100
▁phys 100
▁due 100
▁čo 100
rá 100
▁uno 100
▁energy 100
▁tre 100
▁sens 100
▁وي 100
▁bir 100
gni 100
▁بين 100
در 100
▁די 100
▁incred 100
▁educ 100
ertain 100
▁בס 100
▁Welt 100
▁סי 100
▁scient 100
▁Fr 100
▁global 100
هر 100
pre 100
▁probably 100
jú 100
قع 100
▁אותו 100
▁fore 100
▁Ein 100
▁bre 100
▁Do 100
▁equ 100
▁room 100
zz 100
▁seem 100
▁dieser 100
▁questi 100
▁ľ 100
▁talking 100
ər 100
▁Here 100
▁שזה 100
ately 100
▁ž 100
▁queste 100
▁ihr 100
ün 100
▁countries 100
▁stop 100
▁lives 100
ai 100
▁אפ 100
▁complet 100
▁cho 100
ole 100
▁beaut 100
▁gro 100
יותר 100
▁mehr 100
▁young 100
وات 100
עת 100
טים 100
▁such 100
▁تم 100
▁dise 100
ying 100
▁בכל 100
▁building 100
ريقة 100
▁told 100
amb 100
ра 100
▁ول 100
▁noi 100
▁job 100
▁cond 100
ضع 100
▁half 100
عم 100
viron 100
▁dr 100
ious 100
▁evol 100
▁п 100
▁keep 100
▁Was 100
▁sv 100
▁across 100
▁מק 100
▁sound 100
▁stuff 100
kl 100
ريق 100
إن 100
צו 100
▁zur 100
▁coming 100
▁loc 100
▁אל 100
▁♪ 100
▁pretty 100
▁כפי 100
▁mio 100
פור 100
▁port 100
anza 100
lly 100
▁business 100
▁Why 100
▁prima 100
חה 100
▁Pr 100
▁blo 100
▁È 100
iger 100
▁week 100
▁sia 100
▁diffic 100
fen 100
lex 100
▁durch 100
kom 100
▁tu 100
ku 100
▁case 100
▁ני 100
ische 100
▁stato 100
ince 100
▁שאני 100
ami 100
▁الوا 100
ellen 100
▁wonder 100
▁حتى 100
▁dollars 100
▁super 100
▁הט 100
▁يكون 100
رد 100
▁בו 100
▁mot 100
▁حيث 100
▁حول 100
▁Quindi 100
etto 100
▁side 100
▁reason 100
▁anything 100
كي 100
▁family 100
▁simple 100
▁prov 100
▁mor 100
▁materi 100
▁environ 100
je 100
▁rese 100
osti 100
▁allow 100
ogli 100
▁via 100
ner 100
▁איך 100
land 100
ether 100
▁top 100
▁الغ 100
iment 100
▁saw 100
▁تج 100
▁veľ 100
▁40 100
▁ثم 100
▁جمي 100
▁bene 100
oli 100
▁eas 100
וף 100
▁Earth 100
▁שלו 100
▁hope 100
work 100
ective 100
lichen 100
▁ذ 100
طف 100
▁dev 100
יא 100
▁tun 100
▁ואני 100
▁Internet 100
ئة 100
rat 100
▁בח 100
ani 100
▁است 100
▁הרא 100
rag 100
▁ز 100
▁else 100
▁viel 100
צר 100
ided 100
▁لأ 100
ever 100
▁dru 100
liche 100
▁makes 100
▁line 100
יון 100
▁ey 100
▁share 100
▁living 100
▁possib 100
▁conc 100
ער 100
▁الو 100
بع 100
يات 100
llo 100
▁ways 100
▁mia 100
▁vir 100
▁At 100
▁mem 100
▁Wenn 100
▁individ 100
▁Questo 100
▁ave 100
▁particular 100
▁וי 100
▁vita 100
▁experience 100
▁12 100
قيقة 100
▁Dies 100
▁invest 100
gest 100
▁science 100
imo 100
לת 100
ots 100
inci 100
▁stra 100
▁האלה 100
ny 100
▁face 100
▁asked 100
ional 100
▁قبل 100
▁שב 100
ograph 100
▁To 100
▁pun 100
▁dove 100
▁having 100
▁שו 100
▁משהו 100
بت 100
▁seen 100
amento 100
ization 100
▁mig 100
فت 100
فة 100
راء 100
▁billion 100
כות 100
etzt 100
asc 100
▁شخص 100
▁days 100
▁air 100
▁picture 100
▁research 100
▁norm 100
▁לד 100
▁הל 100
▁bad 100
▁video 100
▁بأن 100
צים 100
▁וע 100
keit 100
▁later 100
لت 100
iť 100
▁happens 100
אה 100
omet 100
gu 100
ede 100
rav 100
▁له 100
▁ون 100
▁dam 100
▁remember 100
مع 100
ants 100
▁هل 100
▁id 100
▁mar 100
ulation 100
▁thous 100
▁amaz 100
▁ממש 100
▁pat 100
▁الل 100
use 100
ined 100
▁18 100
▁שהם 100
ana 100
amm 100
ha 100
▁hour 100
inge 100
▁لذا 100
where 100
▁kon 100
▁char 100
عب 100
ule 100
▁says 100
▁answer 100
ird 100
▁Fra 100
ava 100
less 100
▁anc 100
ior 100
▁almost 100
▁single 100
سبة 100
▁za 100
iva 100
▁نفس 100
▁בר 100
▁goes 100
هد 100
▁inside 100
▁mö 100
▁public 100
▁mess 100
▁מב 100
▁York 100
fach 100
ament 100
▁pod 100
رائ 100
خذ 100
heit 100
▁colle 100
▁ri 100
▁מפ 100
▁bei 100
▁city 100
▁self 100
▁حسنا 100
▁while 100
▁oce 100
▁المت 100
▁environment 100
שוט 100
▁hund 100
▁cells 100
ready 100
▁’ 100
era 100
ove 100
▁abs 100
▁level 100
▁הכ 100
bers 100
itive 100
▁exc 100
▁six 100
very 100
▁اليوم 100
▁ממ 100
▁chall 100
aten 100
ám 100
▁وهذا 100
פים 100
aff 100
▁discover 100
▁Oh 100
▁cal 100
▁mic 100
amp 100
اني 100
▁כאן 100
▁خلال 100
▁Im 100
▁غير 100
▁hear 100
▁pain 100
▁بت 100
klich 100
▁vš 100
cco 100
رج 100
lar 100
▁אתה 100
▁ult 100
▁חי 100
▁fre 100
▁zum 100
▁לו 100
▁دا 100
▁dal 100
▁wurde 100
▁Com 100
▁nothing 100
▁Euro 100
▁הזו 100
▁possible 100
▁Go 100
▁كب 100
▁net 100
▁matter 100
▁الكثير 100
▁problems 100
▁ogni 100
▁watch 100
חים 100
▁often 100
▁iniz 100
imm 100
لب 100
▁amazing 100
▁yet 100
▁ant 100
▁מחי 100
▁sure 100
▁certain 100
▁שם 100
▁può 100
▁girl 100
▁pati 100
▁sal 100
נג 100
ungs 100
▁unsere 100
NA 100
זו 100
utt 100
▁tempo 100
acht 100
▁ot 100
▁qualc 100
ury 100
issen 100
▁already 100
▁Also 100
vis 100
▁ciò 100
▁שאנחנו 100
▁mü 100
ages 100
та 100
يم 100
ield 100
▁wo 100
ering 100
▁יו 100
line 100
ähr 100
▁אותם 100
▁Ihnen 100
▁myself 100
▁langu 100
osp 100
رون 100
▁25 100
▁mô 100
▁both 100
▁מכ 100
▁oper 100
stead 100
دام 100
▁פע 100
enden 100
ument 100
▁speak 100
▁sw 100
▁community 100
▁decis 100
▁On 100
▁arri 100
צור 100
lia 100
▁whether 100
ash 100
▁שיש 100
▁tom 100
▁Zeit 100
▁government 100
▁wür 100
▁months 100
▁product 100
▁ideas 100
ensch 100
▁success 100
osed 100
يام 100
▁لذلك 100
▁treat 100
▁חד 100
ously 100
oi 100
▁beautif 100
▁exact 100
▁שלהם 100
▁arch 100
▁mass 100
יר 100
▁clim 100
▁ľud 100
▁ú 100
▁someone 100
▁לראות 100
man 100
▁ואז 100
▁roz 100
da 100
▁wrong 100
▁state 100
▁saying 100
▁foll 100
اري 100
▁looked 100
▁qualcosa 100
▁تق 100
▁incre 100
▁dov 100
כנו 100
טו 100
cn 100
▁zwe 100
▁לפני 100
▁De 100
وك 100
▁groß 100
cle 100
▁sul 100
▁fund 100
▁order 100
▁ביותר 100
▁למעשה 100
vano 100
▁history 100
▁biolog 100
▁mid 100
▁ak 100
side 100
▁serv 100
▁India 100
▁America 100
▁disc 100
سر 100
ختلف 100
▁tip 100
אר 100
▁exist 100
▁imagine 100
anc 100
דות 100
ator 100
▁דבר 100
▁cred 100
▁control 100
▁class 100
▁indust 100
▁יודעים 100
▁news 100
▁once 100
dle 100
▁وع 100
▁lie 100
▁באמת 100
▁Gel 100
▁machen 100
▁heart 100
▁prí 100
▁Kind 100
osť 100
▁immer 100
ogn 100
▁einfach 100
▁שהוא 100
فك 100
▁تكون 100
eln 100
وية 100
▁اله 100
▁within 100
▁hundred 100
▁looks 100
ident 100
طا 100
جا 100
▁ktoré 100
ارات 100
فضل 100
▁الوق 100
טה 100
▁phot 100
oot 100
▁stre 100
▁لدينا 100
pportun 100
▁wirklich 100
▁Okay 100
▁basically 100
ks 100
▁age 100
▁الان 100
כון 100
▁Ho 100
▁result 100
iting 100
iet 100
▁כש 100
iny 100
cial 100
▁أيضا 100
ware 100
▁intell 100
▁United 100
chte 100
▁heard 100
▁altro 100
ياة 100
▁land 100
או 100
▁siamo 100
fü 100
▁group 100
▁opportun 100
▁innov 100
zion 100
▁iss 100
▁גדול 100
by 100
فيق 100
الة 100
▁works 100
▁Lo 100
صة 100
▁é 100
▁night 100
ode 100
▁مست 100
פות 100
▁nuov 100
▁const 100
رى 100
ניים 100
▁poi 100
▁words 100
sy 100
ئي 100
▁عام 100
تما 100
▁לס 100
acter 100
▁beautiful 100
▁dig 100
▁60 100
▁mill 100
חר 100
bar 100
utes 100
▁kill 100
ка 100
▁occ 100
▁rad 100
▁يجب 100
▁entire 100
גיע 100
min 100
▁ze 100
▁Gesch 100
vor 100
▁להם 100
▁بشكل 100
▁الذين 100
▁trad 100
▁لو 100
ən 100
زي 100
▁ret 100
▁friends 100
ál 100
uen 100
ва 100
▁rag 100
ón 100
ral 100
bst 100
לתי 100
bs 100
▁music 100
▁interess 100
aster 100
▁pic 100
▁spend 100
ivity 100
ופן 100
▁تصفيق 100
ush 100
▁כפיים 100
▁true 100
▁piece 100
▁figure 100
kov 100
ניות 100
▁pay 100
ected 100
▁past 100
▁با 100
▁meine 100
▁أم 100
▁lim 100
▁מצ 100
ضي 100
oved 100
gs 100
▁tro 100
ינו 100
▁wasn 100
▁dra 100
▁ident 100
▁model 100
▁trov 100
▁built 100
ler 100
▁פשוט 100
fort 100
not 100
▁má 100
plic 100
▁guy 100
ند 100
▁places 100
סים 100
▁film 100
▁نت 100
▁בק 100
▁عمل 100
דרך 100
▁بح 100
▁مد 100
etic 100
▁מחיאות 100
סת 100
achen 100
▁follow 100
▁ur 100
▁Art 100
▁الواقع 100
ired 100
▁asp 100
▁weil 100
▁צריכים 100
▁writ 100
vero 100
čn 100
▁Can 100
aper 100
▁guard 100
▁io 100
▁mai 100
▁aver 100
▁must 100
▁OK 100
▁רוצה 100
elle 100
▁سوف 100
פילו 100
assen 100
▁tool 100
היה 100
com 100
▁until 100
ناء 100
uck 100
▁species 100
كا 100
mal 100
outh 100
▁priv 100
▁dest 100
ling 100
▁isn 100
▁law 100
▁דברים 100
do 100
▁caus 100
▁بها 100
ieder 100
מוד 100
etti 100
cul 100
▁decided 100
▁learned 100
aria 100
▁בכ 100
▁market 100
eah 100
▁appro 100
▁Si 100
▁Every 100
▁fall 100
▁woll 100
▁gior 100
agg 100
▁קט 100
▁object 100
▁المج 100
▁comun 100
▁Je 100
ential 100
▁כמ 100
▁became 100
▁couple 100
▁11 100
▁tele 100
▁though 100
ror 100
▁עד 100
inen 100
سل 100
▁degli 100
▁sta 100
▁supp 100
ima 100
▁cancer 100
مج 100
▁201 100
▁soll 100
▁לכ 100
▁vedere 100
▁grande 100
▁incl 100
▁الأمر 100
ones 100
▁nature 100
ثير 100
▁completely 100
▁Tak 100
▁بإ 100
▁ancora 100
▁האם 100
ality 100
▁front 100
fic 100
▁va 100
▁DNA 100
רט 100
▁dieses 100
בת 100
cch 100
▁المن 100
▁States 100
ولة 100
▁מר 100
▁struct 100
▁education 100
ולה 100
▁behav 100
▁Pl 100
▁present 100
▁أحد 100
غي 100
▁happening 100
وة 100
رات 100
▁anal 100
enge 100
▁הסי 100
▁tot 100
▁unser 100
tà 100
▁kle 100
▁quel 100
▁quick 100
▁language 100
▁knew 100
▁أخرى 100
▁с 100
▁stat 100
▁الأم 100
▁keď 100
▁Chr 100
▁hatte 100
▁team 100
▁היתה 100
▁large 100
ared 100
▁parl 100
rebbe 100
ثة 100
por 100
▁אחת 100
▁itself 100
▁ora 100
ama 100
صف 100
▁ce 100
זור 100
▁تن 100
▁stories 100
oso 100
▁ges 100
ender 100
▁study 100
▁bin 100
edi 100
ته 100
ولا 100
▁sulla 100
▁taking 100
esi 100
▁alcun 100
▁since 100
uje 100
טר 100
▁woman 100
▁exactly 100
▁مح 100
▁neur 100
versity 100
nej 100
ames 100
ives 100
▁חיי 100
▁society 100
▁viol 100
וה 100
hmen 100
▁ir 100
▁ref 100
▁intern 100
▁ben 100
▁network 100
▁שלא 100
نية 100
▁الوقت 100
▁mer 100
▁universe 100
חיים 100
وض 100
cie 100
▁فإن 100
nte 100
▁media 100
▁against 100
▁بدأ 100
▁immag 100
ista 100
انية 100
▁consider 100
▁questions 100
▁فعل 100
▁animals 100
▁conf 100
كرة 100
▁robot 100
asi 100
schaft 100
▁Pe 100
▁view 100
▁aby 100
▁unter 100
▁engine 100
בד 100
לוג 100
▁بأ 100
go 100
▁desc 100
عر 100
▁disease 100
▁Ci 100
mat 100
▁perf 100
▁miss 100
bre 100
▁quella 100
▁Am 100
▁natural 100
ordin 100
▁meas 100
▁themselves 100
▁word 100
iß 100
יום 100
ستخدام 100
ssen 100
inc 100
▁Af 100
נק 100
▁bamb 100
▁CA 100
▁kinds 100
anda 100
▁ourselves 100
▁העולם 100
▁أس 100
▁gut 100
▁tecn 100
▁Ges 100
ished 100
▁הן 100
▁פי 100
sk 100
▁keine 100
▁company 100
▁gets 100
▁house 100
▁رب 100
▁red 100
צת 100
▁Bl 100
omen 100
alt 100
ock 100
▁מג 100
zioni 100
▁ones 100
▁propri 100
inning 100
ppo 100
▁everybody 100
▁bar 100
istic 100
ption 100
▁foc 100
▁نوع 100
▁العمل 100
▁siste 100
سية 100
▁mother 100
▁وقد 100
شخ 100
▁з 100
▁name 100
לט 100
▁Sh 100
▁sex 100
רון 100
▁recent 100
tem 100
▁bro 100
▁Pot 100
▁أح 100
بدو 100
▁חלק 100
urs 100
▁ihre 100
▁Not 100
▁huge 100
מצא 100
▁sometimes 100
▁Br 100
thers 100
▁وفي 100
▁80 100
▁black 100
ujú 100
▁nostro 100
haps 100
▁diesem 100
▁sempre 100
جه 100
فع 100
نع 100
▁حد 100
▁היום 100
▁risp 100
pi 100
imento 100
▁הול 100
▁אומר 100
▁along 100
▁possiamo 100
▁wa 100
▁created 100
▁واحد 100
▁couldn 100
▁complex 100
ateg 100
▁Applausi 100
▁relations 100
▁Ed 100
itting 100
ctor 100
▁בין 100
وجد 100
▁Vor 100
▁müssen 100
ts 100
osc 100
ario 100
▁liter 100
▁invent 100
är 100
▁divent 100
▁שנים 100
لق 100
▁Jo 100
▁Leute 100
▁difficult 100
▁China 100
▁gente 100
verso 100
קט 100
face 100
▁ill 100
olut 100
ature 100
ستخدم 100
▁הייתי 100
▁worked 100
▁rather 100
▁area 100
صول 100
▁os 100
van 100
▁zá 100
▁situ 100
نة 100
▁meet 100
▁prog 100
hod 100
ply 100
▁בפ 100
pa 100
ony 100
▁הכל 100
bbe 100
שמ 100
عات 100
▁bott 100
▁deal 100
▁fast 100
▁aud 100
af 100
▁everyone 100
▁fi 100
▁שת 100
גע 100
▁wind 100
▁davvero 100
ister 100
SA 100
▁vari 100
nam 100
omes 100
▁thousands 100
ba 100
عية 100
▁son 100
▁waren 100
▁بل 100
▁للت 100
▁fly 100
abor 100
▁voi 100
▁Eng 100
agn 100
▁vost 100
صبح 100
▁všet 100
ystem 100
almente 100
▁fine 100
▁בב 100
pro 100
▁comb 100
وى 100
ides 100
▁sym 100
▁أت 100
▁بالن 100
▁199 100
ظام 100
طفال 100
▁בני 100
▁hours 100
▁مختلف 100
حظ 100
▁democ 100
וז 100
arm 100
rei 100
▁extra 100
▁archit 100
▁lavoro 100
▁Some 100
▁المد 100
בין 100
▁עבור 100
▁others 100
לדים 100
beit 100
▁דרך 100
▁diesen 100
zza 100
▁turns 100
▁deep 100
▁least 100
isp 100
▁بم 100
▁وم 100
▁typ 100
▁instead 100
▁חבר 100
▁Fl 100
▁אולי 100
▁ماذا 100
▁Leben 100
▁continu 100
▁field 100
ць 100
ello 100
▁God 100
▁dalla 100
▁Then 100
▁pick 100
▁hold 100
▁آخر 100
▁scop 100
▁האי 100
put 100
fu 100
imi 100
ster 100
▁bud 100
▁لما 100
▁volta 100
▁Europe 100
حتاج 100
resent 100
▁free 100
ump 100
▁בצ 100
▁אלה 100
▁Dinge 100
ement 100
vie 100
▁incredib 100
▁ידי 100
ונים 100
▁consum 100
▁מדי 100
▁amount 100
▁м 100
rund 100
▁ومن 100
▁viele 100
▁المست 100
▁du 100
ax 100
▁Jahren 100
▁Uni 100
▁Sono 100
▁death 100
▁אין 100
ences 100
ena 100
ركة 100
▁medic 100
glich 100
▁circ 100
utions 100
▁focus 100
▁nostra 100
▁students 100
eter 100
▁سأ 100
▁dopo 100
▁systems 100
فل 100
▁somebody 100
ples 100
▁Her 100
bt 100
▁inse 100
▁defin 100
▁record 100
▁מד 100
▁sil 100
▁appl 100
شخاص 100
▁الز 100
▁Ent 100
wards 100
▁gave 100
الية 100
▁changed 100
גלל 100
▁الأشياء 100
▁abb 100
בודה 100
ination 100
▁access 100
בוד 100
▁כן 100
▁orig 100
unque 100
▁وهو 100
▁respons 100
נד 100
erson 100
▁acqu 100
▁post 100
حدة 100
▁Ora 100
▁outside 100
▁communic 100
až 100
▁תודה 100
▁ger 100
▁vý 100
ges 100
▁لكم 100
▁وك 100
▁civ 100
▁step 100
▁Ph 100
▁esem 100
▁האח 100
▁בט 100
جة 100
▁learning 100
بدأ 100
▁lik 100
קות 100
▁ين 100
port 100
גר 100
ذي 100
ither 100
منا 100
▁lots 100
▁intellig 100
امل 100
ried 100
▁taken 100
▁andere 100
pio 100
▁bab 100
zie 100
▁jour 100
▁machine 100
oglio 100
ney 100
ينة 100
▁sagen 100
▁won 100
▁mole 100
מד 100
▁erano 100
ects 100
▁obs 100
▁listen 100
auf 100
▁chem 100
▁oh 100
inal 100
▁רואים 100
▁middle 100
volution 100
▁sat 100
סף 100
bero 100
▁cut 100
50 100
▁eines 100
הי 100
▁وق 100
ased 100
▁press 100
▁American 100
▁relig 100
▁אך 100
▁star 100
▁relationship 100
ורי 100
▁altri 100
▁jetzt 100
سبب 100
لام 100
gt 100
▁zwei 100
▁gew 100
▁early 100
▁Ste 100
▁ast 100
▁quanto 100
unden 100
▁culture 100
▁picc 100
▁support 100
▁وكان 100
▁Questa 100
ניין 100
ابة 100
▁مرة 100
▁אותה 100
▁sagte 100
ently 100
זר 100
▁experiment 100
צות 100
ichtig 100
orth 100
▁cities 100
▁يمكننا 100
ning 100
▁fant 100
▁كم 100
▁Ale 100
▁כשה 100
▁break 100
▁wissen 100
▁difference 100
▁Ke 100
מצ 100
▁anno 100
ná 100
▁רא 100
ومات 100
▁maj 100
▁انه 100
ظم 100
שית 100
rad 100
▁بالت 100
صد 100
عرف 100
▁ap 100
ומר 100
شار 100
ديدة 100
atter 100
סה 100
▁ربما 100
▁minutes 100
▁companies 100
ases 100
طر 100
▁fail 100
▁הכי 100
ining 100
▁micro 100
▁המי 100
▁inde 100
▁Come 100
▁century 100
▁אפילו 100
▁dir 100
astic 100
▁إنها 100
▁cop 100
▁reality 100
ilità 100
▁behind 100
čo 100
▁أخ 100
▁я 100
ovať 100
▁full 100
лі 100
hren 100
▁takes 100
▁storia 100
▁בגלל 100
iod 100
▁Jah 100
▁Bild 100
▁close 100
otto 100
▁emot 100
avo 100
▁Mi 100
▁seeing 100
ammen 100
met 100
▁אמר 100
raf 100
▁שני 100
air 100
▁tras 100
▁finally 100
не 100
כנולוג 100
ný 100
هي 100
▁שנה 100
▁lavor 100
▁interact 100
▁explain 100
▁easy 100
▁insp 100
▁chiam 100
▁جميع 100
▁happy 100
uti 100
פשר 100
▁بن 100
▁begin 100
▁needed 100
▁guys 100
▁image 100
ovan 100
▁זהו 100
asse 100
ife 100
▁wieder 100
cio 100
▁third 100
▁לל 100
▁קי 100
auen 100
▁mis 100
▁بي 100
ource 100
▁fav 100
▁local 100
▁hands 100
wick 100
▁eyes 100
▁pattern 100
▁أعتقد 100
▁Ad 100
▁משת 100
▁migli 100
cing 100
▁perhaps 100
itions 100
▁common 100
▁En 100
▁hin 100
▁emer 100
▁short 100
▁anderen 100
▁גי 100
▁leave 100
▁אלי 100
▁green 100
leich 100
▁alles 100
▁ocean 100
▁enorm 100
▁behavior 100
▁fear 100
▁bisog 100
▁personal 100
▁reach 100
▁Ha 100
▁Der 100
▁sit 100
▁parents 100
ولوج 100
▁princi 100
▁profess 100
▁period 100
▁16 100
▁given 100
▁באופן 100
uchen 100
▁ten 100
▁special 100
▁beginning 100
▁sare 100
gar 100
cks 100
hy 100
▁War 100
ton 100
ität 100
ليل 100
▁sop 100
ktion 100
gl 100
חק 100
الت 100
▁90 100
▁sua 100
דת 100
▁nut 100
▁עוד 100
▁إلي 100
▁glau 100
lleicht 100
ßen 100
▁rich 100
▁turned 100
▁Goog 100
▁عليه 100
schied 100
▁dream 100
än 100
alo 100
year 100
▁naš 100
▁מילי 100
▁שאתם 100
▁تأ 100
▁Tr 100
aggio 100
▁tecnolog 100
▁а 100
sen 100
▁population 100
vert 100
▁sor 100
ذهب 100
▁الض 100
▁זמן 100
▁rid 100
▁moving 100
▁fü 100
▁low 100
▁poz 100
▁necess 100
▁würde 100
חיל 100
نى 100
צב 100
▁detto 100
▁إنه 100
על 100
rew 100
▁مص 100
▁Auf 100
▁suo 100
usammen 100
ift 100
▁شك 100
▁transform 100
▁flo 100
▁למה 100
▁stess 100
▁Ex 100
▁Just 100
▁אחרי 100
▁terms 100
▁أنها 100
▁يمكنك 100
▁Geschich 100
ém 100
vere 100
▁invol 100
▁д 100
عمل 100
▁70 100
▁مر 100
hlen 100
▁stay 100
▁needs 100
ada 100
▁major 100
▁during 100
מונה 100
▁sap 100
▁بط 100
زء 100
▁perform 100
▁Wor 100
▁size 100
▁economic 100
بار 100
▁por 100
▁wel 100
gre 100
▁אחר 100
▁crit 100
▁longer 100
▁problema 100
▁parts 100
▁בדי 100
bbl 100
▁surv 100
igt 100
▁للم 100
▁tipo 100
▁Perché 100
▁والتي 100
ého 100
▁שכ 100
hood 100
▁seven 100
nis 100
anze 100
ability 100
ád 100
ention 100
▁שק 100
endere 100
ades 100
▁אותי 100
▁і 100
▁Graz 100
▁בעולם 100
▁wonderful 100
▁Wie 100
▁ולה 100
.000 100
▁squ 100
▁selbst 100
▁Abbiamo 100
▁svo 100
▁quindi 100
ivi 100
▁Gr 100
▁الما 100
▁veľmi 100
▁convers 100
מרי 100
ison 100
▁oggi 100
▁vid 100
كبر 100
▁costru 100
▁aj 100
üt 100
▁ep 100
▁began 100
▁cannot 100
ניה 100
▁giorno 100
▁opt 100
▁felt 100
▁Aus 100
▁المح 100
esse 100
▁enc 100
▁אלו 100
▁mie 100
▁realized 100
▁14 100
▁People 100
anger 100
▁bes 100
▁normal 100
לח 100
شي 100
▁تما 100
▁avere 100
bon 100
šie 100
ká 100
ches 100
▁Jahre 100
▁nei 100
▁damit 100
شت 100
ئية 100
▁infl 100
▁lab 100
▁Mar 100
▁May 100
▁opp 100
▁והוא 100
▁blue 100
ander 100
▁geht 100
▁prom 100
رية 100
▁cy 100
atori 100
▁surpr 100
▁حين 100
▁bel 100
▁simply 100
íme 100
gend 100
▁event 100
mos 100
▁כאשר 100
ume 100
▁Google 100
▁requ 100
▁שלכם 100
גים 100
▁send 100
▁phone 100
▁تد 100
جم 100
▁جي 100
arsi 100
▁cambi 100
▁arm 100
ox 100
▁حقا 100
▁scale 100
▁mu 100
▁x 100
▁נת 100
oud 100
agli 100
▁Video 100
▁ولا 100
▁recogn 100
▁yourself 100
עיון 100
▁sett 100
▁أننا 100
kommen 100
▁oil 100
▁Unter 100
peci 100
▁game 100
agen 100
▁Grazie 100
▁wall 100
apt 100
حث 100
▁مكان 100
angen 100
דיין 100
▁psy 100
idence 100
arli 100
لاء 100
▁approach 100
▁ground 100
▁esempio 100
▁powerful 100
eri 100
ources 100
▁humans 100
ächter 100
▁senza 100
▁political 100
mt 100
ساء 100
rodu 100
▁شيئ 100
ype 100
▁cool 100
äng 100
▁feed 100
▁cerc 100
▁conv 100
ла 100
▁“ 100
▁lost 100
▁pract 100
▁punto 100
▁naj 100
▁obvi 100
▁שאנו 100
▁tried 100
▁Mo 100
▁تعلم 100
فكر 100
▁wen 100
▁עוב 100
lease 100
▁travel 100
زة 100
▁ja 100
▁يح 100
▁sud 100
ולים 100
istan 100
▁Des 100
▁ולא 100
▁thank 100
ní 100
▁ليست 100
▁measure 100
▁Our 100
▁forest 100
▁Gelächter 100
▁צריך 100
▁known 100
▁tutte 100
▁الحقيقة 100
ובן 100
rare 100
מנו 100
▁Um 100
ניתן 100
cious 100
cia 100
iem 100
▁nam 100
▁מאד 100
▁poor 100
atic 100
▁citt 100
جد 100
▁growth 100
▁ven 100
▁Yeah 100
▁„ 100
ria 100
▁hor 100
▁dark 100
▁leaders 100
▁individu 100
▁emp 100
▁quickly 100
▁سنة 100
▁ball 100
▁המו 100
▁stata 100
ın 100
بط 100
▁ملي 100
▁ability 100
▁عا 100
▁molti 100
▁proprio 100
وان 100
▁ec 100
▁qualche 100
▁13 100
uring 100
▁eight 100
▁Reg 100
aring 100
▁esper 100
▁expect 100
▁weiter 100
▁môž 100
▁Gen 100
▁והם 100
▁strong 100
▁perfect 100
▁עושים 100
תה 100
rom 100
▁possono 100
▁farm 100
▁gone 100
ší 100
oni 100
▁Med 100
fully 100
▁realtà 100
▁jo 100
▁يد 100
▁zurück 100
▁/ 100
▁father 100
פש 100
▁فع 100
▁arg 100
ged 100
▁وهي 100
▁sum 100
▁stesso 100
▁Lachen 100
▁buy 100
▁sun 100
▁بالنسبة 100
▁Cos 100
▁key 100
▁challenge 100
تها 100
▁أفضل 100
نس 100
لاق 100
▁fight 100
▁עי 100
ulti 100
▁interested 100
▁سا 100
chan 100
▁Ide 100
zent 100
יוון 100
▁fur 100
▁impact 100
▁wä 100
كة 100
▁protect 100
ila 100
áv 100
▁Yes 100
ression 100
-1 100
▁نا 100
▁fem 100
▁direct 100
▁economy 100
▁fish 100
izing 100
▁Right 100
▁علينا 100
zu 100
של 100
omo 100
▁surface 100
off 100
▁nun 100
▁השי 100
▁soft 100
oun 100
▁nelle 100
▁muss 100
▁genau 100
lect 100
▁paper 100
eli 100
ising 100
▁واحدة 100
▁Pre 100
ingen 100
▁بر 100
▁منذ 100
وني 100
eles 100
▁شكرا 100
▁compass 100
▁لنا 100
▁رائ 100
شف 100
▁evolution 100
ards 100
▁value 100
ised 100
▁Mal 100
▁שלה 100
ledge 100
▁cres 100
▁spent 100
▁المنا 100
▁الحياة 100
מית 100
▁חשוב 100
▁rip 100
▁nostri 100
oms 100
▁שח 100
▁פעם 100
▁changes 100
מא 100
▁pur 100
ains 100
▁tie 100
essun 100
of 100
▁yes 100
▁meno 100
▁altra 100
פק 100
lish 100
شكلة 100
▁clos 100
▁אר 100
▁حيات 100
▁risk 100
ורות 100
غيرة 100
▁Takže 100
▁importante 100
▁gest 100
▁instit 100
▁suff 100
▁на 100
ieme 100
▁born 100
▁يحدث 100
▁ktorý 100
▁material 100
▁sistema 100
▁redu 100
ude 100
▁whatever 100
زل 100
▁hy 100
▁opportunity 100
ächlich 100
abe 100
▁ragaz 100
▁term 100
IV 100
▁mili 100
צל 100
▁ice 100
▁plan 100
dy 100
ودة 100
enzi 100
▁disp 100
▁Music 100
▁photograph 100
bit 100
▁Sm 100
▁structure 100
▁len 100
▁aw 100
▁ار 100
بق 100
▁חיים 100
rove 100
▁מער 100
▁adv 100
▁198 100
avano 100
▁pover 100
uth 100
▁online 100
atta 100
▁לכל 100
▁tradition 100
מיד 100
ouch 100
▁sar 100
▁التح 100
▁ov 100
▁vill 100
▁either 100
▁בעצ 100
▁weeks 100
▁absolut 100
ran 100
ucle 100
▁يتم 100
يش 100
ielen 100
elo 100
▁box 100
▁lau 100
▁אדם 100
مس 100
דור 100
▁sitting 100
ology 100
וני 100
▁رأ 100
▁racc 100
▁circa 100
▁г 100
▁בז 100
▁sugg 100
▁feet 100
▁slow 100
▁fundament 100
▁Nun 100
▁alebo 100
▁predict 100
▁color 100
▁17 100
▁ثلا 100
▁alone 100
▁ti 100
▁vz 100
▁zw 100
▁bisogno 100
▁patients 100
▁incredible 100
כנס 100
ciamo 100
▁images 100
▁па 100
▁log 100
▁فيها 100
▁blood 100
▁prote 100
ucht 100
▁neigh 100
ציה 100
צע 100
שון 100
ram 100
öß 100
▁בג 100
▁שבו 100
▁denn 100
▁wouldn 100
▁developed 100
aught 100
▁Che 100
▁pra 100
▁ات 100
▁אלא 100
▁רוצים 100
unch 100
קרא 100
▁מט 100
▁Con 100
▁אפשר 100
▁وس 100
ered 100
▁كت 100
▁nem 100
▁möchte 100
▁הדבר 100
▁brought 100
▁foot 100
orning 100
▁gio 100
▁modern 100
▁pubbl 100
▁shows 100
sche 100
▁physical 100
مكان 100
▁based 100
atto 100
وار 100
▁heraus 100
xy 100
то 100
▁أش 100
▁فيه 100
▁dice 100
bens 100
▁World 100
▁במש 100
▁labor 100
▁climate 100
▁הנה 100
kon 100
iac 100
uard 100
▁Teil 100
به 100
قر 100
بات 100
▁John 100
▁تش 100
▁عد 100
chie 100
entially 100
▁נכון 100
▁הללו 100
▁schon 100
▁produce 100
▁individual 100
raft 100
▁לזה 100
▁הבי 100
▁compet 100
▁تخ 100
▁mob 100
▁favor 100
▁fos 100
▁nar 100
▁כול 100
▁oss 100
▁hundreds 100
▁يوم 100
▁viv 100
▁areas 100
ברי 100
íte 100
▁digital 100
▁funzion 100
▁Par 100
▁لماذا 100
▁numbers 100
▁sei 100
▁Ant 100
▁ang 100
▁HIV 100
▁Land 100
▁נראה 100
▁الأس 100
▁liber 100
▁divers 100
▁includ 100
▁average 100
lli 100
▁בנו 100
hemat 100
▁ganz 100
▁growing 100
▁momento 100
▁poved 100
▁Quando 100
ival 100
▁nucle 100
igkeit 100
▁signific 100
ilu 100
▁bed 100
▁plant 100
ga 100
▁cit 100
▁Da 100
▁بص 100
▁Tod 100
▁base 100
▁اي 100
ey 100
nten 100
ored 100
view 100
zzo 100
▁וח 100
ilar 100
▁כבר 100
▁تط 100
esto 100
▁magn 100
▁שהיא 100
ustain 100
▁ihnen 100
▁white 100
ban 100
▁carbon 100
▁books 100
str 100
▁finan 100
تمع 100
علومات 100
נם 100
▁morning 100
▁Fre 100
▁منا 100
▁والم 100
▁miles 100
▁فى 100
iech 100
▁tw 100
▁Ang 100
▁scientists 100
ны 100
▁fis 100
▁benef 100
حن 100
iver 100
▁أول 100
ograf 100
▁poll 100
▁quant 100
רום 100
ploy 100
▁hot 100
▁map 100
▁הראשו 100
תח 100
فر 100
▁מז 100
ills 100
▁živ 100
▁giving 100
▁24 100
ories 100
▁einz 100
▁univers 100
last 100
▁main 100
▁road 100
▁trust 100
erra 100
izione 100
▁Wo 100
▁ine 100
▁lung 100
גו 100
aci 100
▁literally 100
ברה 100
▁האלו 100
▁capac 100
atsächlich 100
etro 100
▁להשת 100
▁ni 100
▁rap 100
▁المتح 100
▁experien 100
book 100
▁המש 100
iden 100
▁Nat 100
▁סוג 100
▁كذلك 100
▁seems 100
▁البي 100
▁б 100
fahr 100
▁attention 100
▁كبير 100
▁Kinder 100
▁Mit 100
▁sea 100
ורת 100
مال 100
▁realize 100
▁تماما 100
▁technologies 100
▁psych 100
▁flow 100
▁animal 100
osto 100
stell 100
▁telling 100
▁أد 100
▁tools 100
▁המח 100
▁للأ 100
▁architect 100
▁в 100
▁hosp 100
▁vielleicht 100
hol 100
▁كنا 100
▁tend 100
▁والت 100
▁capital 100
לד 100
▁visual 100
ذن 100
▁eat 100
▁attra 100
▁clear 100
▁text 100
▁understanding 100
ida 100
▁draw 100
מין 100
▁heute 100
▁inizi 100
▁Hier 100
ensive 100
▁nuovo 100
▁ות 100
قدم 100
وقع 100
▁الخاص 100
▁starting 100
▁neg 100
▁pull 100
▁virt 100
▁أب 100
aged 100
▁fuori 100
▁הו 100
isti 100
▁prod 100
▁feeling 100
ium 100
une 100
▁kam 100
▁forward 100
▁zusammen 100
▁Dan 100
▁عبر 100
ators 100
قيق 100
inter 100
vail 100
غيير 100
▁bottom 100
רק 100
وسي 100
▁Li 100
▁عند 100
▁millions 100
وه 100
▁Così 100
▁sudden 100
פרי 100
▁ذات 100
▁maggi 100
▁הגדול 100
عادة 100
صر 100
▁خط 100
ingu 100
▁rul 100
enschaft 100
ár 100
▁Sc 100
▁write 100
ped 100
غا 100
eten 100
zo 100
ры 100
נתי 100
▁svilu 100
▁المع 100
رفة 100
▁Po 100
▁אחוז 100
etz 100
רוב 100
▁bambini 100
▁electric 100
لاف 100
▁وإ 100
▁اذا 100
mens 100
צד 100
▁وقت 100
ela 100
unk 100
▁cars 100
قبل 100
▁להי 100
▁הדברים 100
ache 100
cuno 100
ores 100
▁path 100
äd 100
urity 100
ald 100
▁altre 100
▁voice 100
▁במה 100
acy 100
▁دع 100
طع 100
فق 100
inden 100
▁spread 100
▁תי 100
▁مؤ 100
▁مق 100
▁Di 100
▁polic 100
ميع 100
ضاء 100
▁sic 100
▁מספר 100
▁multi 100
▁knowledge 100
ək 100
يانات 100
▁movement 100
▁الشي 100
نين 100
este 100
▁القيام 100
▁davon 100
ilmente 100
äh 100
▁soon 100
racy 100
▁قام 100
▁discovered 100
▁ובכן 100
for 100
واء 100
▁las 100
ilities 100
▁התח 100
▁بذلك 100
icated 100
▁الأرض 100
▁fra 100
▁המס 100
▁מקו 100
rand 100
▁Car 100
uk 100
chten 100
▁camb 100
▁bacter 100
▁21 100
▁Mars 100
כנולוגיה 100
▁mathemat 100
ثل 100
▁link 100
▁انها 100
▁extrem 100
יתם 100
▁חז 100
halten 100
▁يكن 100
cond 100
ances 100
▁ü 100
▁X 100
▁Geschichte 100
▁500 100
▁rim 100
▁negli 100
▁arriv 100
▁gesch 100
▁virus 100
entlich 100
▁cover 100
▁serious 100
án 100
ationen 100
uß 100
▁Don 100
موعة 100
▁guess 100
▁worth 100
▁development 100
قتص 100
▁št 100
▁casa 100
▁יהיה 100
aves 100
▁issue 100
edy 100
▁tas 100
▁עדיין 100
lim 100
▁With 100
▁collabor 100
קש 100
▁Ob 100
▁spaz 100
▁Beisp 100
▁proper 100
ביב 100
▁لإ 100
▁curr 100
▁لأنه 100
▁וג 100
▁יי 100
▁sever 100
ؤلاء 100
ؤال 100
▁لها 100
▁נמצא 100
▁فر 100
head 100
▁acqua 100
▁dead 100
▁force 100
▁smart 100
ربة 100
ford 100
עו 100
נוי 100
▁באות 100
ahl 100
▁ö 100
ارج 100
▁Su 100
▁تس 100
▁q 100
▁او 100
▁رؤ 100
▁div 100
▁among 100
▁English 100
ív 100
geb 100
▁industry 100
eder 100
asing 100
halb 100
▁autom 100
ismo 100
أة 100
▁دول 100
▁fire 100
▁يوجد 100
uzione 100
▁challeng 100
▁ומה 100
▁التع 100
▁hatten 100
هاية 100
▁בשבי 100
▁conse 100
edeut 100
remmo 100
▁Grund 100
col 100
▁rate 100
▁attack 100
▁recently 100
▁tiny 100
▁truth 100
▁אחרים 100
cient 100
▁Nach 100
asser 100
▁عم 100
▁التج 100
▁wrote 100
▁לר 100
▁300 100
▁South 100
▁gives 100
▁terror 100
rab 100
▁cli 100
▁sustain 100
nal 100
▁avail 100
pecially 100
▁gem 100
▁בעי 100
▁depend 100
▁mechan 100
פט 100
▁Problem 100
▁hon 100
ierte 100
ماء 100
▁Gl 100
▁choice 100
▁represent 100
لات 100
▁solution 100
كس 100
▁العام 100
▁zo 100
nú 100
bed 100
رس 100
وير 100
▁Ro 100
▁anyone 100
▁collect 100
מוש 100
▁rig 100
▁ľudí 100
▁سنوات 100
▁قال 100
▁similar 100
وء 100
حية 100
▁Diese 100
▁cerve 100
▁gab 100
▁girls 100
▁dou 100
▁لكي 100
▁center 100
▁מדו 100
▁dic 100
▁città 100
▁Na 100
▁nice 100
▁الام 100
▁בדיוק 100
▁By 100
▁وما 100
cher 100
áva 100
▁לך 100
▁צי 100
aum 100
ميم 100
▁פר 100
▁קצת 100
▁عليها 100
▁absolutely 100
▁קו 100
▁sond 100
▁ru 100
▁aveva 100
▁impar 100
▁creating 100
ustr 100
ontro 100
▁theory 100
▁concept 100
▁gar 100
▁cris 100
▁tam 100
▁audience 100
▁progress 100
ifica 100
▁أريد 100
cono 100
▁preto 100
▁solve 100
▁האנשים 100
erung 100
vamo 100
▁الطبي 100
▁Beh 100
icans 100
▁subject 100
▁dort 100
▁مس 100
▁cause 100
ency 100
nch 100
osi 100
▁eye 100
▁الحي 100
▁volte 100
sh 100
ביר 100
كذا 100
utto 100
▁stage 100
▁auth 100
▁effect 100
تنا 100
ball 100
▁بالم 100
▁confl 100
pend 100
▁asking 100
▁مما 100
affen 100
▁Ecco 100
كنولوج 100
▁terri 100
▁أج 100
usion 100
ety 100
▁هم 100
▁ў 100
text 100
צרים 100
▁gru 100
▁separ 100
▁strateg 100
▁suggest 100
▁Technolog 100
▁المر 100
▁song 100
▁changing 100
ás 100
▁developing 100
▁جد 100
▁dob 100
ellow 100
▁Brit 100
דש 100
▁running 100
▁achie 100
▁bol 100
atz 100
ief 100
▁resources 100
▁הזמן 100
ظهر 100
ccia 100
urch 100
▁فقد 100
▁spir 100
▁mentre 100
עט 100
ونا 100
▁Kr 100
ffe 100
▁nessun 100
iction 100
ändern 100
▁könnte 100
ibile 100
▁Cal 100
▁computers 100
▁jem 100
▁יום 100
weise 100
akt 100
zer 100
▁dati 100
▁kein 100
▁السي 100
▁أف 100
ettere 100
▁credo 100
▁stiamo 100
erc 100
▁sequ 100
▁shape 100
▁bank 100
кі 100
רונות 100
▁ליצור 100
yond 100
▁einige 100
סר 100
▁paar 100
▁patient 100
▁ihn 100
▁chance 100
▁ברי 100
▁showed 100
▁putting 100
ites 100
ارب 100
▁Look 100
jekt 100
▁poč 100
▁מוד 100
sob 100
▁react 100
▁מבי 100
ardi 100
▁dol 100
▁flu 100
▁يعني 100
▁techn 100
▁generation 100
▁likely 100
راض 100
▁قر 100
chni 100
osta 100
▁sed 100
▁save 100
▁innovation 100
▁capire 100
▁טי 100
▁ign 100
▁لان 100
▁يبدو 100
▁visto 100
olle 100
▁حال 100
uit 100
▁fix 100
▁שוב 100
▁groups 100
▁meiner 100
جتما 100
▁especially 100
סק 100
oria 100
▁drei 100
▁svet 100
▁available 100
▁compassion 100
▁انت 100
וכלו 100
▁clin 100
وز 100
unt 100
ليم 100
▁Dr 100
▁rius 100
▁الأخ 100
▁civil 100
ym 100
emente 100
cchi 100
▁doc 100
▁baby 100
▁First 100
▁fort 100
▁מפני 100
▁Where 100
▁designed 100
▁ero 100
▁دائ 100
▁drive 100
▁tecnologia 100
now 100
▁letz 100
▁touch 100
ئل 100
ify 100
▁reasons 100
▁zv 100
▁becomes 100
▁אוה 100
ona 100
▁רי 100
▁cel 100
▁يقوم 100
▁חושבים 100
▁už 100
▁sell 100
ذكر 100
▁Dav 100
▁type 100
▁jeden 100
▁andare 100
▁potete 100
▁lay 100
▁inte 100
▁stru 100
▁لك 100
▁sost 100
▁Har 100
▁wollen 100
غة 100
▁مختلفة 100
bol 100
▁report 100
ažd 100
▁fair 100
▁several 100
▁Chris 100
ليس 100
▁מקום 100
▁medical 100
▁Min 100
▁نظر 100
klad 100
ming 100
▁miei 100
▁تحت 100
ial 100
▁mount 100
▁عالم 100
▁הייתה 100
rim 100
▁القر 100
▁طريق 100
uten 100
▁verste 100
קרה 100
▁قاد 100
▁החיים 100
▁wurden 100
wort 100
▁imposs 100
ريب 100
حاول 100
▁software 100
▁giust 100
▁أق 100
erto 100
▁talked 100
▁تقوم 100
▁fosse 100
▁towards 100
ieg 100
▁verb 100
▁darüber 100
▁rif 100
▁הנו 100
ission 100
▁الشخص 100
▁أنت 100
▁verw 100
▁insieme 100
▁viene 100
ət 100
▁died 100
▁activ 100
eth 100
▁Ü 100
▁נה 100
▁Afgh 100
▁grandi 100
▁West 100
ja 100
▁בד 100
▁196 100
▁עומ 100
▁bess 100
ette 100
▁schw 100
▁كثير 100
▁كبيرة 100
▁tatsächlich 100
ffen 100
ived 100
▁foss 100
▁prec 100
פל 100
fall 100
קד 100
▁gel 100
▁incredibly 100
▁immedi 100
▁proget 100
▁Fe 100
ís 100
▁deb 100
▁rules 100
▁creare 100
▁וש 100
▁extraordin 100
ль 100
▁effici 100
كية 100
▁okay 100
בוה 100
▁sam 100
▁lived 100
▁werde 100
əl 100
apan 100
▁national 100
اه 100
▁والأ 100
▁organiz 100
▁ונ 100
▁bigger 100
▁Vi 100
▁ju 100
▁beyond 100
▁milioni 100
▁cervello 100
▁stanno 100
mit 100
לית 100
inese 100
וצא 100
aking 100
▁toto 100
20 100
▁بسبب 100
▁rece 100
▁sounds 100
לב 100
▁gas 100
ascin 100
▁device 100
▁הראשון 100
▁meaning 100
▁dro 100
zä 100
▁search 100
▁tým 100
inger 100
▁التص 100
▁neighbor 100
▁haven 100
▁action 100
▁Who 100
▁والذي 100
ديم 100
شرة 100
▁svoj 100
▁منها 100
▁pictures 100
ünd 100
▁issues 100
▁revolution 100
רכ 100
uta 100
▁except 100
▁nostre 100
▁sle 100
▁Maybe 100
▁كانوا 100
▁alcuni 100
ging 100
▁fot 100
▁effective 100
נן 100
▁197 100
▁quelle 100
cl 100
▁famil 100
▁function 100
▁aren 100
▁plants 100
arden 100
▁dimens 100
▁account 100
נטי 100
▁və 100
▁voglio 100
عدة 100
essen 100
▁الاست 100
bro 100
▁fol 100
▁temper 100
פיק 100
adre 100
תיים 100
▁Mon 100
▁distrib 100
גות 100
ujem 100
يج 100
idge 100
əy 100
▁أما 100
▁gehen 100
ולוג 100
▁viac 100
▁Afghan 100
▁unserer 100
▁playing 100
ואו 100
och 100
itch 100
etta 100
pped 100
▁vám 100
ennen 100
▁أكبر 100
rum 100
▁Tw 100
▁donne 100
فكير 100
▁basic 100
▁forse 100
phere 100
ürlich 100
▁primo 100
والي 100
▁بدأت 100
▁corre 100
▁evidence 100
mp 100
▁Geh 100
▁čas 100
▁قلي 100
▁المتحدة 100
▁byť 100
▁clean 100
▁involved 100
ורך 100
▁erst 100
▁هؤلاء 100
ובה 100
▁Ak 100
ersch 100
fol 100
▁sondern 100
▁potential 100
اقة 100
▁daz 100
▁רבה 100
ounds 100
▁Lond 100
▁seine 100
▁שלך 100
▁knows 100
▁Beispiel 100
atore 100
▁فكرة 100
▁descri 100
▁journey 100
issenschaft 100
▁weiß 100
▁El 100
▁zač 100
▁apart 100
▁Pol 100
▁solar 100
▁situation 100
▁particularly 100
▁תח 100
ilomet 100
▁citiz 100
مات 100
▁בערך 100
▁עושה 100
▁showing 100
▁Of 100
illi 100
razy 100
▁מיי 100
▁Stud 100
▁danger 100
טח 100
▁להבין 100
يرا 100
لايا 100
▁street 100
ieto 100
بب 100
בול 100
▁ניתן 100
▁הצי 100
▁شيئا 100
ма 100
▁מכו 100
▁persp 100
itori 100
▁fond 100
▁الطريقة 100
ya 100
ويل 100
▁Dar 100
▁למע 100
▁male 100
▁bom 100
▁screen 100
פס 100
▁vom 100
fortun 100
▁camera 100
ساس 100
▁drug 100
▁בתוך 100
▁לחשוב 100
▁Kon 100
▁קשה 100
▁הזאת 100
▁البشر 100
▁العديد 100
فهم 100
▁يم 100
▁message 100
▁character 100
▁ш 100
▁יודע 100
▁communities 100
▁stick 100
▁יכולה 100
▁discuss 100
עם 100
▁determ 100
زيد 100
▁מסוג 100
▁speed 100
الك 100
ährend 100
▁milit 100
hi 100
rete 100
▁pen 100
▁tru 100
▁pensare 100
bes 100
▁pou 100
▁صحي 100
irn 100
▁أجل 100
▁Japan 100
ضية 100
ales 100
▁stati 100
▁threat 100
▁Bu 100
▁rit 100
▁באי 100
▁camp 100
▁molte 100
əs 100
▁ç 100
▁rock 100
וריה 100
▁Char 100
▁Pens 100
לום 100
anzen 100
▁Cent 100
راق 100
▁corn 100
▁drugs 100
▁detail 100
lad 100
▁dô 100
arily 100
▁Hand 100
▁diagn 100
▁rele 100
▁schools 100
▁certainly 100
▁led 100
رنت 100
▁mys 100
▁After 100
ibility 100
öt 100
▁نعم 100
icians 100
▁život 100
▁bal 100
ín 100
▁Most 100
▁fundamental 100
hu 100
هة 100
lam 100
▁nap 100
▁sarebbe 100
אן 100
طل 100
زا 100
oring 100
ثر 100
ومة 100
▁الفي 100
▁לצ 100
▁cat 100
ساعد 100
avig 100
▁pal 100
inate 100
▁يقول 100
▁בחי 100
▁sempl 100
▁violence 100
hm 100
▁التق 100
▁trees 100
▁qualcuno 100
isce 100
▁mort 100
▁track 100
▁African 100
enie 100
▁האר 100
▁niečo 100
▁سيكون 100
عض 100
اجة 100
▁dobbiamo 100
ні 100
ذج 100
▁במקום 100
ference 100
▁examples 100
▁contrib 100
▁wäre 100
▁Als 100
▁eig 100
▁nás 100
ified 100
▁medicine 100
▁scientific 100
▁nine 100
frast 100
▁نقوم 100
▁Lebens 100
وص 100
▁general 100
king 100
ודות 100
▁security 100
asch 100
▁bod 100
ichen 100
▁داخل 100
▁Face 100
▁neue 100
ضر 100
▁מסת 100
▁جزء 100
▁Million 100
▁parlare 100
يب 100
glio 100
áci 100
▁repl 100
▁torn 100
▁creative 100
وح 100
▁Una 100
▁già 100
▁besch 100
▁vu 100
מיים 100
▁pom 100
igher 100
▁الأن 100
▁Č 100
room 100
▁bill 100
فية 100
▁مهم 100
▁طريقة 100
גש 100
für 100
هما 100
▁Kl 100
öglich 100
▁يست 100
▁list 100
iad 100
▁movie 100
ring 100
▁onto 100
▁wahr 100
▁lif 100
▁השני 100
erve 100
▁starts 100
▁vision 100
ديث 100
▁דול 100
▁hit 100
orso 100
ركات 100
▁spre 100
▁أص 100
هتما 100
▁particip 100
ilo 100
حلة 100
antly 100
▁ואנחנו 100
oming 100
▁controll 100
▁حدث 100
olare 100
▁connected 100
دت 100
come 100
נטר 100
▁wants 100
ných 100
▁denke 100
▁walking 100
nehmen 100
▁stessa 100
▁وح 100
▁החי 100
imate 100
▁משו 100
▁מדה 100
▁المص 100
▁writing 100
▁exciting 100
▁lui 100
ctors 100
enz 100
agine 100
rebbero 100
ery 100
arlo 100
▁Wer 100
▁pes 100
▁שבה 100
▁capt 100
▁وهذه 100
▁ready 100
▁results 100
▁pia 100
▁context 100
▁veramente 100
esen 100
▁wichtig 100
▁المث 100
▁higher 100
▁تعرف 100
▁conscious 100
▁الآخر 100
▁ol 100
more 100
▁moral 100
▁يق 100
▁nov 100
ierung 100
▁moved 100
▁לדבר 100
ex 100
mitt 100
▁boy 100
▁safe 100
לך 100
▁tar 100
▁جديدة 100
▁further 100
גד 100
rest 100
▁applic 100
▁ricord 100
▁crazy 100
ילו 100
▁بما 100
▁carry 100
nell 100
▁denken 100
▁נפ 100
beiten 100
▁macch 100
▁peace 100
▁accept 100
▁entwick 100
▁حا 100
▁role 100
▁largest 100
▁במשך 100
▁introdu 100
▁San 100
▁אותנו 100
▁chemical 100
▁כת 100
ugen 100
▁Cl 100
▁af 100
▁alg 100
▁פני 100
▁größ 100
▁במי 100
רבה 100
▁scu 100
كنولوجيا 100
▁continue 100
▁grew 100
▁الشيء 100
▁choose 100
ils 100
▁فت 100
▁cele 100
▁dost 100
▁push 100
▁secret 100
▁college 100
▁persona 100
rage 100
▁frag 100
ressed 100
чы 100
val 100
▁בסי 100
▁Inter 100
ured 100
▁הבע 100
וע 100
▁تر 100
▁mine 100
▁bedeut 100
aro 100
ניי 100
▁agric 100
▁biggest 100
▁everywhere 100
дз 100
gef 100
▁meant 100
أك 100
▁الموا 100
ır 100
سات 100
arci 100
▁web 100
חס 100
וקים 100
▁בעצם 100
▁לגבי 100
▁anybody 100
▁ויש 100
▁farlo 100
▁allora 100
ollar 100
how 100
utz 100
oles 100
ionale 100
▁gala 100
▁400 100
▁projects 100
▁extraordinary 100
▁code 100
▁finden 100
▁להשתמש 100
اريخ 100
▁קור 100
▁sembra 100
▁Are 100
▁democracy 100
انب 100
▁לט 100
▁caso 100
▁avete 100
žit 100
like 100
▁للح 100
▁zero 100
▁return 100
▁ď 100
▁بالفعل 100
▁תמיד 100
▁bacteria 100
▁TV 100
▁lì 100
▁favorite 100
▁נק 100
شروع 100
▁sogar 100
rato 100
▁وضع 100
▁Sw 100
useum 100
▁bere 100
▁denen 100
▁الإنت 100
▁gleich 100
▁kommen 100
▁international 100
itter 100
▁atmos 100
▁macht 100
▁استخدام 100
▁spo 100
▁problemi 100
ľa 100
طق 100
▁הרו 100
▁Toto 100
▁batt 100
▁fanno 100
כר 100
▁ok 100
▁commer 100
▁poverty 100
▁חשב 100
▁الأو 100
▁Wasser 100
▁domanda 100
▁بش 100
▁scri 100
▁بهذا 100
▁insegn 100
▁specie 100
▁gemacht 100
▁الأطفال 100
ле 100
▁המת 100
hand 100
onse 100
▁mož 100
▁מהם 100
▁skin 100
ציא 100
iven 100
▁عدد 100
▁North 100
tschaft 100
erst 100
iben 100
▁wish 100
▁breat 100
اح 100
▁1. 100
▁zd 100
▁وأن 100
▁وهنا 100
▁materials 100
▁גר 100
light 100
▁individuals 100
cken 100
الات 100
▁dazu 100
▁faster 100
▁objects 100
▁בצורה 100
▁bur 100
▁gegen 100
▁glaube 100
▁natura 100
▁jedn 100
▁colleag 100
▁student 100
▁المعلومات 100
▁ord 100
▁Mich 100
▁door 100
حظة 100
داد 100
▁amb 100
▁Germ 100
keiten 100
▁يش 100
▁quasi 100
▁families 100
▁השת 100
enten 100
▁Even 100
פול 100
▁בלי 100
▁כשא 100
מם 100
ops 100
▁AI 100
▁quality 100
hrt 100
פון 100
ably 100
▁obviously 100
▁USA 100
▁syn 100
▁minds 100
▁einmal 100
▁نستطيع 100
▁potrebbe 100
▁birth 100
▁וכך 100
ruction 100
▁zwischen 100
oper 100
▁150 100
▁Tag 100
▁قمنا 100
▁genes 100
▁ricer 100
▁skuto 100
גה 100
▁2000 100
▁diverse 100
rod 100
▁tree 100
يني 100
rial 100
▁חדש 100
▁Kom 100
▁ואם 100
▁City 100
▁ents 100
▁Today 100
▁unha 100
חור 100
▁למצ 100
▁perm 100
▁thousand 100
cape 100
▁جيد 100
▁batter 100
▁gerade 100
ray 100
▁fill 100
▁daughter 100
kej 100
▁Ken 100
▁לדע 100
▁פחות 100
ضح 100
▁fino 100
▁chied 100
▁היינו 100
▁notice 100
قائ 100
▁פת 100
▁הדרך 100
ground 100
▁adult 100
▁totally 100
▁funktion 100
edom 100
▁Mom 100
estern 100
▁graph 100
▁penso 100
ös 100
طب 100
cri 100
izzare 100
بيل 100
vece 100
aggi 100
▁concl 100
▁الولا 100
▁تعلمون 100
да 100
▁ללא 100
▁Frage 100
dem 100
▁toho 100
▁resist 100
קס 100
רגע 100
▁مش 100
▁geben 100
▁source 100
▁hospital 100
▁conversation 100
▁hät 100
osing 100
▁cresc 100
▁National 100
▁watching 100
ara 100
لية 100
ifici 100
ريبا 100
▁rights 100
▁supposed 100
▁Afghanistan 100
▁bolo 100
▁stri 100
▁lower 100
izi 100
לנו 100
▁Rob 100
▁prá 100
▁vacc 100
▁letter 100
▁بطريقة 100
▁ка 100
▁forma 100
▁including 100
وري 100
▁עשו 100
▁table 100
▁urban 100
▁conflict 100
▁perspective 100
vit 100
▁مخ 100
icle 100
▁המוח 100
▁blind 100
▁הראשונה 100
yl 100
▁vyt 100
▁above 100
▁named 100
▁נע 100
stit 100
▁tum 100
حيط 100
▁اخت 100
▁near 100
▁يعمل 100
▁Inform 100
داء 100
▁ohne 100
▁דו 100
unkt 100
ובי 100
▁לנ 100
▁näch 100
▁quale 100
▁response 100
ומים 100
▁zeigen 100
urt 100
▁sf 100
▁موج 100
iglia 100
▁shown 100
▁facendo 100
▁successo 100
▁buildings 100
▁Io 100
▁يأ 100
▁End 100
▁wife 100
▁בדרך 100
▁نظام 100
ча 100
תיד 100
מנות 100
▁kommt 100
▁motiv 100
▁print 100
▁الأول 100
▁verso 100
▁الأشخاص 100
▁increase 100
וס 100
غم 100
▁mut 100
▁office 100
▁complicated 100
▁не 100
▁بالط 100
▁ית 100
äč 100
▁rapp 100
▁מערכת 100
isms 100
▁gef 100
لس 100
▁فهم 100
▁aiut 100
▁System 100
lik 100
▁תר 100
▁vic 100
▁passion 100
▁nuclear 100
▁Any 100
▁vlast 100
▁כמובן 100
ديو 100
▁فه 100
▁waste 100
▁Prozent 100
وسيق 100
▁لهذا 100
▁avuto 100
▁doctor 100
▁تستطيع 100
ows 100
▁أمر 100
غاية 100
▁بالأ 100
▁Those 100
هور 100
▁Ber 100
▁futuro 100
▁مجموعة 100
▁בהם 100
▁lose 100
▁machines 100
▁positive 100
▁Ja 100
▁במו 100
▁للا 100
▁lands 100
▁Chinese 100
▁dai 100
▁Afri 100
▁wild 100
▁הולך 100
▁المس 100
bu 100
aub 100
בלים 100
▁jobs 100
▁pote 100
▁optim 100
▁private 100
ido 100
amenti 100
▁jemand 100
▁eventually 100
ids 100
▁verschied 100
פוך 100
▁وعن 100
▁cross 100
▁models 100
▁meglio 100
▁improve 100
▁Facebook 100
soci 100
▁ann 100
▁Eine 100
▁Arbeit 100
▁disapp 100
▁למי 100
▁disse 100
irs 100
הלי 100
▁لح 100
عمال 100
▁لهم 100
▁معا 100
▁אף 100
▁senso 100
▁launch 100
▁פה 100
ogen 100
vest 100
imens 100
▁products 100
▁attraverso 100
cce 100
▁جعل 100
▁každ 100
▁dollari 100
▁hl 100
▁posto 100
ריות 100
▁Bew 100
▁pan 100
▁ktorá 100
cked 100
▁util 100
▁radio 100
▁stars 100
▁essentially 100
ört 100
▁crisis 100
aly 100
▁شئ 100
asso 100
▁bri 100
abile 100
▁العل 100
▁worse 100
▁altern 100
▁nichts 100
▁village 100
▁כזה 100
▁amer 100
▁irgend 100
▁ambi 100
▁והיא 100
▁זוהי 100
▁Smiech 100
פרים 100
▁older 100
▁tieto 100
▁מישהו 100
▁activity 100
dr 100
▁sou 100
▁כעת 100
atica 100
▁veng 100
▁risult 100
ראו 100
▁pieces 100
▁pros 100
▁rain 100
▁Comput 100
▁iP 100
▁Ira 100
▁ries 100
▁ľudia 100
▁quot 100
شة 100
▁أنني 100
ערכת 100
שבים 100
▁pok 100
▁decision 100
وط 100
▁אור 100
▁wait 100
▁potom 100
▁extremely 100
▁نحو 100
arten 100
▁maggior 100
▁respond 100
ritt 100
lio 100
▁מידע 100
▁standing 100
▁kl 100
▁ihren 100
▁למצוא 100
▁treatment 100
משים 100
▁لديهم 100
▁nobody 100
▁finding 100
▁sto 100
▁פרו 100
▁بدا 100
▁sieht 100
▁taught 100
▁passiert 100
ppe 100
בית 100
▁רע 100
▁hov 100
▁المخ 100
▁cases 100
akes 100
▁roll 100
ager 100
▁rot 100
▁konnte 100
▁cominci 100
▁pretože 100
äs 100
יוחד 100
▁שאי 100
▁pack 100
▁German 100
▁נח 100
▁تب 100
ליים 100
astanza 100
▁integr 100
▁إذن 100
inare 100
▁teachers 100
▁Fin 100
▁appear 100
▁Act 100
▁אשר 100
▁دولار 100
כב 100
▁dafür 100
▁للغاية 100
▁hop 100
▁earli 100
▁Design 100
▁Ag 100
▁מל 100
iding 100
▁David 100
▁tells 100
▁memory 100
▁würden 100
גיש 100
▁أخذ 100
▁neurons 100
▁suddenly 100
וט 100
▁tých 100
▁tutta 100
▁prison 100
ابات 100
▁cin 100
stellen 100
▁possibile 100
وقف 100
appiamo 100
▁famili 100
▁larger 100
▁أنهم 100
▁loved 100
▁allowed 100
▁excited 100
يين 100
stein 100
▁rice 100
▁infrast 100
▁intelligence 100
ôsob 100
▁העי 100
inner 100
▁abbastanza 100
▁هن 100
▁بإمكان 100
yr 100
▁وأنا 100
▁Millionen 100
▁بق 100
▁שמע 100
immt 100
zeit 100
▁cold 100
irm 100
שבו 100
▁goal 100
▁killed 100
▁weit 100
▁concern 100
▁בזמן 100
▁grado 100
▁impossible 100
▁traditional 100
▁forms 100
▁energia 100
مية 100
▁lad 100
▁biology 100
▁electricity 100
ách 100
רגיה 100
▁jeder 100
▁molec 100
▁ילדים 100
ech 100
▁CO 100
فكار 100
▁certo 100
▁tanto 100
▁service 100
▁specific 100
▁successful 100
▁architecture 100
heim 100
▁Gehirn 100
▁sarà 100
▁גבוה 100
others 100
care 100
enze 100
▁מזה 100
عى 100
dom 100
▁para 100
▁phen 100
▁כולם 100
eres 100
iforn 100
▁Schw 100
▁etwa 100
▁phil 100
▁games 100
▁healthy 100
azi 100
▁erste 100
▁difficile 100
גיל 100
خبر 100
▁hö 100
isco 100
▁עליו 100
vision 100
▁somewhere 100
▁קבו 100
▁Aust 100
▁معظم 100
▁siano 100
▁concent 100
ňa 100
▁ظ 100
gew 100
ält 100
abei 100
änder 100
▁daran 100
▁London 100
▁late 100
▁train 100
▁تست 100
▁vero 100
▁ترون 100
▁prefer 100
▁remark 100
▁Univers 100
ommen 100
▁שהיה 100
▁Frauen 100
▁mental 100
▁dy 100
utter 100
▁Über 100
▁employ 100
ياه 100
▁bee 100
▁האנו 100
▁allows 100
joy 100
ברת 100
▁לקחת 100
▁patterns 100
▁conditions 100
atr 100
واع 100
▁sotto 100
▁brains 100
▁الصورة 100
▁increasing 100
rep 100
▁truly 100
▁ersten 100
▁הלא 100
atory 100
▁באמצ 100
▁יה 100
halt 100
▁ידע 100
▁società 100
imp 100
rob 100
▁בזה 100
▁afford 100
▁תע 100
▁000 100
eda 100
▁erzä 100
▁حوالي 100
▁deliver 100
▁usually 100
▁Christ 100
▁bodies 100
ological 100
ты 100
ula 100
▁esp 100
ams 100
▁lines 100
لاب 100
▁دي 100
▁בואו 100
▁transport 100
▁انا 100
aving 100
▁לאנשים 100
▁Era 100
▁cru 100
ujeme 100
قتصاد 100
▁sper 100
▁ونحن 100
enda 100
ises 100
▁fab 100
ration 100
▁standard 100
▁solutions 100
iera 100
شاهد 100
▁sorts 100
▁genetic 100
▁University 100
▁site 100
▁קורה 100
▁verstehen 100
يز 100
esta 100
▁din 100
▁interessante 100
▁نظ 100
ellt 100
▁ble 100
▁email 100
▁الدول 100
▁Person 100
▁element 100
▁trovare 100
▁remind 100
▁vedete 100
▁قص 100
nosť 100
ייתי 100
▁massive 100
kn 100
▁sold 100
▁רבים 100
راه 100
▁mamm 100
▁segu 100
▁contr 100
▁secondo 100
▁indeed 100
סוף 100
teil 100
▁dos 100
▁uomo 100
▁فعلا 100
▁corpo 100
ía 100
▁ني 100
טיקה 100
▁radi 100
▁teacher 100
▁straight 100
▁فأ 100
tore 100
▁пра 100
▁verl 100
▁alive 100
▁conserv 100
▁prevent 100
▁während 100
▁citizens 100
▁שמת 100
▁sleep 100
▁progetto 100
▁sky 100
▁Cong 100
▁card 100
▁כמעט 100
▁Somet 100
▁rapid 100
▁صغيرة 100
uer 100
▁rokov 100
▁שונים 100
▁wealth 100
קת 100
نتج 100
iele 100
zeug 100
▁Idee 100
▁dent 100
▁vole 100
▁حصل 100
front 100
▁kept 100
zaj 100
attro 100
אלה 100
ئات 100
▁recognize 100
גיד 100
▁בסדר 100
ifornia 100
▁lassen 100
▁בית 100
▁فكر 100
▁bunch 100
▁أقل 100
▁foto 100
▁usare 100
▁anymore 100
ými 100
لاج 100
ires 100
מרים 100
▁spä 100
▁sus 100
מונות 100
▁happiness 100
وث 100
▁eth 100
ernen 100
ulate 100
▁region 100
▁organization 100
▁či 100
▁حق 100
▁אינ 100
▁boli 100
▁elett 100
▁target 100
▁address 100
▁1, 100
iced 100
יונות 100
▁traff 100
▁minute 100
▁spazio 100
gal 100
llen 100
▁כיצד 100
▁earth 100
▁soldi 100
▁achieve 100
▁smaller 100
▁luck 100
▁الأح 100
▁provide 100
خرج 100
▁מדע 100
▁warum 100
▁California 100
وما 100
▁35 100
▁Dann 100
ulture 100
▁avevo 100
▁transl 100
▁mention 100
▁phenomen 100
▁natürlich 100
▁حل 100
▁win 100
▁قمت 100
▁Park 100
▁fascin 100
כלו 100
ניס 100
▁דר 100
back 100
wood 100
▁enjoy 100
▁decades 100
▁מכל 100
▁מעט 100
▁خاص 100
arono 100
▁actual 100
▁نس 100
iere 100
▁الطاقة 100
rate 100
▁הקט 100
▁جميعا 100
▁الولايات 100
hlt 100
▁لد 100
▁לקבל 100
▁dog 100
▁לעצ 100
▁purp 100
▁town 100
▁בלתי 100
thern 100
▁sand 100
iemlich 100
فسي 100
amer 100
▁הופ 100
▁mist 100
▁ended 100
▁قليلا 100
▁painting 100
oh 100
atti 100
lock 100
▁Dem 100
▁ويمكن 100
adt 100
▁כה 100
cell 100
amos 100
▁significa 100
▁ut 100
▁bola 100
vy 100
قات 100
lesk 100
▁البح 100
schein 100
▁upon 100
though 100
בא 100
▁مليون 100
cov 100
وال 100
isen 100
ného 100
▁מגי 100
▁effort 100
▁fantast 100
▁ing 100
▁Fall 100
▁מאשר 100
esehen 100
ודל 100
هاز 100
ktor 100
▁לאחר 100
▁לעולם 100
▁letzten 100
▁becoming 100
ظمة 100
▁الكت 100
▁البيانات 100
هاب 100
▁hom 100
▁السيا 100
▁robots 100
oph 100
▁ואתם 100
▁mensch 100
ilm 100
דבר 100
▁Co 100
ца 100
كو 100
▁סט 100
lung 100
▁Mod 100
▁mes 100
▁influ 100
פוא 100
يفة 100
ולות 100
▁somehow 100
wir 100
▁רצ 100
orge 100
▁Ihr 100
▁sin 100
▁coun 100
▁points 100
fortunately 100
pad 100
▁numero 100
▁strugg 100
▁clearly 100
▁governments 100
▁institutions 100
▁што 100
▁mno 100
▁alcune 100
▁sollte 100
▁greatest 100
aging 100
هتمام 100
▁الحا 100
▁beings 100
amen 100
دماغ 100
▁ארו 100
▁הארץ 100
▁صورة 100
▁final 100
▁limit 100
DS 100
וו 100
▁הפר 100
▁Geld 100
ndo 100
inct 100
▁riv 100
▁التن 100
▁schnell 100
▁לכך 100
▁Ihre 100
▁cust 100
▁laws 100
▁כאילו 100
vá 100
זיקה 100
▁dach 100
▁לומר 100
time 100
▁nám 100
▁auto 100
▁decisions 100
ieť 100
▁author 100
▁statist 100
biť 100
▁ליי 100
▁otten 100
ußer 100
▁dad 100
▁Franc 100
▁costs 100
▁series 100
▁written 100
▁position 100
▁ziemlich 100
ios 100
▁burn 100
▁algor 100
▁spect 100
זרת 100
▁אה 100
onte 100
▁heav 100
▁brand 100
▁occur 100
adem 100
▁קטן 100
▁Musik 100
▁große 100
▁fit 100
▁visit 100
▁satell 100
my 100
umb 100
▁موا 100
geben 100
▁Isra 100
▁services 100
cies 100
▁Fam 100
▁deg 100
▁dalle 100
▁أشياء 100
▁הרעיון 100
▁freedom 100
▁sollten 100
▁critical 100
▁kde 100
▁check 100
▁sad 100
▁בשי 100
▁comunità 100
יהם 100
קור 100
▁bez 100
▁שהת 100
aries 100
▁לתוך 100
▁Daten 100
▁worry 100
قب 100
▁Aud 100
▁exh 100
▁משמ 100
▁floor 100
▁policy 100
زال 100
▁Aut 100
örper 100
▁lingu 100
▁كيفية 100
▁expensive 100
rene 100
▁hai 100
▁pianet 100
צוב 100
lies 100
يمة 100
osci 100
▁oxy 100
▁לגמרי 100
▁besser 100
▁celebr 100
▁please 100
טות 100
▁Like 100
▁נוכל 100
mun 100
תיי 100
▁מנס 100
▁legs 100
▁plat 100
▁familiar 100
▁military 100
יינו 100
▁Ger 100
▁Second 100
▁weight 100
▁studies 100
جال 100
واصل 100
▁zmen 100
▁anywhere 100
▁בן 100
ream 100
▁נוס 100
anken 100
ريقيا 100
▁Dank 100
▁يستطيع 100
30 100
وكب 100
▁Ter 100
▁מור 100
▁$ 100
▁منت 100
▁البعض 100
▁detect 100
▁Ä 100
نون 100
elli 100
▁מלא 100
ician 100
▁genet 100
▁financial 100
▁гэ 100
▁عل 100
▁lei 100
▁دون 100
▁طبي 100
avamo 100
▁price 100
▁inspir 100
▁könnten 100
▁willing 100
طقة 100
▁كا 100
يادة 100
▁famous 100
▁נא 100
▁ran 100
▁tax 100
▁وبعد 100
▁Energ 100
▁diseases 100
▁training 100
▁income 100
▁svilupp 100
מון 100
ischer 100
▁Imagine 100
ull 100
شاف 100
سائل 100
▁har 100
itude 100
▁poter 100
agement 100
arvi 100
▁block 100
▁humanity 100
atur 100
▁drink 100
▁دائما 100
imately 100
▁waiting 100
قطة 100
▁Den 100
▁רוב 100
▁agli 100
▁tiss 100
▁trem 100
gel 100
▁لع 100
▁throw 100
▁skills 100
▁Geb 100
▁store 100
▁weren 100
▁himself 100
▁علم 100
تك 100
مين 100
ables 100
طان 100
طور 100
▁да 100
idem 100
▁והת 100
▁eigen 100
▁meinem 100
دية 100
▁Nel 100
▁דוג 100
▁vide 100
▁paese 100
▁parad 100
▁niente 100
▁wollte 100
▁reading 100
▁facciamo 100
▁Gew 100
iling 100
▁artist 100
▁mobile 100
▁semplice 100
▁dangerous 100
▁neighborhood 100
▁Dis 100
▁הקו 100
▁שנו 100
▁assum 100
▁الأولى 100
▁Russ 100
▁Stre 100
▁range 100
▁insect 100
▁Gi 100
amin 100
anie 100
▁cry 100
▁jud 100
▁vec 100
▁وان 100
▁Form 100
▁ging 100
▁shot 100
▁compon 100
▁saving 100
▁quattro 100
agt 100
▁לשי 100
ività 100
▁ihrer 100
▁leben 100
▁trick 100
هل 100
▁שג 100
▁מכי 100
▁gene 100
▁scar 100
▁diversi 100
غل 100
▁apply 100
▁square 100
▁techni 100
▁performance 100
ро 100
▁Res 100
iments 100
▁meinen 100
▁cra 100
ained 100
▁associ 100
▁meisten 100
▁Americans 100
ля 100
شاكل 100
▁Ben 100
▁יחד 100
▁מסו 100
▁stup 100
▁doctors 100
▁swe 100
oking 100
▁Bill 100
▁ganze 100
▁gradu 100
▁מספיק 100
▁ricerca 100
cro 100
ktur 100
stav 100
طلاق 100
▁שתי 100
▁محا 100
▁الخط 100
▁وعندما 100
urre 100
הליך 100
▁tratta 100
▁Ok 100
▁תא 100
▁אית 100
▁Mann 100
▁webs 100
▁gruppo 100
unde 100
▁azi 100
▁וכל 100
▁Rich 100
▁dabei 100
▁choices 100
cel 100
▁nej 100
▁המדי 100
▁inner 100
▁symbol 100
▁current 100
▁challenges 100
▁geh 100
▁גור 100
▁jump 100
čne 100
נטרנט 100
▁כדור 100
ightly 100
▁osserv 100
ží 100
از 100
abil 100
▁unique 100
▁Washing 100
idi 100
rel 100
טית 100
ania 100
▁East 100
▁prost 100
▁10,000 100
▁spôsob 100
▁relative 100
▁بب 100
▁مض 100
▁أين 100
▁initi 100
▁seconds 100
rà 100
oes 100
uft 100
▁Tra 100
▁bek 100
▁san 100
▁stim 100
▁מיליון 100
▁לאי 100
▁studio 100
▁Another 100
▁content 100
▁throughout 100
ספר 100
unft 100
▁الأخرى 100
▁document 100
فعله 100
▁Cosa 100
licher 100
▁Which 100
▁police 100
▁underst 100
izzazione 100
טין 100
▁pag 100
▁درا 100
▁ثلاثة 100
▁الخاصة 100
جر 100
ירות 100
plant 100
▁عليك 100
▁following 100
▁חוק 100
▁ספר 100
▁trou 100
▁production 100
urz 100
▁yeah 100
▁Pri 100
▁Spe 100
▁tento 100
▁spirit 100
▁plastic 100
أل 100
nes 100
álne 100
▁Raum 100
▁surr 100
▁هنالك 100
▁shared 100
áz 100
alen 100
bert 100
itor 100
▁App 100
rogen 100
▁AIDS 100
▁לחלו 100
▁رؤية 100
▁astron 100
▁levels 100
عين 100
ggio 100
درسة 100
▁קוד 100
وانات 100
▁דולר 100
▁الكل 100
▁bekommen 100
▁מהמ 100
pping 100
ichten 100
▁compr 100
га 100
▁تكن 100
orrow 100
▁نحتاج 100
▁trasform 100
▁veci 100
▁politics 100
▁Washington 100
lím 100
tra 100
קיי 100
▁שר 100
▁منه 100
▁adapt 100
▁demon 100
▁environmental 100
סו 100
wers 100
▁whe 100
▁luog 100
קל 100
▁ولم 100
▁تحدث 100
▁invece 100
▁sprechen 100
ויים 100
▁מחו 100
▁page 100
▁حقيقة 100
imenti 100
▁vostro 100
ركز 100
ella 100
meno 100
▁merc 100
▁paesi 100
enen 100
وسيقى 100
▁cart 100
▁crim 100
▁precis 100
▁להע 100
iscono 100
ishing 100
▁decade 100
▁bef 100
▁erre 100
inu 100
▁tú 100
▁ban 100
▁veh 100
▁صحيح 100
▁النوع 100
▁beauty 100
▁driving 100
▁Ö 100
fte 100
▁ple 100
▁الأع 100
▁עלינו 100
▁earlier 100
▁greater 100
▁للإ 100
פורים 100
▁مجرد 100
▁Organ 100
▁semplic 100
جعل 100
uale 100
ardo 100
aufen 100
▁bewe 100
▁walked 100
▁immediately 100
ליות 100
▁Mex 100
▁org 100
▁math 100
▁vier 100
▁method 100
ums 100
anta 100
▁Vers 100
▁piccolo 100
▁ä 100
cke 100
hli 100
▁ها 100
ktiv 100
▁Gli 100
▁החל 100
▁nation 100
▁describ 100
עד 100
فظ 100
ľad 100
▁را 100
▁Weg 100
هرب 100
annt 100
water 100
▁destro 100
aul 100
▁הגי 100
▁strum 100
▁الانت 100
ظيم 100
ناه 100
▁Gro 100
▁وكل 100
sehen 100
▁الكب 100
▁جديد 100
▁calcul 100
▁fantastic 100
ibo 100
son 100
سمى 100
▁45 100
▁חוד 100
▁glass 100
▁riguard 100
قص 100
▁sagt 100
▁veľk 100
▁Twitter 100
ابل 100
apes 100
▁הדי 100
▁Iraq 100
▁שונה 100
▁Mc 100
iono 100
ברות 100
▁tej 100
▁consequ 100
band 100
▁Denn 100
▁أصبح 100
itation 100
▁prendere 100
omp 100
▁שכל 100
▁kleinen 100
▁NA 100
▁שאם 100
▁مسا 100
▁anti 100
▁الشب 100
▁accord 100
ec 100
ibi 100
▁הפי 100
▁שום 100
▁كال 100
▁total 100
▁Bar 100
▁ded 100
▁الحصول 100
▁вы 100
▁bord 100
▁sprá 100
▁بهذه 100
▁lungo 100
▁siete 100
▁الهند 100
▁various 100
ôž 100
لد 100
صبحت 100
▁אותן 100
▁באותו 100
▁cambiare 100
aren 100
▁Col 100
▁ktorí 100
bel 100
nosti 100
▁2008 100
▁نعرف 100
▁version 100
▁المؤ 100
▁vot 100
▁perce 100
▁raggi 100
reprene 100
▁leader 100
▁specif 100
▁values 100
▁physics 100
мі 100
בט 100
▁بناء 100
▁prest 100
▁בשביל 100
IT 100
صنع 100
gung 100
▁أرد 100
▁forth 100
▁terra 100
כונה 100
▁Ele 100
▁dan 100
▁תנו 100
ended 100
▁gent 100
▁durante 100
▁pressure 100
let 100
los 100
richt 100
▁settim 100
▁planets 100
▁therefore 100
cu 100
used 100
▁See 100
▁weniger 100
play 100
ריקה 100
▁יצי 100
▁הספר 100
▁comfort 100
ado 100
▁نرى 100
▁origin 100
▁scuola 100
ateľ 100
▁tit 100
מור 100
▁prv 100
▁בטוח 100
▁posso 100
▁וגם 100
ej 100
▁Hey 100
▁מוח 100
elesc 100
▁harm 100
▁direction 100
▁organizations 100
גן 100
ריק 100
▁Ende 100
▁dare 100
▁עבודה 100
scheinlich 100
▁colleagues 100
▁communicate 100
▁Em 100
▁לתת 100
▁Iran 100
▁Think 100
بية 100
fühl 100
▁cro 100
▁rand 100
▁summer 100
▁75 100
▁لكل 100
phone 100
▁condu 100
▁ship 100
anning 100
▁oppos 100
ructure 100
▁sicher 100
▁strutt 100
▁collective 100
usi 100
▁heiß 100
▁נשים 100
▁whose 100
▁النظر 100
▁בל 100
▁dram 100
▁fuel 100
▁uses 100
רונה 100
icher 100
▁sull 100
▁Technologie 100
▁slide 100
▁fortun 100
عتبر 100
▁ton 100
▁rise 100
▁catch 100
▁משתמשים 100
▁arbeiten 100
▁informazioni 100
rä 100
طح 100
ארד 100
▁سم 100
▁Nie 100
▁fel 100
▁האו 100
▁vict 100
▁المسا 100
▁engineering 100
occ 100
ción 100
eler 100
▁بسي 100
▁تعمل 100
▁وجود 100
▁לבנות 100
▁לשנות 100
▁install 100
▁unseren 100
ená 100
pite 100
▁Poi 100
ufact 100
▁מחדש 100
▁quali 100
▁fotograf 100
▁interview 100
▁note 100
▁لديك 100
▁ahead 100
ließ 100
▁cere 100
▁magic 100
▁mostr 100
▁decide 100
▁female 100
▁spesso 100
▁الفكرة 100
▁Western 100
▁comport 100
blém 100
iner 100
▁לוק 100
▁doch 100
▁tens 100
▁occup 100
▁adesso 100
▁helped 100
שור 100
▁legg 100
▁occhi 100
▁speaking 100
▁Wissenschaft 100
key 100
uls 100
▁sn 100
▁לכן 100
▁לפע 100
▁luce 100
▁parole 100
ruck 100
▁mos 100
▁מול 100
▁الإنس 100
▁مب 100
izia 100
▁cod 100
▁ves 100
▁Many 100
▁board 100
▁spolo 100
▁الحك 100
▁appre 100
ley 100
▁Sel 100
▁Pres 100
▁types 100
▁לעבוד 100
▁understood 100
ancy 100
▁ber 100
▁اكت 100
▁mezzo 100
net 100
طلق 100
▁يس 100
uted 100
▁rov 100
▁vengono 100
əd 100
▁بوا 100
▁Niger 100
▁nehmen 100
▁الدماغ 100
▁Möglich 100
▁strange 100
▁workers 100
▁Two 100
▁ואי 100
▁ثلاث 100
▁encou 100
▁stret 100
▁useful 100
وظ 100
▁frequ 100
علق 100
▁Gu 100
lands 100
▁Your 100
▁fest 100
▁להגיע 100
▁quelli 100
▁journal 100
▁مه 100
stoff 100
▁mano 100
▁prep 100
▁livello 100
▁bedeutet 100
▁enormous 100
سن 100
כלה 100
▁أر 100
▁טובה 100
▁يعرف 100
ending 100
▁Stati 100
▁مشكلة 100
▁בבית 100
▁career 100
▁מכיוון 100
▁central 100
oma 100
▁لديه 100
▁broad 100
▁שיכול 100
▁begann 100
▁honest 100
▁electron 100
-2 100
ביבה 100
▁surve 100
▁welche 100
▁prav 100
▁Instead 100
▁atmosphere 100
▁за 100
صال 100
▁ההת 100
▁random 100
sp 100
emi 100
raj 100
▁יח 100
נסות 100
▁Web 100
▁Schl 100
▁umani 100
▁conosc 100
▁effetti 100
▁invented 100
aj 100
תיות 100
▁هكذا 100
▁sapete 100
omi 100
under 100
▁race 100
▁terrible 100
בח 100
▁Keď 100
▁vast 100
▁نهاية 100
▁بالطبع 100
aw 100
שם 100
fin 100
▁indic 100
▁temperature 100
▁Son 100
ständ 100
omini 100
organ 100
▁sulle 100
▁affect 100
▁sick 100
▁Uniti 100
▁المثال 100
reme 100
▁Nob 100
▁להש 100
▁hack 100
▁يمكنكم 100
حل 100
▁0 100
cip 100
▁tal 100
▁From 100
▁active 100
▁versch 100
▁تقريبا 100
▁entreprene 100
مار 100
שינו 100
▁druh 100
▁dance 100
▁anyway 100
▁iniziato 100
זם 100
iles 100
▁Bang 100
▁giov 100
▁والآ 100
▁shift 100
▁بصورة 100
▁المشكلة 100
▁complete 100
RI 100
▁22 100
موذج 100
▁ore 100
▁sui 100
▁loss 100
▁invis 100
▁teraz 100
▁societies 100
wise 100
▁ogg 100
▁והמ 100
cules 100
▁darauf 100
▁السؤال 100
▁listening 100
▁99 100
ciate 100
▁streets 100
רב 100
▁expand 100
ras 100
▁Bo 100
▁Qual 100
▁neuro 100
▁סיפור 100
▁Dollar 100
▁Ď 100
▁ور 100
▁מצי 100
▁מתחי 100
▁migliore 100
▁ملا 100
▁البر 100
mon 100
rát 100
šli 100
▁فال 100
▁للع 100
aling 100
▁יוצא 100
▁أخبر 100
▁surger 100
▁relationships 100
čí 100
فه 100
▁המע 100
▁Quello 100
▁الجميع 100
ריך 100
ande 100
▁vul 100
▁أعرف 100
▁digit 100
▁laugh 100
▁risol 100
ogliamo 100
▁الماضي 100
▁sappiamo 100
uh 100
שיך 100
ácie 100
▁aid 100
▁alto 100
▁habit 100
▁stress 100
əm 100
דמה 100
طلب 100
قاط 100
resh 100
▁dato 100
razione 100
▁kleine 100
▁communication 100
sc 100
▁flying 100
▁miglia 100
▁remarkable 100
סל 100
جز 100
קהי 100
وتر 100
ping 100
▁fer 100
▁أرب 100
▁يريد 100
▁corru 100
▁malatt 100
بح 100
▁Av 100
▁מהר 100
▁mapp 100
▁suoi 100
▁אתכם 100
▁piace 100
▁closer 100
▁kilomet 100
▁instance 100
▁devices 100
▁miliardi 100
▁emotional 100
ále 100
▁deve 100
▁pazi 100
▁שאתה 100
▁Gener 100
uttosto 100
▁forget 100
ube 100
وسط 100
▁לז 100
▁أغ 100
▁Tut 100
▁בעלי 100
ierten 100
▁manufact 100
קרו 100
aupt 100
oren 100
▁pov 100
▁Sache 100
▁seemed 100
▁النساء 100
▁у 100
▁הכו 100
▁ecco 100
▁pross 100
▁highly 100
▁cellule 100
ım 100
راد 100
osso 100
▁hall 100
▁Computer 100
ciò 100
▁Bab 100
icken 100
▁explore 100
▁الخلايا 100
arter 100
orsch 100
▁أقول 100
▁mostly 100
▁stopped 100
▁immagine 100
اتي 100
▁Take 100
▁corr 100
▁Great 100
▁paint 100
سمح 100
erap 100
▁worst 100
▁Voglio 100
▁meeting 100
▁connection 100
نظر 100
ورك 100
▁sb 100
▁quei 100
▁النظام 100
viamente 100
ці 100
▁Stadt 100
▁directly 100
▁teaching 100
šte 100
▁hole 100
▁vostra 100
▁programs 100
eni 100
▁uomini 100
▁problém 100
ims 100
▁قط 100
▁dynam 100
▁trade 100
▁mountain 100
olt 100
كال 100
▁Bro 100
▁1,000 100
▁serve 100
▁كثيرا 100
▁היחי 100
izzato 100
▁dying 100
▁stessi 100
▁survive 100
▁ca 100
▁voll 100
▁Warum 100
▁Instit 100
▁histor 100
▁הולכים 100
▁ancient 100
▁independ 100
sem 100
eden 100
▁להראות 100
▁bringen 100
حب 100
▁أل 100
▁אפש 100
ibili 100
▁Braz 100
▁religion 100
▁infrastructure 100
مد 100
ודו 100
▁מהא 100
▁העבודה 100
▁express 100
fs 100
ابي 100
ارت 100
راع 100
remo 100
▁وجد 100
▁rein 100
▁möglich 100
olly 100
ritto 100
▁الريا 100
▁networks 100
ika 100
▁أث 100
ends 100
vole 100
▁المحيط 100
▁Einstein 100
äčš 100
▁המא 100
anten 100
▁giorni 100
غط 100
راج 100
▁بج 100
ners 100
قيقي 100
▁Rep 100
iving 100
▁cibo 100
▁tent 100
▁منهم 100
cem 100
▁erw 100
▁بكل 100
cchio 100
▁brauchen 100
▁مرت 100
▁Mein 100
▁diss 100
olf 100
▁unc 100
reste 100
▁Part 100
▁effects 100
med 100
ריה 100
▁شا 100
כלים 100
▁ihm 100
▁inspired 100
▁scoperto 100
nut 100
áto 100
טרה 100
▁Big 100
▁عنه 100
▁بدون 100
atically 100
▁US 100
لاقة 100
▁vás 100
▁נות 100
▁Poss 100
jen 100
▁ذا 100
▁saf 100
ovali 100
▁benut 100
▁prime 100
▁troppo 100
lin 100
▁סרט 100
antic 100
ltre 100
▁Over 100
▁אחרת 100
▁سبيل 100
▁although 100
▁experiences 100
▁sustainable 100
iges 100
▁194 100
▁blog 100
▁ecos 100
▁seit 100
▁نوعا 100
▁infin 100
▁practice 100
▁ost 100
▁להח 100
▁عدة 100
▁2010 100
▁beste 100
lər 100
ميل 100
▁Sk 100
▁اب 100
▁hung 100
▁rare 100
aced 100
anging 100
▁משמעות 100
▁Ved 100
ienza 100
▁Stra 100
▁risposta 100
rí 100
נע 100
rench 100
▁idee 100
▁stem 100
▁prend 100
▁surprising 100
جب 100
▁Nord 100
▁noticed 100
▁מים 100
eremo 100
▁assist 100
▁custom 100
▁gesehen 100
▁markets 100
ago 100
urb 100
בנה 100
▁أنفس 100
▁below 100
inander 100
▁Indian 100
▁convin 100
▁capacity 100
▁semplicemente 100
▁Du 100
▁مي 100
ront 100
כולת 100
وضوع 100
▁تبدو 100
▁campa 100
▁raise 100
▁strada 100
▁piuttosto 100
▁experiments 100
غب 100
סיה 100
▁Sta 100
▁Arab 100
alog 100
▁drop 100
סון 100
▁verg 100
▁رائع 100
▁avevano 100
▁pianeta 100
bur 100
chu 100
oti 100
انون 100
▁מוש 100
▁מצא 100
▁micr 100
▁causes 100
▁speech 100
יד 100
äft 100
זרה 100
ריים 100
▁عشر 100
▁shock 100
وبة 100
chio 100
▁نريد 100
▁eigentlich 100
рэ 100
טת 100
▁ou 100
▁Dob 100
▁Tit 100
▁Arch 100
▁تريد 100
ivamente 100
▁purpose 100
رجة 100
▁23 100
▁ואת 100
▁שמש 100
▁perd 100
ilen 100
▁Danke 100
▁cento 100
▁campaign 100
רוע 100
ائل 100
▁hus 100
▁weap 100
▁aware 100
▁reflect 100
▁published 100
yle 100
▁Zuk 100
▁כאלה 100
▁profound 100
▁consciousness 100
ся 100
בתי 100
▁Bi 100
▁יע 100
ובות 100
▁bag 100
▁הבא 100
▁שהמ 100
▁mali 100
▁ללכת 100
▁Seite 100
قاء 100
▁contact 100
▁molecules 100
▁rappresent 100
át 100
hel 100
▁fal 100
board 100
čnosti 100
▁Europa 100
▁ungl 100
▁epidem 100
▁inizio 100
▁respect 100
▁capacità 100
opf 100
▁ومع 100
كب 100
grees 100
▁האדם 100
lement 100
▁cultural 100
פא 100
פוס 100
ارية 100
▁Asia 100
▁appar 100
▁großen 100
▁Zukunft 100
ota 100
▁جن 100
iteľ 100
usst 100
▁Som 100
▁spra 100
▁الإن 100
▁Islam 100
▁Thanks 100
▁potere 100
▁artifici 100
▁demonstr 100
ريس 100
▁יל 100
pret 100
▁Gru 100
▁שבע 100
▁عرض 100
▁כיום 100
▁المب 100
▁nuova 100
▁المال 100
▁אומרים 100
▁designers 100
قم 100
ליה 100
רופה 100
▁gran 100
▁paid 100
▁מאות 100
▁עובד 100
▁domin 100
▁Vielen 100
▁الأمور 100
▁Energie 100
▁interno 100
▁algorith 100
rig 100
▁اس 100
etzen 100
▁mesi 100
▁rule 100
▁השנים 100
▁supply 100
▁obvious 100
▁legal 100
▁pubblico 100
gia 100
▁شع 100
▁סביב 100
▁السبب 100
פע 100
פתח 100
ativo 100
▁isol 100
oló 100
▁تو 100
unter 100
▁degrees 100
▁malaria 100
▁raccont 100
▁differently 100
nu 100
ismus 100
▁myster 100
שיתי 100
▁Tom 100
▁nez 100
▁park 100
▁تغير 100
▁analy 100
▁carto 100
▁المكان 100
▁التكنولوجيا 100
üh 100
vin 100
סטי 100
▁tap 100
inary 100
▁mult 100
▁piano 100
▁smell 100
▁נש 100
▁سر 100
▁nas 100
▁وبال 100
▁הבעיה 100
▁Planet 100
▁popular 100
בק 100
سون 100
▁inj 100
▁להר 100
▁اكثر 100
▁Weise 100
▁الكون 100
▁missing 100
zlich 100
▁incont 100
حات 100
▁Far 100
▁mix 100
▁צעי 100
▁hair 100
▁تقول 100
▁حياة 100
▁فيما 100
yn 100
▁أهم 100
▁außer 100
▁basis 100
▁ş 100
▁naz 100
▁الكم 100
▁rough 100
▁philos 100
▁Mr 100
▁يا 100
▁אופ 100
▁קיי 100
▁صنع 100
arian 100
▁Frau 100
▁cogn 100
▁nerv 100
▁بينما 100
זים 100
▁vys 100
▁ניס 100
▁ארבע 100
▁נכנס 100
▁velo 100
▁الحر 100
▁produced 100
▁scientist 100
קן 100
קשר 100
وعة 100
▁הבר 100
aften 100
▁السل 100
▁feels 100
▁wenig 100
▁تغيير 100
▁aspett 100
▁cinque 100
▁slightly 100
aur 100
نان 100
▁عاما 100
▁forces 100
▁members 100
▁التفكير 100
▁famiglia 100
raid 100
▁إنت 100
▁hous 100
atives 100
▁tratt 100
▁cominc 100
▁website 100
▁industrial 100
ומרים 100
▁السر 100
▁Körper 100
▁original 100
▁possibly 100
▁responsibility 100
ozaj 100
▁pig 100
▁nearly 100
اط 100
زن 100
ünf 100
armi 100
ádza 100
▁קרי 100
▁שמו 100
▁לדוג 100
▁Milli 100
تهم 100
ناس 100
▁Eg 100
▁Bud 100
▁erf 100
▁etc 100
▁crow 100
▁الفر 100
▁sport 100
▁cooper 100
▁ganzen 100
▁acceler 100
reg 100
مان 100
▁heat 100
▁task 100
▁الشم 100
▁Times 100
▁بحاجة 100
▁afraid 100
▁שאנשים 100
▁globale 100
▁costruire 100
win 100
מנים 100
▁Hum 100
▁קרו 100
▁riusc 100
▁lights 100
koľ 100
▁wire 100
ashion 100
▁demand 100
▁esperienza 100
azz 100
שובה 100
▁poet 100
▁לדעת 100
▁dachte 100
▁Nor 100
▁Good 100
▁colon 100
▁שנקרא 100
▁وهناك 100
▁protot 100
عيش 100
▁כולנו 100
▁succede 100
الب 100
▁וזו 100
▁ולמ 100
▁جزي 100
▁بالإ 100
▁Menge 100
▁tough 100
▁الصور 100
▁infect 100
▁macchina 100
nah 100
ורק 100
נטים 100
▁máis 100
▁corner 100
▁platform 100
rire 100
فاعل 100
▁כוח 100
▁seed 100
▁schle 100
▁played 100
▁moments 100
▁tremend 100
▁gotten 100
▁vediamo 100
سان 100
גרים 100
▁כסף 100
▁Fort 100
▁lavorare 100
▁landscape 100
gno 100
▁ذه 100
▁Los 100
▁Groß 100
▁להבי 100
▁prepar 100
حيث 100
▁الجن 100
▁avanti 100
▁princip 100
lá 100
ické 100
mark 100
reng 100
▁gun 100
▁מנת 100
▁budú 100
▁الدا 100
▁جيدة 100
bri 100
oca 100
▁بك 100
▁نفسه 100
▁matem 100
▁offer 100
▁גדולה 100
▁hearing 100
▁mas 100
▁seas 100
▁match 100
▁nessuno 100
▁completamente 100
kte 100
عام 100
▁שש 100
aden 100
ersi 100
▁Met 100
▁wis 100
▁שמא 100
iando 100
▁מדוע 100
▁חושבת 100
▁potreb 100
▁surround 100
▁condition 100
▁cambiamento 100
▁gh 100
idden 100
▁Pati 100
▁allen 100
▁possa 100
▁الماء 100
▁states 100
▁animali 100
▁sharing 100
▁opin 100
▁منكم 100
▁twice 100
▁عملية 100
ception 100
ij 100
ברו 100
▁2. 100
▁none 100
▁Produ 100
essi 100
واجه 100
▁Did 100
▁להפ 100
▁بنفس 100
▁وذلك 100
▁اعتقد 100
▁answers 100
▁biological 100
▁significant 100
כתי 100
سرعة 100
▁His 100
▁MIT 100
▁easily 100
▁evolved 100
▁democrat 100
olar 100
▁كون 100
lu 100
▁Vir 100
▁aper 100
▁ba 100
▁خارج 100
▁مل 100
▁أحب 100
▁قلت 100
▁vent 100
▁الأمري 100
ckt 100
▁27 100
نامج 100
house 100
▁cand 100
▁telef 100
جار 100
▁איש 100
▁לפי 100
▁babies 100
▁forever 100
▁addition 100
▁sen 100
▁fully 100
▁ragazzi 100
▁diversity 100
hin 100
opt 100
▁intu 100
סטוריה 100
▁eating 100
▁correct 100
▁designer 100
nom 100
سطة 100
▁שמי 100
▁מתוך 100
▁differences 100
št 100
ياس 100
▁Ve 100
▁fro 100
▁قصة 100
▁القد 100
▁שינוי 100
▁genome 100
▁helping 100
▁ki 100
▁avo 100
▁giant 100
▁gather 100
▁creativity 100
▁وف 100
ondi 100
▁Ort 100
▁oft 100
▁2009 100
▁máme 100
reiben 100
▁oltre 100
▁pensato 100
▁surgery 100
▁spl 100
▁إست 100
▁frame 100
▁appena 100
▁ultimi 100
▁structures 100
▁nad 100
▁miglior 100
▁المجتمع 100
▁שצ 100
istry 100
▁السن 100
▁الصغيرة 100
öl 100
راك 100
vant 100
▁nes 100
▁الموج 100
▁bought 100
▁broken 100
otic 100
▁החו 100
▁מעל 100
▁Will 100
▁nome 100
▁vulner 100
▁probabilmente 100
vr 100
▁כנ 100
▁רח 100
שרים 100
▁nen 100
▁شكل 100
occup 100
▁القاد 100
▁وبالت 100
▁tissue 100
odi 100
▁forg 100
▁nich 100
▁dentro 100
▁Richard 100
▁فن 100
wand 100
▁הלי 100
▁מהי 100
▁spot 100
▁لديها 100
▁turning 100
ورا 100
▁והא 100
atura 100
▁mission 100
▁spending 100
▁רב 100
▁Questi 100
▁genere 100
▁kraj 100
▁photo 100
▁gentle 100
▁affront 100
▁bambino 100
▁المستقبل 100
▁institution 100
וגי 100
▁ад 100
ques 100
▁Red 100
gener 100
▁nello 100
▁corpor 100
▁sapere 100
▁تف 100
▁תוך 100
▁hoch 100
▁Entwick 100
▁matters 100
▁اع 100
▁للق 100
▁iron 100
▁jeho 100
▁القص 100
▁versuchen 100
ris 100
שיר 100
سبوع 100
▁Mol 100
▁bees 100
▁keinen 100
ня 100
بعض 100
orie 100
unst 100
▁מכם 100
▁Erde 100
▁core 100
▁moon 100
▁صغير 100
▁electr 100
▁תקו 100
▁اعت 100
▁prove 100
▁חשבתי 100
▁improv 100
▁incent 100
plex 100
▁More 100
▁geni 100
▁agree 100
▁نم 100
טיבי 100
▁Kar 100
▁קול 100
bleme 100
▁يجعل 100
▁Again 100
▁dello 100
▁photos 100
▁reduce 100
▁vielen 100
▁الطريق 100
tex 100
וות 100
▁sah 100
▁catt 100
شيء 100
aker 100
▁לפת 100
جتماعية 100
▁window 100
edia 100
▁flight 100
▁الأكثر 100
це 100
acc 100
▁join 100
▁river 100
▁partners 100
▁والع 100
▁giusto 100
▁importantly 100
خي 100
eld 100
ئلة 100
ادي 100
▁nep 100
▁הרי 100
▁הגיע 100
▁ללמוד 100
▁Moment 100
▁artists 100
شاء 100
ikan 100
▁מוכ 100
▁Buch 100
▁teen 100
▁מתכו 100
▁birds 100
erà 100
לון 100
פחה 100
ارع 100
شري 100
▁ма 100
▁Ged 100
▁enter 100
▁להפוך 100
▁والآن 100
▁disord 100
▁הסיפור 100
▁knowing 100
سمع 100
▁מבו 100
▁espl 100
▁funny 100
▁später 100
itz 100
mas 100
שימה 100
▁ترى 100
▁معد 100
▁2007 100
▁Jetzt 100
▁meters 100
▁farmers 100
رح 100
▁cla 100
▁quad 100
▁يفعل 100
▁imagination 100
iett 100
▁wood 100
▁لهذه 100
▁causa 100
▁أصبحت 100
▁ستكون 100
▁všetko 100
▁unglaub 100
▁complexity 100
▁أست 100
▁Potlesk 100
زر 100
ויר 100
▁וד 100
cles 100
شارك 100
▁عمر 100
▁مدى 100
urale 100
▁bomb 100
▁schl 100
▁processo 100
imensional 100
זון 100
othes 100
▁fand 100
▁airpl 100
▁umano 100
▁vista 100
▁grazie 100
▁virtual 100
▁bringing 100
▁television 100
▁Čo 100
nych 100
קרים 100
▁مجال 100
▁במהלך 100
וצאה 100
▁Ako 100
▁أنك 100
▁aggi 100
akujem 100
▁המידע 100
▁gesagt 100
▁מיליארד 100
ened 100
בלתי 100
סתכל 100
ודי 100
ופו 100
icks 100
▁התע 100
▁passed 100
▁However 100
alley 100
▁liqu 100
▁master 100
▁creates 100
▁Actually 100
▁entirely 100
▁ברח 100
legen 100
▁svoje 100
PS 100
▁תש 100
▁صوت 100
▁كام 100
▁mand 100
▁תהיה 100
▁Street 100
üm 100
ве 100
ham 100
ibr 100
ارا 100
قال 100
▁شب 100
otti 100
ساسية 100
▁Terra 100
▁מדהים 100
▁finger 100
ologists 100
▁leadership 100
▁קר 100
▁عب 100
uster 100
▁lack 100
▁advan 100
▁cheap 100
▁hovor 100
▁mente 100
▁switch 100
نف 100
▁احت 100
azine 100
▁أمري 100
▁Guard 100
▁implic 100
stellung 100
▁schaffen 100
wh 100
äus 100
هار 100
ائلة 100
▁neu 100
ively 100
tempt 100
▁agre 100
▁held 100
▁гэта 100
▁easier 100
▁eigenen 100
▁Audience 100
▁billions 100
מתי 100
▁až 100
ייקט 100
▁categ 100
▁enorme 100
כולם 100
ساطة 100
▁بدلا 100
▁party 100
ış 100
رين 100
▁قا 100
ests 100
▁Mag 100
▁Bewe 100
▁نكون 100
▁emiss 100
▁hätte 100
▁ignor 100
דל 100
heits 100
print 100
▁estab 100
▁mouth 100
▁popol 100
▁French 100
▁týchto 100
▁وش 100
עילות 100
ändert 100
▁أستطيع 100
▁بواسطة 100
▁diverso 100
isf 100
áme 100
▁nä 100
ائية 100
▁dot 100
based 100
▁בעיה 100
▁propr 100
▁Allora 100
▁oxygen 100
▁focused 100
▁glauben 100
▁באמצעות 100
ко 100
حاء 100
▁ko 100
▁var 100
▁NASA 100
▁fert 100
▁ktorú 100
▁trial 100
▁Bas 100
▁תוכ 100
▁فوق 100
▁Amaz 100
▁beim 100
▁vede 100
▁Siamo 100
▁אמרתי 100
▁spaces 100
▁British 100
chè 100
throp 100
▁kompl 100
▁עליהם 100
▁Israel 100
▁recover 100
▁trouble 100
čné 100
▁PM 100
▁קל 100
alsi 100
bild 100
oduch 100
▁bude 100
▁accad 100
▁stuck 100
▁Op 100
▁pap 100
ضة 100
vek 100
ولي 100
▁כח 100
▁hyd 100
gesch 100
▁vert 100
▁עצמי 100
▁galax 100
▁libro 100
▁المزيد 100
▁stellen 100
omy 100
▁למד 100
▁Cred 100
▁cert 100
▁להצי 100
▁absol 100
▁conto 100
▁دعونا 100
▁funktioniert 100
kr 100
עיל 100
▁Ur 100
vard 100
ysis 100
▁נעשה 100
▁calls 100
oration 100
▁piccola 100
▁تل 100
orse 100
gefähr 100
▁השאלה 100
▁الرئي 100
▁brings 100
▁dinosa 100
كتب 100
▁də 100
ding 100
▁pil 100
▁במח 100
▁veľa 100
▁describe 100
ку 100
term 100
▁מנה 100
▁الأد 100
▁להתחיל 100
▁accident 100
غر 100
log 100
▁Atl 100
eless 100
▁Bene 100
▁Life 100
▁shop 100
▁sviluppo 100
▁نش 100
▁התי 100
▁حالة 100
▁Natur 100
▁profession 100
ız 100
יין 100
▁hyp 100
▁Geme 100
▁poco 100
rieben 100
▁ancest 100
▁desert 100
▁lernen 100
טב 100
بغي 100
elte 100
▁jedes 100
▁Afrika 100
▁justice 100
▁investment 100
ees 100
▁600 100
▁Pal 100
▁nor 100
▁niem 100
▁شركة 100
▁engage 100
▁naozaj 100
▁Anderson 100
▁possibility 100
▁Bet 100
▁Sim 100
▁môj 100
▁קרה 100
apped 100
▁prem 100
ctions 100
rength 100
▁madre 100
▁guerra 100
ographic 100
▁Zwe 100
▁boys 100
▁sape 100
▁المش 100
▁Super 100
▁cloud 100
500 100
ליון 100
▁Mil 100
▁Sud 100
▁abst 100
▁Licht 100
▁donna 100
▁indem 100
▁Mutter 100
ظن 100
▁Pu 100
▁ופ 100
▁Uns 100
▁hod 100
icles 100
▁gall 100
▁Green 100
▁Spiel 100
▁exerc 100
▁figli 100
▁שלושה 100
▁Austral 100
▁konnten 100
▁regular 100
▁particolare 100
цца 100
וקר 100
بحث 100
שיים 100
▁Män 100
▁fle 100
▁rok 100
▁ešte 100
▁עליה 100
▁الرا 100
onders 100
▁equival 100
▁meravig 100
▁ragione 100
▁الإنترنت 100
▁vac 100
▁cure 100
▁تخيل 100
▁Antwort 100
▁irgendw 100
▁transpar 100
▁commercial 100
mu 100
זיק 100
arla 100
▁nik 100
▁מרו 100
▁فان 100
ietro 100
▁European 100
▁Francisco 100
aben 100
▁ďal 100
▁ובע 100
▁מבחי 100
▁svete 100
▁فل 100
▁Mat 100
▁Have 100
קב 100
uri 100
جابة 100
▁repe 100
▁wear 100
▁יהיו 100
▁الرجل 100
▁القرن 100
▁notion 100
▁identity 100
▁religious 100
orto 100
▁bio 100
bbero 100
▁Haus 100
▁George 100
▁Gesund 100
▁أود 100
▁ترك 100
ented 100
▁Augen 100
▁conos 100
▁אחרות 100
▁budget 100
جن 100
לינו 100
▁عنها 100
▁giorn 100
▁telesc 100
▁preoccup 100
už 100
ads 100
▁תו 100
▁בתי 100
▁طوي 100
▁مبا 100
▁רעיון 100
▁100,000 100
▁partner 100
cole 100
כונות 100
▁host 100
▁môže 100
▁مستوى 100
▁وكانت 100
▁definition 100
זל 100
حق 100
▁bil 100
▁ner 100
▁allo 100
▁poch 100
▁ascol 100
▁cercare 100
▁extreme 100
בוע 100
سين 100
فاع 100
▁та 100
▁biz 100
▁השו 100
▁fold 100
▁advant 100
▁attract 100
▁immagini 100
berg 100
oses 100
ulpt 100
▁Lie 100
▁vel 100
▁Mark 100
▁chip 100
aining 100
ruktur 100
▁campo 100
▁الممكن 100
▁bew 100
▁שיו 100
▁وصل 100
▁مثال 100
atamente 100
▁ambiente 100
▁studying 100
▁possibilità 100
ليات 100
קומות 100
ellschaft 100
▁strength 100
المي 100
امعة 100
▁Sun 100
izioni 100
▁tejto 100
▁nutzen 100
▁funziona 100
▁opposite 100
▁sì 100
nung 100
▁rom 100
▁Verb 100
▁חייבים 100
▁מקבלים 100
▁governo 100
طار 100
▁שפ 100
kých 100
▁scen 100
erebbe 100
▁heißt 100
▁motor 100
▁avrebbe 100
▁elements 100
▁majority 100
לוב 100
عاب 100
وها 100
lter 100
▁moj 100
▁להו 100
▁بحيث 100
minist 100
▁Would 100
▁walls 100
▁بكثير 100
▁commit 100
▁yellow 100
▁despite 100
▁modello 100
orre 100
▁kit 100
▁ומת 100
atures 100
▁ersch 100
▁תמונה 100
▁raised 100
جاه 100
eper 100
▁نست 100
▁ille 100
טל 100
chs 100
חתי 100
ativa 100
▁esist 100
▁museum 100
▁storie 100
nak 100
eding 100
ropri 100
▁noise 100
▁الأما 100
osition 100
▁cercando 100
▁öff 100
▁صنا 100
ležit 100
▁faces 100
▁previ 100
▁טובים 100
▁Selbst 100
ספ 100
vať 100
▁نع 100
▁טבע 100
▁Spra 100
▁niek 100
▁ster 100
▁وليس 100
▁shoot 100
▁foreign 100
יתנו 100
▁250 100
ionen 100
▁colors 100
▁fighting 100
ghi 100
bare 100
▁appe 100
▁bear 100
▁fünf 100
▁giro 100
▁לספר 100
▁שלוש 100
▁Frank 100
▁signal 100
▁progett 100
▁strategy 100
▁ultimately 100
שמע 100
▁بلا 100
▁failure 100
▁traffic 100
▁Probleme 100
ael 100
▁65 100
▁זק 100
▁ולכן 100
▁הילדים 100
ties 100
unge 100
▁Qui 100
known 100
▁chair 100
alsiasi 100
▁therap 100
▁attempt 100
oden 100
atico 100
▁bone 100
▁בעזרת 100
▁creato 100
▁phones 100
ification 100
uno 100
טרו 100
ünst 100
▁gam 100
▁faith 100
▁scienza 100
▁conference 100
ıq 100
تين 100
osis 100
ברתי 100
▁במע 100
▁שיה 100
▁coin 100
▁Kunst 100
▁Trans 100
▁neuen 100
▁parent 100
▁investig 100
▁Sometimes 100
gra 100
ffee 100
بيوتر 100
▁soil 100
ulations 100
▁Charles 100
ille 100
▁Pak 100
▁Bank 100
▁guid 100
▁valu 100
▁שונות 100
ologist 100
tenzione 100
▁opportunities 100
גור 100
▁Phil 100
▁proud 100
▁counter 100
▁childhood 100
حص 100
▁ра 100
bled 100
▁lat 100
itely 100
▁Wahr 100
▁فعله 100
▁parti 100
▁breast 100
▁brilli 100
▁double 100
▁fairly 100
▁seiner 100
▁sexual 100
▁radical 100
▁interpret 100
▁manip 100
▁stare 100
▁metaph 100
▁האחרונות 100
▁tremendous 100
שאר 100
osten 100
▁dobr 100
▁príbe 100
▁figured 100
▁organisms 100
▁phenomenon 100
جهزة 100
عاية 100
▁pau 100
▁grav 100
▁reve 100
▁coast 100
▁necessary 100
דן 100
▁صع 100
abili 100
▁מעניין 100
▁efficient 100
جي 100
▁רבות 100
▁prior 100
▁المرض 100
▁opened 100
▁negative 100
▁Australia 100
▁responsible 100
▁ax 100
▁פו 100
▁بعمل 100
▁نفسي 100
idente 100
isches 100
▁Kenya 100
▁betra 100
▁genug 100
▁microsc 100
מט 100
▁ור 100
▁اث 100
קלים 100
▁בכך 100
▁מני 100
▁modi 100
▁وعلى 100
▁dovuto 100
▁benefits 100
▁vogliamo 100
üs 100
צח 100
rend 100
▁comunic 100
▁Possiamo 100
כך 100
lep 100
olu 100
oval 100
▁למש 100
ciato 100
▁boat 100
▁sott 100
ography 100
▁pounds 100
▁leading 100
▁ecosystem 100
▁suffering 100
leg 100
the 100
ريت 100
صاب 100
ieht 100
▁neb 100
▁synth 100
▁Muslim 100
▁môžete 100
▁vivere 100
icamente 100
▁Harvard 100
▁kilometers 100
▁החד 100
▁paio 100
ulated 100
▁passato 100
נא 100
חלט 100
Tube 100
fahren 100
▁chiamato 100
وائ 100
uche 100
▁ההי 100
▁sess 100
▁destroy 100
▁holding 100
lə 100
▁Я 100
omm 100
▁وجه 100
▁fung 100
▁abbia 100
▁brother 100
▁fashion 100
▁Ďakujem 100
▁ungefähr 100
▁competition 100
▁šk 100
▁מאז 100
idents 100
▁YouTube 100
▁compared 100
zuf 100
ائج 100
صور 100
▁sozi 100
▁tour 100
▁العم 100
▁البحث 100
▁coffee 100
▁Vie 100
▁קודם 100
▁creatures 100
jav 100
פיע 100
ابق 100
▁רג 100
welt 100
▁fid 100
▁lucky 100
▁succe 100
▁display 100
▁engineers 100
هن 100
راف 100
זרים 100
▁Num 100
▁עומד 100
▁forza 100
artment 100
▁lesson 100
▁background 100
גני 100
▁لش 100
auer 100
ناها 100
▁Ave 100
▁בחו 100
▁عدم 100
▁bound 100
▁nuove 100
▁recon 100
▁להגיד 100
▁مدينة 100
▁bridge 100
▁emotions 100
mar 100
▁إي 100
▁arte 100
▁חדשה 100
▁מגיע 100
▁stava 100
▁veget 100
▁Nigeria 100
▁insects 100
▁separate 100
▁وبالتالي 100
▁discovery 100
▁ככל 100
▁roku 100
▁עצמו 100
▁وهكذا 100
▁antibi 100
▁particles 100
ompl 100
▁שהא 100
▁للن 100
alten 100
ester 100
▁zone 100
forest 100
▁simpl 100
▁Mensch 100
▁במיוחד 100
▁distance 100
▁migliaia 100
▁nächsten 100
▁qualsiasi 100
▁الحيوانات 100
цы 100
vet 100
zzi 100
▁Mid 100
▁indietro 100
▁wahrscheinlich 100
па 100
enty 100
▁vog 100
▁nasc 100
▁نعلم 100
▁newsp 100
▁بسرعة 100
▁معرفة 100
▁construct 100
▁diventare 100
ker 100
ואי 100
ואר 100
▁رس 100
ších 100
▁الحد 100
فز 100
car 100
קופ 100
cipl 100
▁Arm 100
▁pul 100
▁שזו 100
▁المهم 100
▁limited 100
▁Tu 100
▁Wow 100
▁Once 100
▁تفعل 100
▁helps 100
▁الحرب 100
▁analog 100
▁refuge 100
ме 100
hrer 100
onti 100
▁GPS 100
▁novel 100
▁weird 100
▁profit 100
▁empower 100
▁husband 100
жа 100
▁joy 100
▁نصف 100
▁שהיו 100
▁refer 100
▁interv 100
▁الخارج 100
▁الرجال 100
▁unserem 100
ونه 100
umin 100
▁Paul 100
▁occas 100
▁events 100
▁invisible 100
סם 100
hes 100
▁חדשות 100
▁צריכה 100
▁caught 100
▁hidden 100
ays 100
▁esc 100
▁god 100
chmal 100
idade 100
▁gute 100
▁zeigt 100
▁Canada 100
▁mettere 100
▁rispetto 100
▁fondament 100
يران 100
▁majú 100
▁התחלתי 100
▁surprise 100
oko 100
orr 100
שיג 100
▁Dop 100
▁כוכ 100
▁Mart 100
▁fals 100
▁luogo 100
▁require 100
▁التعليم 100
▁studenti 100
حدى 100
izes 100
▁Mäd 100
▁לסי 100
▁Film 100
▁hell 100
▁sche 100
issimo 100
▁Three 100
▁embra 100
▁anders 100
▁grandm 100
▁חודשים 100
▁everyday 100
▁نج 100
▁tiež 100
▁2,000 100
▁studi 100
isschen 100
▁dimost 100
▁erzählen 100
גת 100
čen 100
مسة 100
ielt 100
rian 100
torno 100
▁ברור 100
▁הטבע 100
▁grass 100
▁herum 100
▁הסיבה 100
▁ينبغي 100
▁לחלוטין 100
▁jednoduch 100
imal 100
▁Child 100
▁morte 100
▁pleas 100
▁managed 100
▁privile 100
ded 100
סות 100
עור 100
צאת 100
cile 100
▁בפני 100
▁aller 100
▁Brazil 100
ارس 100
متلك 100
▁لمدة 100
▁amici 100
▁elekt 100
▁dollar 100
▁finished 100
▁Gh 100
▁إد 100
▁ecc 100
▁למו 100
▁بعي 100
▁James 100
▁تحتاج 100
▁sector 100
▁Projekt 100
▁mathematics 100
خا 100
zus 100
stvo 100
ראים 100
▁nos 100
▁tox 100
▁diet 100
▁sole 100
▁cycle 100
▁nejak 100
▁deeply 100
▁bisschen 100
▁confront 100
▁alternative 100
▁necessarily 100
pper 100
ären 100
וצאות 100
heiten 100
▁Exper 100
▁erinn 100
▁recht 100
▁Wissen 100
▁piccoli 100
פקי 100
خفض 100
bere 100
icip 100
לחמה 100
▁iPh 100
▁وسي 100
▁damage 100
▁sentito 100
▁studied 100
ilie 100
وبوت 100
▁Sec 100
▁King 100
▁باست 100
▁diret 100
▁لأننا 100
▁argument 100
▁unfortunately 100
כז 100
čas 100
▁بو 100
wend 100
▁jej 100
▁ori 100
▁שהן 100
▁School 100
▁pubblic 100
▁أفريقيا 100
▁believed 100
kaz 100
oman 100
▁ens 100
▁nav 100
▁ott 100
▁pas 100
▁כלל 100
▁insight 100
▁predstav 100
נוך 100
▁Ap 100
▁бы 100
▁ير 100
aped 100
ينية 100
▁gre 100
▁Dunque 100
▁contem 100
▁frustr 100
▁sosten 100
dimensional 100
ee 100
ppi 100
▁سل 100
edes 100
▁bun 100
▁edge 100
▁bread 100
▁veloce 100
▁מאיתנו 100
či 100
load 100
▁hol 100
▁שהי 100
ossen 100
▁puzz 100
▁نفعل 100
▁crash 100
▁leads 100
▁resol 100
▁vuole 100
▁القصة 100
▁begins 100
▁dreams 100
▁Angeles 100
▁compare 100
▁رأي 100
▁وكن 100
bling 100
קשורת 100
▁click 100
▁mouse 100
▁periodo 100
قيقية 100
▁equal 100
▁البدا 100
▁oceans 100
▁domande 100
▁Ah 100
zess 100
▁úpl 100
estic 100
▁1960 100
▁coal 100
▁gender 100
▁עובדים 100
تا 100
ופר 100
ליח 100
omas 100
▁لتح 100
▁توجد 100
▁חדשים 100
▁influen 100
bene 100
wide 100
יוני 100
▁Sto 100
▁avv 100
▁שבא 100
▁hate 100
▁המון 100
undert 100
▁sorry 100
▁testa 100
▁أنواع 100
▁vá 100
izin 100
▁Each 100
▁gift 100
▁porta 100
▁לנסות 100
▁centro 100
▁rozhod 100
▁všetky 100
▁benefit 100
▁planning 100
▁Milliarden 100
čiť 100
abet 100
▁ממו 100
▁2005 100
▁Stan 100
▁bird 100
▁trill 100
▁לגרום 100
▁galaxies 100
▁differenza 100
▁ovviamente 100
خط 100
esa 100
▁36 100
▁scr 100
▁مرض 100
gehen 100
▁como 100
▁الات 100
▁Queste 100
▁balance 100
▁intorno 100
تر 100
anes 100
▁cav 100
▁elim 100
▁verd 100
▁במדי 100
▁النو 100
▁crime 100
▁מדברים 100
▁crescita 100
בן 100
äll 100
▁החלט 100
▁accur 100
▁impro 100
▁Darwin 100
▁closed 100
▁fellow 100
▁helfen 100
▁restaur 100
▁shouldn 100
▁wearing 100
▁الماضية 100
هذا 100
▁ככה 100
▁Very 100
▁otáz 100
▁rend 100
▁trip 100
achsen 100
▁Credo 100
▁truck 100
▁رائعة 100
▁kennen 100
▁proced 100
▁creation 100
▁intellect 100
▁cominciato 100
erò 100
▁كن 100
▁לאח 100
▁رجل 100
▁lange 100
▁consequences 100
agna 100
äche 100
לומר 100
▁fing 100
▁salv 100
▁scene 100
▁الحديث 100
ודת 100
▁Bere 100
▁reti 100
▁bauen 100
▁exhib 100
▁cultura 100
▁trovato 100
gin 100
kan 100
ulf 100
▁לשם 100
▁syst 100
▁שאין 100
▁والد 100
▁بدأنا 100
▁richtig 100
iu 100
רכז 100
▁cie 100
▁dat 100
▁secolo 100
▁מסוגלים 100
▁agriculture 100
▁incredibile 100
aq 100
נסי 100
▁وض 100
onto 100
▁למח 100
▁متح 100
▁Wort 100
▁band 100
▁exch 100
▁מחשב 100
▁أليس 100
ancing 100
▁posti 100
▁حياتي 100
▁لأنها 100
▁signals 100
דק 100
לם 100
ike 100
isi 100
דאו 100
▁chann 100
▁circle 100
▁slowly 100
▁المدينة 100
▁followed 100
▁constantly 100
ورو 100
ieri 100
zieh 100
נהגות 100
▁ring 100
▁בעוד 100
▁שאלה 100
▁القا 100
▁Ideen 100
▁reale 100
▁למרות 100
▁الثلا 100
▁typical 100
▁fascinating 100
משיך 100
▁Cam 100
▁bright 100
▁continent 100
го 100
וקה 100
كات 100
وجه 100
unte 100
▁ucc 100
▁Does 100
▁المق 100
▁Planeten 100
כיר 100
▁II 100
rupt 100
סקים 100
▁zam 100
▁recy 100
▁susp 100
▁يعيش 100
▁equip 100
▁schwer 100
▁disappear 100
cil 100
vod 100
רוא 100
▁Sì 100
▁יצ 100
▁Alz 100
ulous 100
▁משנה 100
▁adopt 100
▁erken 100
▁الجزء 100
▁مشروع 100
▁observ 100
▁leaving 100
▁mercato 100
▁باستخدام 100
▁אג 100
▁يؤ 100
alle 100
ומות 100
▁gig 100
riage 100
▁chim 100
▁נפלא 100
lection 100
▁desire 100
ýš 100
tov 100
ובדה 100
▁Sat 100
▁ned 100
▁ילד 100
leben 100
מינים 100
▁cook 100
▁date 100
▁רואה 100
▁stamp 100
▁sympt 100
▁لكنها 100
▁failed 100
▁multiple 100
▁satellite 100
▁researchers 100
hö 100
▁Kor 100
▁unf 100
▁Port 100
▁adults 100
▁replic 100
▁related 100
▁survival 100
▁straordin 100
DP 100
spe 100
ساسي 100
▁Pub 100
▁الصحي 100
▁Mexico 100
▁aument 100
▁debate 100
▁sculpt 100
▁á 100
jek 100
▁لس 100
ובים 100
▁asi 100
▁התא 100
▁ماي 100
quality 100
▁expert 100
▁motivo 100
▁môžeme 100
طية 100
ملة 100
▁Alex 100
▁איפה 100
▁מעבר 100
▁ricon 100
▁الامر 100
uli 100
ختي 100
allo 100
izio 100
▁gör 100
akter 100
▁geme 100
▁pace 100
▁אוכל 100
▁fresh 100
▁Amazon 100
▁Germany 100
ונה 100
موع 100
▁Lu 100
▁طفل 100
שורים 100
▁החלק 100
▁جزيلا 100
▁Michael 100
וחר 100
ופה 100
أخذ 100
▁אד 100
ختبر 100
▁anf 100
▁weg 100
▁Arten 100
▁names 100
▁curious 100
▁טכנולוגיה 100
לל 100
רוק 100
ammo 100
athy 100
ونها 100
▁מוג 100
تمعات 100
▁tomu 100
▁אמרו 100
▁חייב 100
▁اللا 100
rative 100
▁מתחילים 100
anu 100
äre 100
לול 100
حدا 100
essed 100
▁jede 100
▁soul 100
▁whom 100
▁מעור 100
▁أبدا 100
▁تصبح 100
chnitt 100
ologie 100
▁avoid 100
▁spieg 100
▁מבינים 100
▁المياه 100
▁received 100
▁mentioned 100
▁professional 100
ואה 100
▁ام 100
ربما 100
▁Chi 100
▁rub 100
ingly 100
▁الإست 100
▁succeed 100
auj 100
▁מוק 100
▁arms 100
▁אוהב 100
itness 100
▁steps 100
▁povedal 100
▁النهاية 100
▁؛ 100
eria 100
▁earn 100
▁hero 100
▁meat 100
▁bevor 100
▁Center 100
▁degree 100
▁salute 100
▁Mädchen 100
פיה 100
يانا 100
▁bat 100
▁הני 100
▁ارت 100
▁tick 100
ovanie 100
bringen 100
▁manage 100
▁chiesto 100
én 100
ťaž 100
ppen 100
▁seg 100
gency 100
place 100
right 100
▁1990 100
▁dens 100
▁pure 100
▁serie 100
▁replace 100
▁meravigli 100
ahn 100
estra 100
▁الخي 100
▁يصبح 100
hnlich 100
uments 100
▁Krank 100
▁caused 100
▁wisdom 100
▁Wirtschaft 100
▁Informationen 100
▁Sl 100
▁فا 100
▁Sil 100
▁הטי 100
▁بنا 100
chter 100
▁Last 100
▁deli 100
▁أعني 100
▁ذهبت 100
▁quote 100
abilità 100
▁movies 100
▁musica 100
▁يستخدم 100
ít 100
▁תת 100
▁بس 100
plom 100
▁wid 100
▁homes 100
▁invited 100
▁trained 100
attamente 100
▁otherwise 100
أكيد 100
ربون 100
gramm 100
uries 100
▁בשנה 100
▁إليه 100
▁النت 100
ondere 100
▁liegt 100
▁mohli 100
▁round 100
▁dispos 100
-19 100
זרח 100
▁Sy 100
isse 100
▁Rem 100
▁Tre 100
▁nan 100
▁لدى 100
ultur 100
▁Gebä 100
▁מתחת 100
▁الحل 100
▁Nicht 100
▁argue 100
▁padre 100
▁south 100
▁לעזור 100
▁divert 100
▁يمكنني 100
▁factory 100
ננו 100
قلت 100
aust 100
▁chc 100
▁tab 100
▁uká 100
▁fell 100
▁sang 100
▁الوح 100
▁وإذا 100
▁climb 100
▁parola 100
▁depression 100
cca 100
▁Fäh 100
▁moz 100
▁nak 100
▁eing 100
▁שעות 100
▁seinen 100
▁Everything 100
ix 100
▁المري 100
org 100
ova 100
▁CE 100
riff 100
▁žiad 100
▁بالح 100
bracht 100
▁Schul 100
▁אוקיי 100
orb 100
ستي 100
ault 100
hyth 100
▁Dep 100
▁dry 100
▁بأنه 100
▁جهاز 100
▁ויותר 100
▁harder 100
▁mothers 100
yt 100
▁inevit 100
▁leaves 100
▁الثانية 100
▁Pakistan 100
▁economia 100
▁increasingly 100
זיה 100
وفر 100
opia 100
▁באר 100
▁أولا 100
▁كلما 100
▁moves 100
▁במקרה 100
▁البلد 100
ollywood 100
▁Everybody 100
▁struttura 100
mö 100
del 100
ným 100
طبي 100
elet 100
▁Sci 100
▁שול 100
▁Verg 100
▁Zahl 100
▁الأف 100
▁المل 100
▁mater 100
▁select 100
▁überall 100
▁Revolution 100
▁businesses 100
ße 100
eno 100
rebs 100
resp 100
حيان 100
▁cio 100
▁emb 100
inder 100
▁klar 100
▁ايضا 100
▁grown 100
▁picked 100
▁concerned 100
▁opportunità 100
ту 100
▁خي 100
▁كي 100
▁Est 100
▁إلا 100
▁משום 100
▁tumor 100
▁Dieses 100
سع 100
قائق 100
▁tag 100
▁wus 100
▁בשם 100
▁صور 100
▁tons 100
▁barri 100
▁أنحاء 100
▁currently 100
pan 100
وجب 100
▁mňa 100
lobal 100
▁hasn 100
▁thri 100
▁מעולם 100
▁seconda 100
▁influence 100
▁considered 100
سام 100
zust 100
▁ממה 100
ening 100
▁libr 100
▁lies 100
▁medzi 100
▁exists 100
▁remote 100
igkeiten 100
iev 100
▁נס 100
ength 100
▁king 100
▁ביחד 100
▁Hanno 100
▁Punkt 100
▁כנראה 100
▁permet 100
ئك 100
بعة 100
▁bic 100
▁Mont 100
▁الأش 100
▁السنة 100
▁מדינות 100
יתו 100
לוי 100
קהל 100
ويا 100
▁חס 100
▁يك 100
cket 100
טיים 100
▁tim 100
▁העצ 100
ويورك 100
heimer 100
▁cancro 100
▁schwier 100
▁sequence 100
ví 100
שרות 100
▁mať 100
▁soff 100
▁assem 100
▁quiet 100
▁rates 100
ruzione 100
▁Perciò 100
▁magazine 100
▁advantage 100
און 100
▁vaš 100
ranno 100
▁wicht 100
▁تاريخ 100
▁motion 100
▁illustr 100
gono 100
onym 100
ברסי 100
▁Ist 100
▁fan 100
▁ren 100
craft 100
▁flat 100
▁talks 100
▁scienzi 100
▁weather 100
▁migliori 100
▁32 100
schl 100
▁ends 100
▁lift 100
▁קטנה 100
▁nuovi 100
▁plast 100
▁sopra 100
▁vicino 100
▁Dobbiamo 100
מוקר 100
▁Vol 100
▁çox 100
▁وحت 100
▁bits 100
▁stro 100
▁מדהי 100
▁السا 100
ולוגיה 100
▁navig 100
▁إعادة 100
▁regist 100
▁الطبيعة 100
▁programm 100
▁described 100
רחש 100
▁ضد 100
اتنا 100
▁הממש 100
▁כשאת 100
▁darum 100
▁gioco 100
▁horri 100
▁paura 100
▁stále 100
▁battle 100
▁אחוזים 100
▁essential 100
▁verändern 100
▁emo 100
▁המדע 100
ushing 100
▁nulla 100
▁למעלה 100
▁أشخاص 100
▁حينها 100
▁unless 100
▁emotion 100
▁contract 100
▁cognitive 100
häng 100
▁Star 100
▁איזה 100
▁Penso 100
▁sister 100
▁surprised 100
▁Us 100
ösen 100
▁Sam 100
▁ants 100
▁warm 100
▁היכן 100
▁ascolt 100
▁nennen 100
▁יכולות 100
▁experts 100
▁الجديدة 100
▁interaction 100
זק 100
טוס 100
▁BG 100
gent 100
▁Sep 100
▁Str 100
▁voc 100
▁1980 100
▁stock 100
▁الفضاء 100
kten 100
▁Ciò 100
▁row 100
▁تتح 100
ücken 100
▁Bost 100
▁tail 100
▁teda 100
▁camer 100
▁الرائ 100
▁iPhone 100
▁launched 100
▁existence 100
▁qualunque 100
gegn 100
▁Cons 100
▁High 100
▁erkl 100
▁مهمة 100
tember 100
▁pregn 100
▁organic 100
▁المدرسة 100
set 100
ديق 100
فيد 100
▁là 100
emos 100
▁Kle 100
▁Meine 100
▁treated 100
▁laborator 100
kop 100
čia 100
icial 100
▁grab 100
▁מיני 100
▁fields 100
▁married 100
▁esattamente 100
دع 100
šia 100
בדה 100
מיות 100
▁uso 100
כולנו 100
▁Kopf 100
▁moje 100
בריאות 100
▁Robot 100
▁ballo 100
▁eleph 100
▁musste 100
▁stehen 100
▁مباشرة 100
▁guardare 100
שום 100
▁وظ 100
▁auton 100
▁daily 100
▁surge 100
▁wheel 100
▁الدرا 100
▁الصوت 100
▁gehört 100
▁highest 100
▁protein 100
▁identify 100
una 100
▁מן 100
מריק 100
▁Für 100
▁Int 100
▁יפה 100
▁مال 100
▁الاب 100
▁Grand 100
▁Leuten 100
▁vorrei 100
▁generations 100
מאות 100
▁gay 100
▁2006 100
angers 100
▁folks 100
▁בעיות 100
▁Schule 100
▁belong 100
▁capable 100
▁property 100
مم 100
נוע 100
▁كث 100
apse 100
olds 100
▁للك 100
רופות 100
▁bran 100
▁mett 100
▁myth 100
▁العد 100
▁preso 100
▁reward 100
▁pensate 100
▁privacy 100
▁university 100
▁صف 100
▁עמו 100
▁Krie 100
▁použ 100
▁Could 100
▁brief 100
▁rural 100
▁Potete 100
▁minuti 100
▁potuto 100
▁clinical 100
box 100
ادر 100
▁Acc 100
▁verk 100
▁Obama 100
▁dolph 100
▁יודעת 100
▁أطفال 100
▁confer 100
▁imparato 100
▁universo 100
▁مز 100
zahl 100
عامل 100
فترض 100
▁sna 100
ציאות 100
▁الصنا 100
▁مجتمع 100
▁نفسها 100
▁smiech 100
xim 100
צוע 100
مام 100
abol 100
fang 100
iest 100
▁קלי 100
▁محد 100
▁Oggi 100
▁grad 100
▁לשלו 100
▁שנות 100
acters 100
▁perso 100
▁Thomas 100
▁deeper 100
▁faccio 100
▁sicure 100
▁molecule 100
▁seriously 100
cə 100
▁Sem 100
▁lont 100
▁snow 100
▁אינו 100
▁والإ 100
▁north 100
▁العلم 100
▁אנרגיה 100
▁calling 100
▁creature 100
ovo 100
pet 100
▁erl 100
▁ובמ 100
▁فهي 100
alien 100
▁kurz 100
▁الجي 100
▁والح 100
▁technical 100
▁artificial 100
pekt 100
▁egg 100
▁רגע 100
andon 100
▁Netz 100
▁lifet 100
▁vehicle 100
▁الإنسان 100
▁designing 100
▁languages 100
▁popolazione 100
▁civilization 100
תר 100
طاء 100
▁Vo 100
▁وص 100
ccio 100
▁Lös 100
▁sod 100
▁מוצא 100
vention 100
▁genitori 100
▁perfectly 100
▁entwickelt 100
zy 100
rej 100
▁ضخ 100
iore 100
umen 100
▁Las 100
▁mira 100
▁העיר 100
▁נקרא 100
▁falls 100
▁stood 100
▁הייתם 100
▁רציתי 100
▁arbeit 100
▁Alzheimer 100
▁idi 100
zeich 100
▁2011 100
▁bell 100
▁orch 100
▁جيدا 100
▁conduct 100
▁intelligent 100
də 100
pty 100
▁Kore 100
▁gold 100
▁intr 100
▁poem 100
▁soph 100
▁أردت 100
▁تحصل 100
▁Steve 100
▁plane 100
▁skill 100
▁تصميم 100
connect 100
▁universal 100
▁characters 100
▁principles 100
يري 100
zept 100
▁Sap 100
▁האמ 100
▁שוא 100
▁roof 100
▁בתור 100
▁chain 100
▁שימוש 100
ontroll 100
▁ingred 100
▁appropri 100
▁principle 100
▁Geschichten 100
קול 100
بقى 100
▁err 100
▁היי 100
▁2004 100
▁explan 100
▁מוזיקה 100
▁covered 100
▁requires 100
▁brilliant 100
iff 100
הים 100
▁אש 100
▁120 100
▁ani 100
▁rie 100
▁سيا 100
▁وإن 100
▁דקות 100
▁בנוגע 100
▁Fragen 100
▁safety 100
▁האחרון 100
▁الثاني 100
َّ 100
len 100
ocol 100
onia 100
voll 100
▁Jahrh 100
▁الضوء 100
▁Boston 100
▁circum 100
▁großart 100
▁sociale 100
▁watched 100
▁المشاكل 100
oriť 100
عتمد 100
▁Kön 100
נרגיה 100
▁elev 100
▁كتاب 100
▁charge 100
רחב 100
هتم 100
arre 100
▁gap 100
▁כלי 100
קהילה 100
▁קטנים 100
antwort 100
▁Erfahr 100
▁versus 100
▁Fol 100
▁mad 100
▁להצ 100
▁Gree 100
▁hadn 100
▁אלפי 100
▁درجة 100
▁chiama 100
▁toward 100
▁נמצאים 100
▁England 100
▁normally 100
سوب 100
دينا 100
ittel 100
liono 100
דמנות 100
▁ange 100
▁لكنه 100
▁liquid 100
▁גדולים 100
▁sistemi 100
▁tomorrow 100
▁Institute 100
ראש 100
لاد 100
▁لج 100
▁Air 100
▁Dio 100
▁bull 100
▁بالك 100
▁petro 100
▁schop 100
▁veloc 100
▁hinter 100
▁symmet 100
עתי 100
ضافة 100
▁فترة 100
terday 100
▁אפשרי 100
▁البحر 100
▁facile 100
▁garden 100
▁systém 100
▁לפעמים 100
▁engineer 100
▁experienced 100
חן 100
ادل 100
▁ps 100
fish 100
▁lic 100
▁לשא 100
▁נגד 100
esome 100
▁كلمة 100
▁každý 100
▁centina 100
▁condivid 100
▁erreichen 100
▁equivalent 100
cast 100
▁Imm 100
▁Pap 100
▁להכ 100
▁وهم 100
nisse 100
owers 100
▁Chic 100
▁cosm 100
▁rete 100
▁State 100
▁buona 100
▁entde 100
▁compar 100
inazione 100
▁feedback 100
liv 100
▁om 100
aled 100
pass 100
uses 100
انيا 100
▁smo 100
▁fate 100
▁tall 100
▁Their 100
▁možno 100
▁primi 100
▁spoke 100
▁להשיג 100
▁soprav 100
▁station 100
▁importanti 100
šet 100
erte 100
מיין 100
▁arr 100
igten 100
▁však 100
▁בכדי 100
▁الجم 100
▁وكنت 100
▁schön 100
▁úplne 100
▁Bilder 100
▁imparare 100
▁הטכנולוגיה 100
زمة 100
قدر 100
▁cha 100
▁Nein 100
▁beat 100
▁השנה 100
▁pages 100
▁عبارة 100
▁attach 100
▁العملية 100
▁emerging 100
▁resource 100
uso 100
▁üç 100
wohl 100
▁Del 100
gress 100
▁eins 100
▁wide 100
▁בכלל 100
قتصادي 100
glichen 100
▁arrest 100
▁galaxy 100
▁sbagli 100
▁الجانب 100
▁bereits 100
▁variety 100
▁metaphor 100
ús 100
ذب 100
fit 100
خيل 100
▁يص 100
eline 100
▁metà 100
▁ride 100
▁אמרה 100
▁المي 100
etting 100
▁forte 100
▁ihrem 100
عيد 100
▁عق 100
▁Noi 100
פריקה 100
▁drag 100
▁vote 100
▁weak 100
▁الصف 100
▁holes 100
▁vidieť 100
▁anderes 100
▁volunte 100
▁advanced 100
▁analysis 100
▁microbes 100
▁entrepreneurs 100
gie 100
▁غا 100
icon 100
iring 100
▁flex 100
▁פולי 100
וקיינו 100
▁saved 100
▁processes 100
וים 100
ייק 100
▁sé 100
force 100
▁vite 100
▁לחיות 100
▁paying 100
▁ingredi 100
▁dovrebbe 100
▁operating 100
bia 100
אשר 100
ريك 100
واب 100
itud 100
▁sab 100
▁belief 100
▁island 100
▁البشرية 100
▁President 100
▁verschiedene 100
بلغ 100
▁leb 100
▁ולע 100
▁חברת 100
▁يحصل 100
▁arrived 100
▁saranno 100
ثي 100
itti 100
olit 100
▁los 100
▁سري 100
▁لست 100
astro 100
▁חזרה 100
▁illness 100
▁struggle 100
▁besonders 100
▁management 100
▁מנ 100
rict 100
ußen 100
▁Lat 100
▁Mys 100
▁ואנו 100
▁למשל 100
▁מחקר 100
▁سواء 100
▁والن 100
▁metal 100
▁פעמים 100
▁لأنني 100
▁fourth 100
▁reaction 100
spr 100
▁لب 100
gere 100
▁Mic 100
agers 100
▁reden 100
▁forced 100
▁תמונות 100
life 100
▁glo 100
▁sue 100
▁בתח 100
▁להא 100
▁حسن 100
▁زوج 100
▁ممت 100
erein 100
▁Paci 100
▁الحم 100
rument 100
▁claim 100
▁dagli 100
▁Museum 100
▁announ 100
▁filled 100
▁intens 100
▁sentire 100
▁dimensions 100
cin 100
لاك 100
▁قدم 100
anche 100
ivano 100
▁Auto 100
▁toll 100
▁أقوم 100
▁Tutti 100
▁sites 100
▁מדובר 100
▁dicono 100
▁التصميم 100
▁risultato 100
▁attenzione 100
▁grandmother 100
шы 100
▁26 100
wind 100
▁ped 100
▁הלו 100
▁بالض 100
▁عادة 100
▁infer 100
▁לאורך 100
▁عليهم 100
▁stupid 100
▁hopefully 100
ema 100
ומי 100
סיק 100
unto 100
يجاد 100
▁doká 100
▁seat 100
▁وحتى 100
▁risks 100
▁אמיתי 100
▁מסביב 100
▁المحت 100
▁portare 100
▁release 100
▁worried 100
ilfe 100
▁תחו 100
▁Herz 100
▁puoi 100
▁Anche 100
▁Apple 100
▁input 100
▁varia 100
▁אומרת 100
▁rovnak 100
▁status 100
▁Chicago 100
▁الحكومة 100
ذك 100
ové 100
ubl 100
enni 100
גשתי 100
▁sow 100
uchte 100
▁cave 100
▁devo 100
▁peak 100
▁rých 100
▁הפרו 100
▁سؤال 100
▁lunch 100
▁miest 100
▁tempor 100
▁الوحيد 100
▁تستخدم 100
▁sentence 100
זע 100
iro 100
ses 100
▁וכש 100
▁ומש 100
▁biom 100
▁الشر 100
▁والا 100
▁voices 100
▁موسيقى 100
▁aspetto 100
▁promise 100
▁quantum 100
▁raggiung 100
▁controllo 100
▁emissions 100
قف 100
جرة 100
werk 100
▁suit 100
▁heads 100
▁shapes 100
▁thinks 100
▁الوصول 100
▁keeping 100
▁attività 100
▁Unterschied 100
▁פל 100
arle 100
▁GDP 100
▁הסת 100
▁قائ 100
ilien 100
▁grat 100
נתונים 100
▁dinner 100
▁utilizz 100
▁instrument 100
irt 100
▁תק 100
▁spr 100
▁glam 100
▁למדי 100
▁وكيف 100
▁כלומר 100
▁Valley 100
▁advert 100
▁valore 100
▁arrivare 100
ده 100
▁Sal 100
▁חשמ 100
▁melt 100
▁أدرك 100
▁capit 100
▁طويلة 100
▁machte 100
▁letters 100
▁reprodu 100
▁التاريخ 100
▁absolute 100
bly 100
כור 100
orno 100
▁tuo 100
▁יצא 100
igung 100
▁dich 100
▁האמת 100
▁الأل 100
▁موقع 100
▁maint 100
▁exercise 100
▁sophistic 100
са 100
osh 100
▁Od 100
▁Haw 100
▁وقال 100
▁umana 100
▁obiett 100
▁volume 100
▁المنزل 100
▁وأعتقد 100
▁nervous 100
▁testing 100
▁نيويورك 100
▁president 100
▁techniques 100
▁effectively 100
ذة 100
ائي 100
ופים 100
وقات 100
▁dip 100
▁سبب 100
usive 100
▁Sign 100
▁purs 100
▁waves 100
▁credit 100
▁المواد 100
▁forests 100
▁September 100
80 100
iaľ 100
لاح 100
▁قل 100
שיבה 100
▁geb 100
▁pet 100
aters 100
icani 100
ision 100
▁Cina 100
▁urob 100
▁לבצע 100
▁מנסים 100
▁بداية 100
▁namens 100
▁البداية 100
▁strumenti 100
▁التد 100
▁Since 100
▁sinist 100
▁Familie 100
▁coinvol 100
▁ottenere 100
hem 100
▁Hig 100
▁iba 100
▁قوة 100
▁للج 100
▁nech 100
▁perc 100
▁swim 100
▁עצמם 100
▁users 100
▁organs 100
▁تعرفون 100
▁povedať 100
▁messages 100
▁connections 100
מכם 100
▁حر 100
irur 100
▁נוסף 100
▁Angst 100
▁tomto 100
▁تأثير 100
▁render 100
▁economics 100
▁בנ 100
▁rod 100
▁nest 100
▁suic 100
▁ביום 100
▁كريس 100
▁conten 100
▁reform 100
▁aziende 100
nou 100
اتف 100
▁95 100
▁Ac 100
▁191 100
▁Abs 100
▁Tal 100
▁تنت 100
▁diam 100
▁تأتي 100
▁ولقد 100
▁באותה 100
▁الطعام 100
▁cutting 100
▁feelings 100
▁valuable 100
▁settimana 100
äť 100
صي 100
دمة 100
سرع 100
وتي 100
▁Bel 100
icolo 100
▁enem 100
▁המים 100
▁polar 100
▁finish 100
▁misura 100
▁opening 100
▁conversations 100
му 100
kel 100
ثلة 100
onds 100
וחים 100
عرفة 100
▁Bau 100
▁Sing 100
▁מתחיל 100
▁שקורה 100
▁vytvor 100
▁trillion 100
lip 100
into 100
ريبة 100
▁Jer 100
▁להס 100
▁تعل 100
abled 100
▁Gott 100
▁Oder 100
▁prečo 100
▁steht 100
▁الغذا 100
▁الغرب 100
▁dealing 100
▁internet 100
▁corruption 100
▁Unternehmen 100
ké 100
داع 100
itet 100
▁dun 100
▁ferm 100
▁naše 100
▁pare 100
▁väčš 100
▁שאפשר 100
▁الحال 100
▁magnet 100
▁الكهرب 100
▁sopravv 100
üş 100
vid 100
واج 100
iors 100
▁اسم 100
innen 100
itted 100
▁muscle 100
▁usando 100
▁videos 100
▁התמונה 100
▁killing 100
▁questione 100
▁Gesellschaft 100
▁construction 100
voj 100
дзе 100
▁חופ 100
▁רשת 100
aptop 100
ffici 100
▁ideal 100
▁sight 100
▁fragen 100
▁halten 100
▁mostra 100
▁sagten 100
▁contain 100
▁weapons 100
▁airplane 100
▁concentr 100
но 100
וביל 100
▁tear 100
▁user 100
▁zauj 100
usione 100
▁shark 100
▁shoes 100
▁שניתן 100
▁medium 100
▁perchè 100
▁preced 100
▁أمريكا 100
▁اللحظة 100
▁braucht 100
▁dovremmo 100
▁sicurezza 100
▁importance 100
cr 100
sam 100
כבים 100
▁lon 100
▁nič 100
▁לחי 100
▁Weil 100
▁firm 100
ionali 100
MS 100
رع 100
hle 100
נון 100
خلق 100
▁Wal 100
▁1950 100
▁Doch 100
▁aria 100
▁reag 100
▁ואמר 100
▁وكما 100
▁Glück 100
▁broke 100
▁vlastne 100
▁العالمية 100
▁programma 100
pot 100
▁וק 100
מודד 100
שיות 100
resso 100
▁Alcun 100
▁Polit 100
▁cuore 100
▁messo 100
▁richt 100
▁unica 100
▁devono 100
▁collection 100
▁statistics 100
סטר 100
رام 100
▁Mary 100
▁تجعل 100
▁לפחות 100
▁Materi 100
▁seinem 100
ميز 100
هام 100
▁טו 100
▁מאי 100
▁עולם 100
▁coral 100
▁fossil 100
▁relatively 100
▁skutočnosti 100
ôz 100
öff 100
كسي 100
▁km 100
▁אק 100
▁ועל 100
▁امر 100
▁حجم 100
▁ينت 100
▁grid 100
▁wake 100
▁corso 100
▁Please 100
▁expected 100
▁comfortable 100
kou 100
ידי 100
راءة 100
▁età 100
▁náš 100
▁معي 100
grund 100
itare 100
ppure 100
▁manif 100
▁يتعلق 100
▁propria 100
▁المشروع 100
▁ordinary 100
וצ 100
קלא 100
قرا 100
esis 100
ديمة 100
neath 100
▁أعلى 100
▁اللي 100
▁Forse 100
▁drawing 100
▁prosper 100
▁philosop 100
▁specifically 100
فن 100
bal 100
lem 100
▁Bü 100
▁Ko 100
cons 100
▁hur 100
▁הרג 100
▁unex 100
▁כמות 100
▁إنهم 100
▁פעולה 100
mission 100
▁riusci 100
▁Regierung 100
▁independent 100
▁manufacturing 100
▁transformation 100
▁Hö 100
ťast 100
▁אצל 100
▁אותך 100
▁דומה 100
essero 100
▁sechs 100
▁الأقل 100
enziale 100
▁encoun 100
▁erkennen 100
▁organized 100
▁electrical 100
ämp 100
ذين 100
هدف 100
▁וס 100
erer 100
▁cow 100
▁ארג 100
▁מכן 100
▁שבי 100
▁Fahr 100
▁blow 100
▁Stell 100
▁trova 100
▁comment 100
ло 100
زم 100
טור 100
▁195 100
▁bare 100
▁الإع 100
▁solid 100
▁חברות 100
▁losing 100
▁terrib 100
▁Britain 100
▁التغيير 100
▁movimento 100
▁А 100
דיו 100
باح 100
oste 100
ائرة 100
▁פרי 100
▁dots 100
▁הגוף 100
▁Higgs 100
▁horiz 100
▁article 100
▁extract 100
▁Vielleicht 100
▁Hy 100
▁Hol 100
▁אליו 100
icious 100
▁gerne 100
▁heavy 100
▁تجربة 100
▁Indien 100
▁dietro 100
▁cameras 100
صبية 100
▁Hel 100
▁רצי 100
▁cous 100
▁deti 100
▁graf 100
▁oben 100
▁stell 100
▁בעיקר 100
▁دقيقة 100
▁קוראים 100
lichkeit 100
▁dôležit 100
▁الآخرين 100
▁الأفكار 100
▁benutzen 100
▁mortality 100
▁transition 100
מק 100
▁אב 100
نيات 100
▁Wik 100
▁מופ 100
state 100
ائنات 100
▁Städ 100
▁colp 100
▁hide 100
▁reci 100
▁ושוב 100
▁ימים 100
▁hören 100
▁inten 100
▁signs 100
▁traum 100
▁capito 100
▁unters 100
▁בריאות 100
▁Entsche 100
▁factors 100
ליק 100
▁са 100
oint 100
▁Imp 100
▁mən 100
▁יצר 100
▁أصد 100
▁يتح 100
▁alta 100
▁lasc 100
▁tipi 100
▁מסוי 100
▁خاصة 100
▁Russia 100
▁breath 100
▁comune 100
▁אפריקה 100
▁portato 100
▁theater 100
hov 100
дзі 100
جاح 100
ونة 100
▁פית 100
▁مذه 100
okrat 100
כויות 100
▁ממנו 100
encies 100
imming 100
▁keeps 100
▁layer 100
▁resto 100
▁stream 100
▁ultimo 100
▁details 100
▁roughly 100
▁generate 100
▁thoughts 100
▁carefully 100
▁employees 100
bors 100
▁üçün 100
mittel 100
▁cellul 100
ließlich 100
ña 100
wart 100
zing 100
לפון 100
▁Gra 100
▁לבד 100
شاركة 100
▁overw 100
▁správ 100
▁trend 100
▁coordin 100
▁chemistry 100
▁wondering 100
▁vorstellen 100
▁ə 100
kes 100
nik 100
זות 100
שרה 100
פיים 100
שונה 100
▁700 100
▁lep 100
▁מתח 100
▁שמח 100
▁dnes 100
▁také 100
▁اننا 100
▁يأتي 100
▁حاليا 100
▁warming 100
▁Congress 100
▁evolutionary 100
שק 100
zug 100
أكد 100
ويات 100
▁Fir 100
▁zap 100
▁בקו 100
▁עבד 100
▁euch 100
▁التأ 100
▁التس 100
▁بالع 100
▁goods 100
▁Gruppe 100
▁succed 100
▁associated 100
▁underneath 100
▁intellectual 100
ды 100
طن 100
ınd 100
ždy 100
izza 100
كتشف 100
▁surf 100
▁trag 100
▁darin 100
▁נתונים 100
▁sending 100
▁الشركات 100
▁vogliono 100
▁producing 100
מס 100
▁מיו 100
▁מין 100
▁שית 100
ichte 100
orgen 100
▁mont 100
▁השלי 100
leiche 100
جتماعي 100
▁estim 100
▁הברית 100
▁الزمن 100
▁script 100
▁simile 100
▁היכולת 100
▁discipl 100
▁infinite 100
▁Entscheid 100
طاق 100
فاء 100
وحة 100
asta 100
راعة 100
▁ברו 100
▁פור 100
▁أني 100
▁curios 100
▁scared 100
▁الموضوع 100
▁antibiot 100
isl 100
ста 100
اول 100
▁اح 100
▁Mad 100
▁سنت 100
▁فهو 100
▁práve 100
▁בחיים 100
▁الصين 100
▁يحتاج 100
▁accompl 100
▁giovani 100
▁marriage 100
▁quantità 100
▁marketing 100
▁professor 100
▁Jahrhundert 100
صا 100
ira 100
▁Pa 100
bble 100
سباب 100
▁ומי 100
annte 100
mlich 100
▁matt 100
▁vive 100
▁notte 100
▁opera 100
▁autism 100
▁height 100
▁pazienti 100
▁rational 100
▁chemicals 100
▁distribution 100
שבה 100
ريف 100
cred 100
osen 100
▁hab 100
▁בהן 100
▁בהת 100
▁מסי 100
endet 100
indung 100
▁facing 100
▁consist 100
▁nations 100
▁sources 100
▁possibilities 100
äl 100
خة 100
zte 100
طاع 100
▁Fü 100
hler 100
▁copy 100
▁salt 100
▁segn 100
▁wave 100
▁وسوف 100
arbeit 100
▁Found 100
▁academ 100
▁sicuro 100
▁desider 100
ну 100
سك 100
žas 100
▁إل 100
enej 100
▁בעל 100
orest 100
robiť 100
פתחות 100
▁Talk 100
▁Tutto 100
▁aging 100
▁jedem 100
▁mosqu 100
▁staff 100
▁כיוון 100
▁الكبيرة 100
▁narrative 100
▁healthcare 100
▁tecnologie 100
AR 100
uren 100
▁Pat 100
▁تنا 100
▁Luft 100
▁gioc 100
ologia 100
▁Preto 100
▁imper 100
▁links 100
▁unico 100
▁capture 100
▁affected 100
▁criminal 100
▁encourag 100
▁foundation 100
משך 100
פעה 100
زية 100
▁تؤ 100
hält 100
hľad 100
iero 100
▁rat 100
allow 100
▁puts 100
▁الطب 100
▁Macht 100
▁avrei 100
▁gesam 100
▁honor 100
▁metri 100
▁יוצרים 100
▁cartoon 100
▁properties 100
ki 100
يه 100
vern 100
فهوم 100
▁entr 100
ríklad 100
▁5,000 100
▁basso 100
▁expon 100
▁بعيدا 100
▁ingegn 100
▁proven 100
▁severe 100
▁نستخدم 100
▁assolut 100
abilities 100
الث 100
ذية 100
צוני 100
▁rôz 100
▁משפ 100
▁أيض 100
▁Wind 100
▁الور 100
▁Richt 100
areness 100
▁beiden 100
▁include 100
▁spielen 100
▁equipment 100
▁immaginare 100
ماع 100
▁Inf 100
▁Yet 100
▁הור 100
▁והי 100
▁جاء 100
akers 100
apher 100
icano 100
▁2012 100
▁Wall 100
elling 100
▁Black 100
▁Gefühl 100
▁אוהבים 100
▁relevant 100
▁transportation 100
بان 100
ində 100
ácia 100
▁ובא 100
▁מהת 100
▁túto 100
▁verm 100
▁cyber 100
▁דרכים 100
▁לעבור 100
▁القوة 100
▁يعتقد 100
▁behaviors 100
▁increased 100
حم 100
▁Uno 100
▁שרו 100
▁Ergeb 100
▁Women 100
▁awful 100
▁החברה 100
ultural 100
▁perman 100
כנולוגיות 100
▁lifetime 100
▁politica 100
äuf 100
ober 100
▁Eth 100
▁שמה 100
▁impe 100
▁vend 100
father 100
▁rivol 100
▁Männer 100
▁unknown 100
▁بالتأكيد 100
▁х 100
ené 100
שרת 100
tail 100
ظروا 100
▁Mik 100
▁pill 100
▁أكون 100
▁الاخت 100
▁France 100
▁esiste 100
▁לדוגמה 100
▁automob 100
hab 100
iat 100
▁יד 100
weit 100
بعاد 100
▁מתי 100
▁linea 100
▁stanza 100
▁الحقيقي 100
▁Stanford 100
▁yesterday 100
▁processing 100
rieb 100
יתים 100
▁חול 100
fluss 100
▁מראה 100
▁بالق 100
▁statt 100
▁released 100
▁Patienten 100
▁politicians 100
▁verschiedenen 100
BI 100
قق 100
גיט 100
▁גד 100
ians 100
lymp 100
▁Ten 100
▁aqu 100
▁lawy 100
liches 100
▁Masch 100
▁Paris 100
▁curve 100
▁mondi 100
isation 100
▁Sicher 100
▁driven 100
▁einzel 100
▁الحالة 100
▁environments 100
▁Ju 100
▁Môž 100
▁Best 100
▁auss 100
▁מרגי 100
▁crowd 100
▁sides 100
▁الملا 100
▁Middle 100
▁driver 100
gestellt 100
▁finanzi 100
▁epidemic 100
▁situazione 100
han 100
inz 100
rog 100
▁תה 100
רבות 100
▁pad 100
oglie 100
▁Stim 100
liegen 100
ptions 100
▁3,000 100
▁Durch 100
▁Eltern 100
▁overwhel 100
▁exploration 100
פתי 100
جيل 100
aret 100
avia 100
iate 100
▁Job 100
▁toh 100
▁tua 100
lying 100
▁גישה 100
▁ישנם 100
▁מחוץ 100
ניינים 100
▁Antar 100
▁tanti 100
▁Sapete 100
▁candid 100
▁define 100
▁consegu 100
▁primary 100
▁السنوات 100
за 100
מך 100
ديل 100
▁lit 100
ativi 100
vania 100
isters 100
▁إليها 100
▁دعوني 100
▁trials 100
▁profond 100
▁Zusammen 100
▁consumer 100
▁implement 100
ולת 100
عون 100
arie 100
▁המק 100
▁מהע 100
▁exec 100
▁אינט 100
▁أمام 100
▁inher 100
▁blocks 100
▁diagnost 100
▁potrebbero 100
nel 100
▁3. 100
tile 100
▁Bes 100
▁בדר 100
▁המה 100
▁unit 100
▁empty 100
▁החוצה 100
▁العمر 100
▁منطقة 100
▁convert 100
▁rapidly 100
▁location 100
aun 100
ליט 100
▁Sü 100
▁تا 100
▁Rad 100
▁Tex 100
▁נמו 100
זורים 100
▁Ogni 100
▁gear 100
▁kick 100
▁מדבר 100
▁accum 100
▁passo 100
▁posit 100
▁effica 100
▁الذهاب 100
▁required 100
gust 100
ليون 100
▁Arbe 100
▁Tele 100
▁fronte 100
▁myslím 100
▁remain 100
▁stabil 100
▁العامة 100
▁potremmo 100
▁السيارات 100
רס 100
أت 100
دات 100
▁طف 100
erei 100
greg 100
▁رئي 100
▁znam 100
▁الحب 100
▁الشا 100
▁prosp 100
▁الجنس 100
▁colleg 100
▁esplor 100
▁repres 100
▁Minuten 100
▁Science 100
▁battery 100
▁however 100
▁רעיונות 100
▁التقنية 100
▁irgendwie 100
▁Möglichkeit 100
ві 100
лю 100
-20 100
stüt 100
ficie 100
führt 100
▁mang 100
▁neut 100
▁أعلم 100
▁الاس 100
▁مركز 100
▁march 100
▁hätten 100
▁محاولة 100
▁previous 100
▁centinaia 100
▁introduce 100
▁superficie 100
вы 100
شل 100
בוט 100
▁تغ 100
reck 100
▁Gal 100
▁הצל 100
▁ומו 100
▁lady 100
▁Other 100
▁hyper 100
▁parli 100
▁tante 100
▁מאמין 100
▁adoles 100
▁radiation 100
ül 100
ба 100
▁2, 100
rows 100
itals 100
punkt 100
▁2001 100
▁Ever 100
▁jail 100
▁root 100
▁sees 100
▁wohl 100
▁Count 100
▁uncle 100
▁أهمية 100
▁التعا 100
▁dynamic 100
▁risorse 100
cut 100
جلي 100
icky 100
vajú 100
▁Nar 100
▁מאח 100
icato 100
▁Alle 100
▁حاول 100
▁Stand 100
▁horse 100
▁עיצוב 100
▁intero 100
▁מערכות 100
▁البشري 100
▁Hi 100
▁לרו 100
▁משי 100
▁بان 100
agram 100
ختيار 100
▁2003 100
▁Four 100
▁maps 100
▁نعيش 100
▁grade 100
▁Gebäude 100
▁paradig 100
▁المناطق 100
ket 100
ؤية 100
شاه 100
▁שט 100
▁إع 100
lder 100
▁משא 100
▁Prof 100
▁رأيت 100
apping 100
▁entsch 100
▁spectrum 100
▁convinced 100
▁mountains 100
وغ 100
▁т 100
ros 100
صوص 100
▁dl 100
▁وث 100
▁Ans 100
▁clip 100
▁moder 100
▁Health 100
▁Kultur 100
▁ändern 100
▁ولكنها 100
▁anticip 100
▁regions 100
▁selling 100
▁existing 100
▁worldwide 100
▁ער 100
▁תג 100
elta 100
يريا 100
▁Net 100
▁בהי 100
▁دما 100
▁نجد 100
erved 100
דברים 100
▁Pers 100
▁cord 100
▁תראו 100
stream 100
▁subst 100
▁الشمس 100
▁نتحدث 100
▁Project 100
▁entertain 100
▁represents 100
▁informazione 100
قية 100
▁mur 100
▁الأص 100
▁بالر 100
▁usato 100
▁length 100
▁wollten 100
ady 100
▁יר 100
erci 100
gang 100
נציא 100
▁Sar 100
▁تجد 100
▁brut 100
▁dign 100
▁העול 100
▁alter 100
▁doubt 100
▁nutri 100
▁الطرق 100
▁القدرة 100
▁actions 100
▁illegal 100
▁Japanese 100
▁verwenden 100
uz 100
ôr 100
מח 100
▁” 100
down 100
▁ألف 100
▁decl 100
▁sola 100
▁يدعى 100
▁להביא 100
▁bestimm 100
▁violent 100
▁vulnerable 100
סיס 100
كلم 100
▁جا 100
מדים 100
▁dey 100
poved 100
rooms 100
▁toil 100
▁أنتم 100
▁المز 100
▁ممكن 100
alität 100
▁stavo 100
▁steel 100
▁לייצר 100
▁לקרוא 100
▁Global 100
▁almeno 100
▁string 100
▁التجربة 100
▁العالمي 100
▁circumst 100
▁parlando 100
▁whenever 100
▁risultati 100
▁activities 100
▁consumption 100
oe 100
מל 100
šiel 100
▁ree 100
▁قاب 100
šlien 100
▁najv 100
▁plus 100
▁rast 100
▁spost 100
▁teeth 100
▁factor 100
▁terrif 100
▁guardate 100
▁symptoms 100
▁naturally 100
▁innovative 100
ints 100
נאים 100
كلفة 100
▁ואח 100
▁احد 100
iform 100
▁Nobel 100
▁Titan 100
▁added 100
▁deciso 100
▁מכירים 100
▁sophisticated 100
ظل 100
טרי 100
רתי 100
ابه 100
▁Ox 100
oust 100
שבתי 100
▁סוף 100
icing 100
istor 100
▁subt 100
▁كوكب 100
▁komun 100
▁centers 100
▁definitely 100
▁challenging 100
GO 100
zed 100
▁DH 100
▁فح 100
▁Bra 100
▁איי 100
▁ולב 100
rejme 100
▁2050 100
▁thro 100
▁beach 100
▁facts 100
▁فيديو 100
▁Sprache 100
▁musical 100
▁quarter 100
▁الاشياء 100
▁inequality 100
▁ва 100
דימה 100
צבים 100
▁Kap 100
ritte 100
▁cura 100
▁welt 100
▁ברגע 100
▁חברה 100
▁فرصة 100
▁Scott 100
▁stark 100
▁מאוחר 100
▁diplom 100
▁houses 100
▁הציבור 100
▁برنامج 100
▁gravity 100
▁reached 100
▁setting 100
▁carrying 100
▁contrast 100
ET 100
età 100
hnt 100
iek 100
▁كأ 100
ávať 100
▁חמש 100
▁לבית 100
▁chart 100
▁flies 100
▁rende 100
▁acting 100
▁physic 100
▁propos 100
▁spring 100
▁يقومون 100
▁termini 100
▁المنطقة 100
▁erhalten 100
▁malattie 100
▁perception 100
otz 100
pra 100
امة 100
راب 100
▁Jew 100
▁robiť 100
▁scala 100
▁الشكل 100
▁המדינה 100
▁falling 100
▁naturale 100
▁movements 100
▁mathematical 100
ciu 100
▁28 100
▁Pi 100
חילו 100
ציות 100
▁Ero 100
▁שומ 100
▁Flug 100
▁أربعة 100
▁Indust 100
▁member 100
▁solito 100
▁الكوكب 100
▁avevamo 100
▁victims 100
▁الأعمال 100
▁swimming 100
▁laboratorio 100
sť 100
ovi 100
ibri 100
▁Sau 100
▁Typ 100
immer 100
▁Manh 100
▁Pred 100
▁يملك 100
▁okolo 100
▁نموذج 100
itarian 100
▁clever 100
▁sinistra 100
▁combination 100
▁fundamentally 100
▁мы 100
▁פח 100
ernt 100
viol 100
בורה 100
▁lan 100
▁מנו 100
▁תחת 100
▁لاي 100
ación 100
▁وجدت 100
▁Ghana 100
▁drill 100
▁ricev 100
▁المدن 100
▁Forsch 100
▁negoti 100
▁diventa 100
▁concrete 100
▁election 100
▁memories 100
▁interface 100
▁entwickeln 100
wa 100
cit 100
iker 100
▁Bed 100
▁Law 100
▁než 100
▁sce 100
▁נית 100
רויות 100
▁môžu 100
▁tale 100
▁يسمى 100
▁Olymp 100
▁האנושי 100
▁القليل 100
▁courage 100
aka 100
ؤول 100
خرا 100
دين 100
avor 100
elly 100
ický 100
omin 100
ässt 100
ارنة 100
ريات 100
▁הנק 100
▁مفت 100
▁يعلم 100
▁incor 100
▁minim 100
▁Heraus 100
▁assign 100
▁עומדים 100
▁bewegen 100
▁المختلف 100
▁traveling 100
צאה 100
enia 100
البا 100
▁Ser 100
▁vod 100
▁שעו 100
▁دور 100
konom 100
▁Gene 100
▁שלהן 100
▁femin 100
▁všetci 100
▁التالي 100
▁applied 100
▁disgust 100
لكت 100
▁zl 100
▁תכ 100
haft 100
▁Rio 100
▁בלו 100
▁והע 100
▁مجد 100
ienen 100
▁Jeff 100
▁alte 100
▁bemer 100
▁Stunden 100
▁einigen 100
כבת 100
غرق 100
igte 100
▁Tur 100
▁žen 100
▁انهم 100
▁מסויי 100
▁שאלות 100
▁عليكم 100
▁winter 100
▁metabol 100
▁exchange 100
▁verändert 100
uď 100
▁״ 100
وام 100
amma 100
onie 100
ماية 100
▁Sir 100
▁كلا 100
▁Sand 100
▁cast 100
▁האור 100
▁نقطة 100
▁amore 100
▁لكننا 100
▁يتحدث 100
▁buying 100
▁worlds 100
▁بيانات 100
▁hydrogen 100
▁manchmal 100
▁participate 100
▁technological 100
جح 100
liš 100
neh 100
vej 100
טון 100
ערב 100
fera 100
sled 100
uits 100
قافة 100
▁Tem 100
▁van 100
▁pair 100
▁uman 100
▁ďale 100
▁تبدأ 100
▁astero 100
▁parall 100
▁života 100
▁Manhatt 100
▁realmente 100
בלת 100
דוע 100
▁Ir 100
▁zm 100
▁ча 100
agon 100
▁Ven 100
▁bul 100
▁מהו 100
▁سطح 100
▁وتح 100
eller 100
▁voce 100
▁goals 100
▁hotel 100
▁takže 100
▁بعضها 100
▁والدي 100
▁devast 100
▁ועכשיו 100
▁harvest 100
▁الفيديو 100
▁practical 100
had 100
מלה 100
תחלה 100
▁Cap 100
▁skú 100
▁רגי 100
▁طرق 100
▁gain 100
▁silk 100
▁تمكن 100
▁فنحن 100
▁ننظر 100
ortion 100
▁pezzo 100
▁počas 100
▁עצמנו 100
▁rischio 100
▁witness 100
▁chiamata 100
▁innerhalb 100
دن 100
alf 100
igr 100
جوم 100
ächt 100
▁וכמ 100
▁עשה 100
▁Janu 100
▁Mill 100
▁الذك 100
▁getan 100
▁גבוהה 100
▁Robert 100
▁awesome 100
▁vaccine 100
▁abstract 100
əş 100
קרון 100
▁800 100
kommt 100
בורים 100
▁Jack 100
▁Ober 100
▁مثير 100
ettiva 100
▁alien 100
▁sugar 100
▁כשאני 100
▁joined 100
▁vessel 100
▁Central 100
▁Kindern 100
▁לאחרונה 100
▁prodotto 100
▁soldiers 100
▁gentlemen 100
▁soluzione 100
▁protection 100
St 100
וש 100
arr 100
ائف 100
▁لر 100
umps 100
טיות 100
▁les 100
▁gross 100
▁skelet 100
▁أنفسنا 100
▁habitat 100
▁niektor 100
▁piccole 100
▁singing 100
▁visible 100
▁according 100
▁classroom 100
▁encounter 100
▁terrorism 100
▁components 100
جاز 100
▁мо 100
icol 100
olden 100
מיינו 100
▁Flor 100
▁hurt 100
▁חוסר 100
▁Hause 100
▁أتحدث 100
▁حينما 100
▁Freund 100
▁מגיעים 100
▁suffici 100
▁viaggio 100
▁menschlichen 100
umn 100
פני 100
hlte 100
גלית 100
▁Cor 100
▁שנת 100
alled 100
▁larg 100
▁lens 100
▁الحض 100
▁fewer 100
▁laser 100
ificare 100
▁niekoľ 100
▁patent 100
▁stesse 100
▁depends 100
▁printing 100
▁molecular 100
▁neighbors 100
▁productive 100
əb 100
ئا 100
orsa 100
راحة 100
▁Sym 100
▁muž 100
▁שרא 100
▁أكن 100
▁hlav 100
▁شبكة 100
urance 100
▁Stück 100
▁orbit 100
▁piedi 100
▁sacco 100
▁songs 100
▁forgot 100
▁formed 100
▁review 100
▁pratica 100
▁scritto 100
▁cultures 100
▁Foundation 100
▁unglaublich 100
oby 100
ová 100
קשה 100
רגש 100
جات 100
ريكم 100
ماذج 100
▁ľuď 100
▁mund 100
▁الها 100
▁Labor 100
▁Vater 100
▁reven 100
▁לשאול 100
▁Dieser 100
▁Publik 100
▁bubble 100
▁season 100
▁kitchen 100
entlichen 100
▁organism 100
▁recorded 100
▁risolvere 100
▁restaurant 100
ığ 100
دنا 100
arti 100
כרים 100
▁pár 100
entic 100
haupt 100
▁1970 100
▁eher 100
▁úžas 100
▁למען 100
▁Mount 100
▁nikdy 100
▁former 100
▁sample 100
▁vostri 100
▁niemand 100
▁nämlich 100
▁expression 100
▁resistance 100
▁unterschied 100
vas 100
جين 100
وفة 100
áciu 100
▁Beg 100
▁raz 100
änger 100
▁cest 100
zeugen 100
▁Space 100
▁breve 100
▁minor 100
▁Umwelt 100
▁besten 100
▁mystery 100
▁myšlien 100
▁beginnen 100
▁33 100
odes 100
▁Kal 100
▁לומ 100
vedom 100
▁zist 100
▁قليل 100
▁المحا 100
▁Martin 100
▁geomet 100
▁volevo 100
▁البيئة 100
▁monitor 100
▁للاهتمام 100
▁potentially 100
سيا 100
لكم 100
وين 100
asti 100
ifen 100
▁Tas 100
▁deň 100
▁رسم 100
hythm 100
وانين 100
▁scon 100
▁הסרט 100
essimo 100
▁poetry 100
▁מתכוון 100
▁operate 100
▁parlato 100
▁introduced 100
▁kr 100
▁tá 100
amoz 100
bage 100
ونات 100
▁Werk 100
▁atom 100
▁mani 100
▁לשים 100
▁خمسة 100
▁fatta 100
▁relat 100
▁ľudsk 100
▁الصعب 100
▁علاقة 100
▁Bezieh 100
▁cortex 100
▁הגדולה 100
genommen 100
▁Perhaps 100
▁discussion 100
▁مم 100
ften 100
חסים 100
▁Bol 100
▁Dov 100
▁baş 100
▁באו 100
▁بيت 100
gende 100
▁bian 100
▁الرس 100
▁ansch 100
▁scher 100
▁القصص 100
▁pulled 100
▁بالضبط 100
▁ktorých 100
▁الكربون 100
zustellen 100
▁ancestors 100
▁invention 100
▁conservation 100
nic 100
ייס 100
وبي 100
▁uč 100
▁اش 100
atar 100
▁Bür 100
▁עבוד 100
fläche 100
▁glück 100
▁scann 100
▁בהרבה 100
▁مليار 100
▁destra 100
▁microbi 100
▁scienziati 100
מץ 100
ודד 100
▁تصل 100
produ 100
▁arts 100
▁ساعة 100
uchten 100
▁Haiti 100
▁false 100
▁משתמש 100
▁ولكنه 100
▁Anyway 100
▁advent 100
▁conver 100
▁option 100
▁orient 100
▁engaged 100
▁funding 100
▁lessons 100
▁graduate 100
▁Hollywood 100
▁interessant 100
بين 100
▁Eb 100
▁tý 100
rett 100
ديدا 100
▁Adam 100
▁Only 100
▁dogs 100
▁Innov 100
▁cards 100
▁chimp 100
▁roads 100
▁tohto 100
▁לדמיין 100
▁ببساطة 100
▁feature 100
▁Manhattan 100
▁democratic 100
דיר 100
قدة 100
▁טר 100
fekt 100
בלות 100
ינים 100
▁אוב 100
osion 100
▁hang 100
▁vera 100
▁أشهر 100
▁عملي 100
▁Willi 100
دف 100
völ 100
zin 100
רחק 100
▁Vy 100
isto 100
ادية 100
▁Mot 100
▁Nem 100
▁phr 100
atici 100
▁تجاه 100
▁نسبة 100
▁نفكر 100
▁zdrav 100
▁einzige 100
▁nemmeno 100
▁schauen 100
▁astronom 100
▁mechanism 100
▁affrontare 100
бі 100
نب 100
erk 100
נסה 100
ctic 100
طاقة 100
inson 100
▁lect 100
▁بالا 100
▁Union 100
▁dokon 100
▁rozpr 100
▁uncom 100
▁القادمة 100
▁awareness 100
▁Herausford 100
▁comportamento 100
קח 100
الا 100
▁Bur 100
▁Dam 100
▁Lab 100
▁gon 100
▁המג 100
▁sage 100
▁الشع 100
لكترون 100
▁الاعت 100
erweise 100
▁economies 100
▁assolutamente 100
ugg 100
איר 100
رنا 100
عرض 100
ccan 100
oked 100
ستان 100
▁Dopo 100
▁Prot 100
▁מנסה 100
▁سمعت 100
▁deploy 100
▁entram 100
▁regard 100
▁hospitals 100
▁differenti 100
▁explanation 100
שע 100
ابع 100
▁أط 100
igli 100
لسلة 100
▁ers 100
▁gal 100
▁גיל 100
indet 100
orter 100
▁Five 100
▁golf 100
▁mile 100
▁rout 100
▁einge 100
▁hoping 100
▁viruses 100
▁במהירות 100
سد 100
aded 100
טחון 100
▁Spr 100
▁ern 100
▁בצד 100
▁כרי 100
▁לקו 100
build 100
falls 100
onnen 100
▁sopr 100
▁zwar 100
▁ועוד 100
imeter 100
▁datab 100
▁grant 100
▁storm 100
▁الغير 100
▁Sachen 100
öll 100
قطع 100
▁ובי 100
scale 100
▁Ziel 100
▁wars 100
▁حصلت 100
ifying 100
ulating 100
▁wireless 100
צבע 100
ليد 100
▁Zu 100
▁usc 100
amera 100
▁inno 100
▁House 100
▁lasci 100
▁libri 100
▁sanit 100
▁wegen 100
▁Gemein 100
▁gemeins 100
▁interests 100
▁newspaper 100
▁typically 100
iy 100
rd 100
asp 100
▁0. 100
▁مف 100
▁يل 100
cano 100
chod 100
חקים 100
פואה 100
▁Get 100
▁Jed 100
▁aer 100
▁תאי 100
▁prac 100
▁אינם 100
ension 100
▁conce 100
▁שאולי 100
▁תוכלו 100
וניברסי 100
▁Anfang 100
▁führen 100
▁موجودة 100
▁dropped 100
▁الأحيان 100
▁pensiamo 100
▁literature 100
lyn 100
▁וז 100
adow 100
haus 100
rale 100
äten 100
נטית 100
ضيات 100
▁Rel 100
▁rab 100
▁משחק 100
▁المه 100
ternal 100
▁Krebs 100
▁ברחבי 100
▁הביתה 100
▁וידאו 100
▁أثناء 100
▁arriva 100
▁verità 100
schaften 100
▁qualità 100
▁convince 100
▁organizz 100
▁prepared 100
plo 100
קרי 100
▁تك 100
▁odd 100
▁برا 100
נקודה 100
▁lato 100
▁إحدى 100
▁تطور 100
▁העתיד 100
▁يمكنه 100
▁Länder 100
▁bottle 100
▁trochu 100
▁ultima 100
▁המערכת 100
▁حياتنا 100
▁للقيام 100
▁Stellen 100
▁aiutare 100
▁davanti 100
▁outcome 100
pir 100
▁لط 100
roso 100
▁frü 100
▁mim 100
▁בפי 100
▁ענק 100
▁ذهب 100
רונים 100
▁busy 100
▁מושג 100
▁While 100
▁sorpr 100
▁sprav 100
▁conven 100
▁survey 100
▁strumento 100
▁الكمبيوتر 100
uld 100
ťah 100
▁إذ 100
▁اد 100
▁بض 100
▁ضع 100
▁لق 100
stro 100
▁Eig 100
▁Jim 100
▁לכת 100
▁جون 100
eranno 100
▁klein 100
▁impatto 100
▁opinion 100
▁silence 100
▁accurate 100
▁האינטרנט 100
út 100
למי 100
جاج 100
▁יא 100
▁Kan 100
▁האל 100
▁שהע 100
وروبا 100
▁oldu 100
▁الصح 100
▁Wikip 100
▁fondo 100
▁وربما 100
▁Techni 100
▁desper 100
▁האמריק 100
▁לוקחים 100
▁يكونوا 100
▁الأخيرة 100
▁constant 100
▁contempor 100
▁explained 100
▁29 100
foot 100
odob 100
שאים 100
▁تيد 100
▁ستة 100
▁Lage 100
▁רחוק 100
▁تعيش 100
▁أماكن 100
▁deaths 100
▁dispon 100
▁flower 100
▁inject 100
▁poteva 100
▁שהייתי 100
▁occurred 100
▁transplant 100
iar 100
נהל 100
צרת 100
שבת 100
بون 100
فات 100
دمات 100
▁Lin 100
▁عائ 100
▁guar 100
▁قطعة 100
pected 100
▁dress 100
▁Musica 100
▁Nobody 100
▁advice 100
▁intent 100
▁aliment 100
mí 100
נדה 100
רקע 100
انة 100
ilit 100
▁Zum 100
▁ged 100
▁חצי 100
▁להג 100
▁icon 100
▁tack 100
▁מידה 100
▁الرق 100
achten 100
istics 100
▁sweet 100
▁المئة 100
▁satisf 100
▁malattia 100
▁transfer 100
▁photographs 100
تل 100
דיה 100
عبة 100
نيا 100
▁CEO 100
▁ťaž 100
▁שלמ 100
esten 100
rator 100
▁נהדר 100
▁المغ 100
▁המקום 100
▁بسيطة 100
▁posled 100
▁volete 100
▁להתמודד 100
▁pleasure 100
▁pollution 100
▁destruction 100
▁grandfather 100
ypt 100
ספי 100
▁85 100
▁ве 100
▁ند 100
ares 100
atte 100
essa 100
idere 100
▁spar 100
▁اخرى 100
ודנטים 100
▁forme 100
▁produz 100
▁urobiť 100
▁fantastico 100
öp 100
aco 100
וגל 100
▁זי 100
word 100
ücke 100
כלית 100
▁Cop 100
▁aug 100
▁rou 100
▁urč 100
icate 100
night 100
▁Ment 100
▁tank 100
▁unus 100
עיונות 100
▁admit 100
▁anten 100
▁mille 100
▁קדימה 100
▁denaro 100
▁drives 100
▁player 100
▁העובדה 100
▁الموسيقى 100
▁Entwicklung 100
-4 100
▁ומא 100
▁للش 100
power 100
נויים 100
▁Sinn 100
▁club 100
▁Texas 100
▁sfida 100
▁vanno 100
▁dialog 100
▁pollen 100
▁fossero 100
▁options 100
▁versucht 100
▁všetkých 100
▁encourage 100
▁generally 100
לס 100
صط 100
eso 100
ému 100
roll 100
סיקה 100
▁Que 100
▁fen 100
▁vit 100
▁ולי 100
▁بتح 100
achst 100
▁horm 100
▁אינה 100
▁تأخذ 100
▁allem 100
▁objav 100
▁figlio 100
▁السكان 100
▁attacks 100
▁oggetti 100
▁الأماكن 100
▁überhaupt 100
בוק 100
asto 100
itos 100
שיית 100
شرين 100
▁kil 100
▁mare 100
▁pump 100
▁runs 100
▁أفكر 100
istica 100
source 100
▁שיהיה 100
▁النمو 100
▁correl 100
▁להסתכל 100
▁الانترنت 100
▁computing 100
PA 100
igu 100
▁Sa 100
לווי 100
מחים 100
▁דור 100
▁עבר 100
▁طول 100
كتشاف 100
▁bicy 100
▁bild 100
▁המוד 100
denken 100
▁Immag 100
▁istitu 100
▁territ 100
▁Pacific 100
▁komplex 100
▁remains 100
▁מסתכלים 100
▁المختلفة 100
▁algorithm 100
onde 100
oten 100
פקיד 100
▁Wel 100
▁שיי 100
▁army 100
▁mite 100
▁نعمل 100
▁spett 100
▁thick 100
▁الطفل 100
richten 100
▁cittad 100
▁cresci 100
▁entfer 100
▁evolve 100
▁neuron 100
▁התחלנו 100
▁iniziare 100
▁macchine 100
▁Möglichkeiten 100
aní 100
aint 100
inde 100
resa 100
▁Bei 100
▁blu 100
▁cez 100
▁doz 100
▁והח 100
iglie 100
▁Aufg 100
▁casi 100
▁fatt 100
▁השמש 100
▁quart 100
▁topic 100
▁גברים 100
▁assume 100
▁solved 100
▁الهواء 100
▁ملايين 100
▁tonight 100
▁dramatic 100
▁Universum 100
▁operation 100
▁providing 100
▁physically 100
▁שס 100
▁مغ 100
▁Zug 100
▁cab 100
earch 100
▁ener 100
▁zoom 100
▁הבאה 100
▁תהליך 100
▁Nessun 100
▁esseri 100
▁raccol 100
▁Prozess 100
▁termine 100
▁unexpected 100
leb 100
itto 100
▁buon 100
▁flag 100
iziert 100
▁chose 100
▁notes 100
▁plate 100
▁עשיתי 100
▁scorso 100
▁יכולתי 100
▁clothes 100
▁treffen 100
▁appreciate 100
▁Unfortunately 100
üng 100
hips 100
onen 100
rass 100
▁Budd 100
▁beob 100
▁piac 100
▁دولة 100
▁films 100
▁יכולת 100
▁gruppi 100
▁النووي 100
▁يمكنها 100
azionale 100
ressione 100
▁interag 100
▁nächste 100
amozrejme 100
▁internal 100
▁prodotti 100
▁technoló 100
▁М 100
דרה 100
▁дз 100
▁náj 100
▁جمع 100
▁ميل 100
▁Kong 100
▁Norm 100
▁طوال 100
▁نظرة 100
▁logic 100
▁critic 100
▁faccia 100
▁teoria 100
▁Publikum 100
▁gleichen 100
▁ultimate 100
▁improvvis 100
▁algorithms 100
weg 100
wär 100
öst 100
ורד 100
▁Ug 100
▁Za 100
כבות 100
يرات 100
▁Lib 100
▁مقد 100
iders 100
▁כשהם 100
▁قالت 100
▁Tiere 100
▁azienda 100
▁empathy 100
▁applications 100
ша 100
ضم 100
واة 100
miss 100
sein 100
חילה 100
شرات 100
▁cad 100
▁קשר 100
nahme 100
▁dico 100
▁trop 100
▁وكأن 100
▁ridic 100
▁جامعة 100
▁قاموا 100
▁الجديد 100
▁parking 100
▁comunque 100
▁pregnant 100
▁situations 100
▁Information 100
כח 100
bec 100
ísk 100
כלי 100
خول 100
▁dá 100
▁הלב 100
▁prin 100
▁تظهر 100
▁בשנות 100
▁bringt 100
▁fabric 100
▁secure 100
▁يريدون 100
▁chicken 100
▁mussten 100
úp 100
ענו 100
طرة 100
▁Eins 100
▁aree 100
▁chia 100
▁فإنه 100
▁وبدأ 100
▁وراء 100
▁humor 100
▁cammin 100
▁estate 100
▁estrem 100
▁whales 100
▁ragazzo 100
▁proteins 100
aticamente 100
▁centuries 100
oco 100
ína 100
כוח 100
▁ah 100
over 100
▁anx 100
ujete 100
لاقات 100
▁Hoff 100
▁الأغ 100
▁رؤيت 100
▁كلها 100
▁liked 100
▁tests 100
▁نحاول 100
▁scegli 100
▁בשבילי 100
▁الأيام 100
▁يقولون 100
▁accesso 100
▁dicendo 100
▁diction 100
ventional 100
▁infected 100
▁الأساسية 100
▁istruzione 100
BC 100
odo 100
▁طب 100
stra 100
ände 100
▁Ros 100
▁קילו 100
▁تفكر 100
rosoft 100
▁Teraz 100
▁lying 100
▁vyzer 100
▁دراسة 100
▁rising 100
▁معلومات 100
▁Wikipedia 100
DA 100
asm 100
ádz 100
טיה 100
רוס 100
منة 100
▁نن 100
▁خمس 100
▁مؤس 100
▁كامل 100
ificio 100
▁embar 100
▁faced 100
▁offic 100
▁strat 100
▁יוכלו 100
▁اللغة 100
▁خلايا 100
▁mistake 100
▁normale 100
▁الاقتصاد 100
كار 100
▁rum 100
▁ذكر 100
▁tape 100
▁atoms 100
▁Zellen 100
▁immune 100
▁closely 100
ру 100
ומת 100
מיה 100
كمة 100
▁اج 100
▁فج 100
erta 100
icit 100
irds 100
ouds 100
בוצה 100
ננים 100
ظيمة 100
لاحظ 100
▁Pan 100
▁ack 100
▁inn 100
▁לרא 100
▁بحث 100
▁بهم 100
ávajú 100
כונית 100
▁Wahl 100
▁تعلمت 100
▁يتوجب 100
ostante 100
▁Oxford 100
▁التطور 100
▁الإطلاق 100
▁meaningful 100
▁inspiration 100
▁collaboration 100
טיב 100
ادث 100
شاط 100
▁Os 100
Amer 100
engu 100
uden 100
פאים 100
▁ליד 100
vanie 100
▁lebo 100
▁množ 100
▁refr 100
▁الار 100
▁غرفة 100
▁Elekt 100
▁legge 100
▁לחזור 100
▁الحدي 100
möglich 100
▁meines 100
▁זקוקים 100
▁evening 100
▁figures 100
▁sociali 100
čný 100
وضع 100
▁fib 100
▁أيام 100
▁ester 100
▁fatti 100
▁punti 100
▁לגלות 100
▁לדעתי 100
▁suffer 100
▁afterno 100
▁magnetic 100
▁mistakes 100
▁partecip 100
▁Erfahrung 100
▁sensitive 100
▁חל 100
fern 100
▁anz 100
▁ogn 100
▁twe 100
▁خلف 100
שירים 100
▁Bush 100
▁táto 100
▁الأب 100
▁argom 100
▁assic 100
▁frank 100
▁kamen 100
▁letto 100
▁toxic 100
▁קרובות 100
▁الصحية 100
▁Microsoft 100
▁settimane 100
هو 100
bles 100
يروس 100
▁במס 100
▁מתמ 100
▁loud 100
▁völl 100
mitted 100
▁dense 100
▁maxim 100
▁mirror 100
▁الكبير 100
▁يمكنهم 100
▁sensors 100
▁therapy 100
▁features 100
▁riguardo 100
▁costruito 100
▁confidence 100
anne 100
▁מטר 100
alian 100
ächst 100
▁eggs 100
▁skup 100
▁لحظة 100
▁error 100
▁בסופו 100
▁המחשב 100
flanzen 100
▁Sweden 100
▁puzzle 100
▁remove 100
aneously 100
ريط 100
▁وز 100
ívne 100
▁Dor 100
▁Oce 100
▁Tes 100
▁Pero 100
▁Všet 100
▁cens 100
▁obes 100
▁הקול 100
▁الشئ 100
▁تذهب 100
▁Gates 100
▁parla 100
▁spazi 100
▁verde 100
▁אמריק 100
▁מקווה 100
▁שנוכל 100
▁boring 100
▁المرأة 100
inations 100
▁rendere 100
▁caratter 100
סס 100
צג 100
bie 100
ння 100
פית 100
اند 100
▁Bob 100
▁Tim 100
cking 100
▁west 100
▁בלבד 100
▁تذكر 100
▁upper 100
▁Dingen 100
▁measured 100
▁Something 100
▁statement 100
▁Gesundheits 100
EC 100
bei 100
usa 100
ייר 100
▁אס 100
ched 100
yram 100
ומית 100
اريع 100
▁ערך 100
▁bias 100
▁قامت 100
friend 100
▁carta 100
▁صناعة 100
▁worden 100
▁Archite 100
▁unusual 100
▁disaster 100
ož 100
הל 100
rane 100
اصيل 100
هولة 100
▁voj 100
▁מבט 100
jekte 100
▁obst 100
▁vere 100
▁تنظر 100
▁جانب 100
▁amico 100
▁Island 100
▁weitere 100
▁International 100
zd 100
opp 100
قود 100
يجة 100
ollo 100
סטרו 100
الجة 100
▁Oze 100
▁להן 100
▁תופ 100
▁نشر 100
▁Wand 100
▁بسيط 100
▁label 100
▁sette 100
▁الاحت 100
▁Vedete 100
▁meccan 100
▁príbeh 100
▁solche 100
▁Everyone 100
▁manifest 100
▁protected 100
LA 100
ais 100
zia 100
▁ספ 100
▁فض 100
hers 100
opes 100
raum 100
rück 100
ديات 100
▁ומע 100
▁1000 100
▁Mand 100
▁scan 100
▁בעבר 100
▁והנה 100
▁court 100
▁súčas 100
isieren 100
▁Myslím 100
▁struck 100
▁passare 100
▁Geschäft 100
▁wondered 100
▁chimpanze 100
▁electronic 100
أس 100
lád 100
כני 100
ولد 100
tech 100
تيجة 100
وارد 100
واعد 100
▁Day 100
▁המט 100
▁מוס 100
▁ראי 100
▁مكت 100
acing 100
ových 100
▁bass 100
▁הופך 100
▁הלאה 100
▁ישנה 100
▁Fried 100
▁embed 100
▁suono 100
▁andato 100
▁האמיתי 100
▁amounts 100
▁storytell 100
▁passionate 100
lap 100
niť 100
sum 100
▁أض 100
▁شر 100
esth 100
ראית 100
לקטרו 100
موعات 100
▁Tanz 100
▁acts 100
▁cioè 100
▁mnoh 100
▁pall 100
▁pool 100
▁כולל 100
▁לצאת 100
▁מזון 100
▁עולה 100
▁الفق 100
▁Erfol 100
▁sacri 100
וקיינוס 100
▁aspect 100
▁traged 100
▁Staaten 100
▁balloon 100
▁maggiore 100
mm 100
maq 100
אור 100
داة 100
غيل 100
agne 100
keys 100
▁ويت 100
vesse 100
▁hits 100
▁shel 100
▁בסיס 100
▁החדש 100
▁الجد 100
▁مئات 100
▁مثلا 100
▁Colle 100
▁biodi 100
▁rooms 100
▁split 100
▁Pretože 100
▁borders 100
▁embrace 100
▁flowers 100
оў 100
ماك 100
ميه 100
▁BF 100
born 100
מינו 100
▁חלו 100
orden 100
▁Oper 100
▁mere 100
▁wine 100
▁למטה 100
▁Egypt 100
▁explo 100
▁seeds 100
▁عالية 100
▁eigene 100
▁قادرين 100
▁instrum 100
▁records 100
▁الرعاية 100
אלי 100
פרט 100
ارك 100
كمل 100
▁Sú 100
▁ao 100
brig 100
▁Bus 100
▁dop 100
▁пры 100
▁הסט 100
▁נשא 100
icare 100
ragen 100
▁thin 100
▁أعمل 100
▁فحسب 100
finden 100
making 100
▁Kraft 100
▁toler 100
▁Lassen 100
▁entsche 100
▁الجمهور 100
▁Struktur 100
▁equality 100
▁framework 100
▁materiale 100
sey 100
מול 100
orsi 100
álny 100
▁الظ 100
etter 100
▁Gebi 100
▁Gren 100
▁flew 100
▁تطبي 100
▁يوما 100
▁איננו 100
▁القول 100
▁extent 100
▁tested 100
▁thanks 100
▁comprom 100
▁players 100
▁progetti 100
▁cambiamenti 100
ýt 100
жы 100
vey 100
כוי 100
ראי 100
ריי 100
נועה 100
▁מתק 100
▁كتب 100
level 100
statt 100
▁Verl 100
▁Tages 100
▁feder 100
▁للناس 100
inction 100
▁Verein 100
▁našich 100
ichtlich 100
▁Arbeits 100
▁diversa 100
▁instruct 100
▁الموجودة 100
▁avrebbero 100
▁determine 100
▁personally 100
ení 100
opy 100
ýšľ 100
روا 100
مرض 100
▁ug 100
▁Kre 100
▁קרוב 100
▁تملك 100
▁يذهب 100
▁avvic 100
▁globe 100
▁lever 100
▁podob 100
▁sanno 100
▁shall 100
▁שנמצא 100
▁Grunde 100
▁Wochen 100
▁effett 100
▁placed 100
▁אלוהים 100
▁possano 100
▁pushing 100
▁العصبية 100
▁skutočne 100
▁menschliche 100
נח 100
▁MS 100
▁جز 100
▁صح 100
izie 100
▁Mah 100
▁akt 100
▁jaz 100
▁unt 100
▁הער 100
baren 100
inato 100
lungs 100
شاهدة 100
▁Mach 100
▁rede 100
▁قيمة 100
phones 100
▁boxes 100
▁dozen 100
▁score 100
attutto 100
▁intera 100
▁بالمئة 100
▁التواصل 100
▁policies 100
▁vehicles 100
▁instruments 100
aks 100
zio 100
חיד 100
ları 100
ابقة 100
▁toy 100
▁اقت 100
باتات 100
▁colt 100
▁trig 100
▁شاهد 100
▁مرات 100
▁Prima 100
▁fruit 100
▁smile 100
▁المطا 100
▁agreed 100
▁January 100
▁channel 100
▁circuit 100
▁largely 100
▁reverse 100
▁tornare 100
▁younger 100
▁الروبوت 100
▁allowing 100
▁afternoon 100
▁spiritual 100
mmo 100
íta 100
ľko 100
well 100
וציה 100
▁raw 100
▁tur 100
▁והה 100
▁כזו 100
▁chap 100
▁sets 100
bridge 100
isiert 100
ließen 100
▁alber 100
▁bones 100
▁depth 100
▁vesmí 100
▁لأنهم 100
▁موجود 100
▁scelta 100
▁aspects 100
▁fishing 100
▁nowhere 100
▁combined 100
▁equation 100
▁collected 100
uba 100
viť 100
ורם 100
כתב 100
קרב 100
حقا 100
iede 100
iniz 100
árov 100
▁Ric 100
▁ולק 100
▁يحت 100
▁يصل 100
ipend 100
ערכות 100
▁wund 100
▁בפעם 100
▁Autos 100
▁Essen 100
▁stere 100
▁דוגמה 100
▁לפתור 100
▁Before 100
▁accett 100
▁direkt 100
▁monkey 100
▁repair 100
▁vidíte 100
▁director 100
▁conoscenza 100
iso 100
هات 100
ورد 100
▁Öl 100
▁نف 100
▁Aug 100
▁התג 100
▁معه 100
▁bath 100
▁ears 100
▁تعني 100
▁معدل 100
▁angry 100
▁plané 100
▁taste 100
▁בהחלט 100
▁الجسم 100
▁bereit 100
▁filter 100
▁מקומות 100
▁carried 100
▁drinking 100
▁capitalism 100
▁percentage 100
▁implications 100
ст 100
äss 100
אום 100
ifth 100
oral 100
rutt 100
usto 100
zone 100
▁Bay 100
▁Sek 100
▁krá 100
▁מהן 100
reich 100
ليدية 100
▁Long 100
▁Matt 100
▁Miss 100
▁disk 100
▁גורם 100
▁حركة 100
▁فريق 100
فريقيا 100
▁Nacht 100
▁White 100
▁recyc 100
▁المؤس 100
▁تحقيق 100
▁fertil 100
▁oggetto 100
▁protest 100
▁provare 100
▁embarrass 100
▁underwater 100
▁І 100
yan 100
ını 100
قيت 100
▁כד 100
حيدة 100
▁Sex 100
▁كأن 100
▁tort 100
▁חשבו 100
▁deren 100
▁jedna 100
▁milió 100
▁osped 100
▁sveta 100
▁unten 100
▁vital 100
▁ואולי 100
▁enable 100
▁handle 100
▁regole 100
▁constra 100
▁edificio 100
▁functions 100
še 100
צט 100
واد 100
▁נג 100
iana 100
wert 100
נינו 100
▁Mas 100
▁كار 100
▁للس 100
razia 100
▁Ford 100
▁quar 100
▁sint 100
▁أشعر 100
▁التى 100
▁pengu 100
▁עשינו 100
▁العلاج 100
▁diagram 100
▁painful 100
אל 100
اة 100
ajú 100
cen 100
iko 100
iday 100
stup 100
äume 100
שתמש 100
▁לבי 100
▁مقا 100
▁Kont 100
▁בסוף 100
▁Markt 100
▁benöt 100
▁takto 100
▁Saturn 100
▁letzte 100
▁völlig 100
▁conness 100
▁defined 100
▁exploring 100
▁lavorando 100
▁condividere 100
rik 100
بني 100
هلك 100
מידה 100
خبار 100
▁והן 100
▁ضمن 100
itors 100
▁Gold 100
▁Tage 100
▁sito 100
▁סרטן 100
▁Congo 100
▁Hilfe 100
▁bella 100
▁miner 100
▁sembr 100
▁القلب 100
▁علماء 100
▁damals 100
▁Finally 100
▁commerci 100
▁stronger 100
şı 100
ליל 100
נדר 100
درس 100
▁як 100
▁كر 100
▁Nap 100
▁קהי 100
▁شهر 100
▁محت 100
▁June 100
▁איתם 100
▁Gründ 100
▁Vorrei 100
▁dessen 100
▁sphere 100
▁stayed 100
▁ואפילו 100
▁circumstances 100
زف 100
appy 100
iens 100
▁Pop 100
▁pip 100
▁عال 100
▁Nahr 100
▁Viet 100
▁butt 100
▁pray 100
▁spie 100
▁vecí 100
▁يظهر 100
▁Carol 100
▁Number 100
▁acknow 100
▁capita 100
▁stelle 100
▁vorher 100
▁Freunde 100
▁efficiency 100
▁sustainability 100
נר 100
▁Mac 100
▁Rei 100
▁أرى 100
▁inqu 100
▁البا 100
▁autor 100
▁pharm 100
▁wären 100
▁50,000 100
▁button 100
▁inizia 100
▁limits 100
▁marine 100
▁poster 100
▁الصغير 100
▁collapse 100
▁permette 100
▁provided 100
▁continued 100
▁distributed 100
IS 100
שט 100
asy 100
rix 100
ובב 100
▁tv 100
▁שיע 100
assem 100
icted 100
▁erlau 100
▁prize 100
▁سيارة 100
▁Uganda 100
▁attrib 100
▁elektr 100
▁ladies 100
▁Gesicht 100
▁cambiato 100
▁hardware 100
▁laboratory 100
ائر 100
شوا 100
▁Fot 100
▁Fun 100
▁Girl 100
▁fake 100
▁חומר 100
▁Human 100
▁Peter 100
▁cents 100
▁renew 100
▁teams 100
▁يعتبر 100
▁Republ 100
▁Stiamo 100
▁clinic 100
▁resili 100
▁frankly 100
▁neurosci 100
▁riguarda 100
▁subjects 100
əc 100
בש 100
dep 100
▁طي 100
aste 100
▁tod 100
▁اليس 100
▁obrov 100
▁stone 100
▁ultra 100
▁עניין 100
izieren 100
▁senses 100
▁wunder 100
▁ולמעשה 100
▁causing 100
▁library 100
▁סיפורים 100
▁velocità 100
▁educational 100
▁جو 100
ندوق 100
وجود 100
▁fas 100
▁מאו 100
▁מהפ 100
▁רוח 100
▁عرف 100
▁2002 100
▁eben 100
▁הבית 100
▁יורק 100
▁دماغ 100
annten 100
▁decre 100
▁البرا 100
▁Palest 100
▁border 100
▁النقطة 100
▁burning 100
▁الشخصية 100
▁horrible 100
▁generazione 100
يق 100
ané 100
lož 100
сць 100
صدق 100
ostí 100
▁Eis 100
▁ate 100
athan 100
child 100
esign 100
gence 100
uting 100
▁About 100
▁Heute 100
▁لكنني 100
▁Invest 100
▁feeding 100
▁persino 100
▁السيارة 100
▁recording 100
▁recognized 100
ця 100
يميا 100
▁dva 100
▁kni 100
▁مات 100
▁isto 100
▁تحمل 100
▁altru 100
▁anger 100
▁lässt 100
▁plays 100
▁wider 100
▁مجددا 100
▁ولذلك 100
▁lingua 100
▁accordo 100
▁equally 100
▁znamená 100
▁מאמינים 100
▁lavorato 100
▁sarebbero 100
▁schwierig 100
nie 100
משו 100
▁وخ 100
لامة 100
▁Tam 100
▁kto 100
תייחס 100
▁excl 100
▁الفن 100
▁لكني 100
▁grund 100
▁revol 100
▁šťast 100
▁בחזרה 100
▁بعدها 100
▁diabet 100
▁laptop 100
▁obwohl 100
▁sports 100
▁exposed 100
▁neanche 100
▁offered 100
▁receive 100
▁האחרונה 100
▁comincia 100
▁prostred 100
▁scrivere 100
▁controvers 100
oo 100
▁ň 100
via 100
ומה 100
ivil 100
ختار 100
وبات 100
▁ארה 100
atten 100
ovala 100
▁mail 100
▁otto 100
▁snaž 100
▁wash 100
▁המאה 100
lossen 100
▁disag 100
▁spont 100
▁המחקר 100
▁Cambridge 100
▁الأمريكية 100
▁betrachten 100
ליו 100
מרו 100
فاق 100
كاف 100
▁كه 100
viet 100
דיים 100
▁NSA 100
▁התק 100
▁calc 100
▁mush 100
▁máte 100
▁rive 100
▁shif 100
▁vždy 100
▁حديث 100
▁فكرت 100
ements 100
ession 100
▁honey 100
▁pilot 100
▁קבוצה 100
▁الرغم 100
▁يحاول 100
▁vivono 100
▁advance 100
▁conclusion 100
אם 100
pie 100
זית 100
▁né 100
▁га 100
▁bow 100
▁ועד 100
glese 100
▁Span 100
▁الرب 100
▁fears 100
▁polio 100
▁أعمال 100
illance 100
▁reject 100
▁signed 100
▁העניין 100
▁ovunque 100
▁Gedanken 100
ľú 100
pia 100
ومي 100
koch 100
▁aim 100
▁ear 100
▁وأي 100
▁Fern 100
▁anat 100
▁joke 100
▁Boden 100
▁Democ 100
▁molta 100
▁ראשית 100
schnitt 100
standen 100
▁Lehrer 100
▁Nothing 100
▁corresp 100
▁dancing 100
▁medicina 100
▁refugees 100
▁evoluzione 100
▁linguaggio 100
▁Т 100
sun 100
ראק 100
▁כר 100
rome 100
stru 100
uali 100
כונים 100
▁dett 100
▁ours 100
▁בחדר 100
▁Korea 100
▁מרגיש 100
▁الموت 100
▁حقيقي 100
anthrop 100
▁Unsere 100
▁linked 100
▁cooking 100
▁gleiche 100
▁באפריקה 100
▁Remember 100
▁digitale 100
▁neurolog 100
▁sunlight 100
60 100
ový 100
בלה 100
שהי 100
روس 100
عار 100
لون 100
▁Kü 100
alia 100
▁Ast 100
▁הפך 100
▁بلد 100
▁Dove 100
▁Next 100
▁cock 100
▁evil 100
▁במוח 100
▁البن 100
▁mobil 100
▁sorta 100
▁תרבות 100
onymous 100
▁Monate 100
▁metter 100
▁nutrit 100
▁maniera 100
▁spectac 100
▁domestic 100
▁tracking 100
▁technique 100
▁controlled 100
aya 100
оль 100
פוש 100
ائن 100
▁נמ 100
chem 100
hold 100
just 100
מיחה 100
ادثة 100
راضي 100
▁orb 100
▁كله 100
comes 100
ולוגי 100
עילים 100
▁anzi 100
▁shut 100
▁solu 100
▁vest 100
▁znov 100
▁získ 100
▁معها 100
ziehen 100
▁Latin 100
▁simul 100
▁بعضهم 100
▁rating 100
▁subito 100
▁maintain 100
▁speranza 100
▁department 100
▁economists 100
▁moi 100
▁مري 100
▁2015 100
▁السو 100
ettura 100
▁Thema 100
▁تعليم 100
▁Denken 100
▁היחידה 100
▁וכמובן 100
▁careful 100
▁erstaun 100
▁الطبيعي 100
▁schlecht 100
▁curiosity 100
icl 100
باط 100
تمر 100
afft 100
iach 100
ucia 100
▁הפת 100
▁أظن 100
aceut 100
čnosť 100
▁פנים 100
▁dimin 100
▁weigh 100
▁التلف 100
▁colore 100
▁elabor 100
▁portra 100
▁besteht 100
▁fiction 100
▁modelli 100
▁overall 100
▁regener 100
▁scoprire 100
▁corporate 100
▁spreading 100
ذر 100
rey 100
óns 100
חוד 100
ؤمن 100
▁Jul 100
▁האת 100
▁עול 100
cence 100
ujúce 100
▁Hall 100
▁frat 100
▁leap 100
▁sink 100
▁tess 100
▁flood 100
▁grows 100
▁pochi 100
▁accade 100
▁regime 100
▁התשובה 100
▁להמשיך 100
▁command 100
▁engaging 100
▁matematica 100
▁compassione 100
äß 100
öße 100
هدا 100
▁то 100
mber 100
wing 100
طوير 100
▁Dok 100
▁shr 100
▁ניו 100
▁للب 100
iable 100
rando 100
▁Stat 100
▁Ster 100
▁nego 100
▁tast 100
▁tech 100
▁divide 100
▁relate 100
▁leggere 100
▁savings 100
▁הבריאות 100
▁crescere 100
▁percento 100
▁personale 100
وأ 100
▁Н 100
▁55 100
▁ya 100
▁וצ 100
what 100
موال 100
▁להק 100
▁מצב 100
chsel 100
▁subs 100
▁בגיל 100
▁النف 100
▁واضح 100
called 100
▁Smith 100
▁reput 100
▁scary 100
▁terzo 100
▁الكتاب 100
▁المنتج 100
▁architects 100
▁produzione 100
▁transformed 100
сці 100
airs 100
▁zab 100
▁عما 100
▁Time 100
▁está 100
▁seba 100
▁יקרה 100
▁والش 100
ických 100
▁theme 100
▁טובות 100
▁ثانية 100
▁behand 100
▁column 100
▁unlike 100
▁דמיינו 100
▁autonom 100
▁الاشخاص 100
▁السرطان 100
▁imagined 100
▁reported 100
▁consumers 100
▁connecting 100
סא 100
בלו 100
▁גל 100
prim 100
פיות 100
طباء 100
▁pon 100
opard 100
orous 100
▁Beif 100
▁ermö 100
▁כלום 100
▁משות 100
struct 100
▁Woche 100
▁dobre 100
▁shame 100
through 100
▁hervor 100
▁legisl 100
▁removed 100
▁samples 100
▁speriment 100
núť 100
בדו 100
▁dà 100
▁kv 100
▁ובר 100
▁حرف 100
▁2020 100
▁Tier 100
▁guad 100
▁obrá 100
▁اريد 100
▁لاحظ 100
▁lösen 100
▁ought 100
▁plans 100
▁נוספת 100
▁cerebr 100
▁elettr 100
▁Vietnam 100
▁authority 100
▁collecting 100
▁soprattutto 100
▁experiencing 100
كد 100
fel 100
▁סר 100
▁نص 100
cich 100
imet 100
ابعة 100
▁Oct 100
▁הקי 100
▁להב 100
▁واض 100
▁judg 100
▁prvý 100
▁toss 100
▁הכוח 100
▁phase 100
▁إنتاج 100
▁تعتقد 100
▁قليلة 100
ausende 100
▁fright 100
▁jedoch 100
▁extinct 100
▁fingers 100
▁distinct 100
▁vaccines 100
▁surrounded 100
קע 100
عطي 100
illy 100
otta 100
לקים 100
خصوص 100
ينما 100
▁vag 100
▁şey 100
▁מהח 100
▁רצו 100
▁שקי 100
▁تقد 100
▁Team 100
▁ואתה 100
gefühl 100
▁condiv 100
ographer 100
▁floating 100
wirtschaft 100
▁strangers 100
▁naturalmente 100
rt 100
нне 100
כיט 100
خلص 100
زاء 100
▁فق 100
acci 100
aran 100
▁dve 100
▁zvy 100
▁והפ 100
▁Dere 100
▁pink 100
▁בארה 100
▁חיות 100
▁جنوب 100
▁chaos 100
▁veder 100
▁stellt 100
▁unseres 100
▁vertical 100
mus 100
áte 100
שרד 100
▁42 100
ادات 100
ورية 100
▁אכן 100
▁بمج 100
immen 100
▁Coll 100
▁Mond 100
▁Post 100
▁ببعض 100
▁aspir 100
▁ראיתי 100
▁مشاكل 100
▁infant 100
▁interf 100
▁teilen 100
▁Florida 100
▁efforts 100
▁nessuna 100
▁poorest 100
▁הנתונים 100
▁chiunque 100
▁microscope 100
▁antibiotics 100
▁personality 100
צם 100
▁İ 100
▁بخ 100
hrte 100
▁cup 100
▁פול 100
▁פרס 100
alità 100
endes 100
lagen 100
▁Vort 100
▁كنتم 100
issima 100
▁carri 100
▁costo 100
▁našej 100
▁إيجاد 100
▁Bürger 100
▁Lösung 100
▁writer 100
▁presence 100
▁somewhat 100
▁الطبيعية 100
▁dinosaurs 100
▁application 100
ws 100
dən 100
ued 100
נהי 100
▁זר 100
▁ath 100
▁בבי 100
▁للف 100
▁مني 100
▁abbi 100
▁طويل 100
gebung 100
▁ausge 100
▁enemy 100
▁führt 100
▁peggi 100
▁zuvor 100
▁المرك 100
▁falsch 100
▁wusste 100
▁الشبكة 100
▁aggress 100
▁suicide 100
▁visione 100
▁dettagli 100
▁download 100
▁occasion 100
▁sopravviv 100
▁mechanical 100
زد 100
hla 100
isí 100
תים 100
ارد 100
زام 100
ضيت 100
achs 100
igur 100
جراء 100
▁Dia 100
▁Off 100
▁Poz 100
▁etm 100
▁nau 100
▁obl 100
▁Erst 100
▁Tats 100
▁entw 100
▁spin 100
▁لابد 100
▁ghiac 100
▁مثيرة 100
▁contrad 100
▁birthday 100
▁paintings 100
مون 100
▁31 100
▁Von 100
▁מות 100
▁بام 100
▁رأس 100
פשרות 100
▁Tony 100
▁file 100
▁nero 100
▁אישה 100
▁שקרה 100
▁drove 100
▁tempi 100
▁كثيرة 100
▁magari 100
▁effetto 100
▁existed 100
▁príklad 100
▁האנושית 100
dır 100
צוות 100
ريطة 100
▁Jon 100
▁dif 100
▁hey 100
▁הים 100
▁חוו 100
iture 100
▁Situ 100
▁debt 100
▁nose 100
▁החלו 100
▁ובכל 100
▁معهم 100
umento 100
▁Prečo 100
▁Viele 100
▁abund 100
▁belle 100
▁مرحلة 100
▁Modell 100
▁barely 100
▁fragte 100
▁hungry 100
▁giovane 100
▁interse 100
▁monkeys 100
▁windows 100
▁petrolio 100
▁greenhouse 100
צרה 100
▁UN 100
▁NGO 100
▁Cont 100
▁Ethi 100
▁Vert 100
▁gray 100
▁mese 100
▁ברשת 100
▁الحظ 100
▁20,000 100
▁oceano 100
▁צעירים 100
▁decline 100
▁התנהגות 100
▁captured 100
▁football 100
▁footprint 100
▁selection 100
▁populations 100
▁Wissenschaftler 100
▁К 100
כפת 100
▁Ot 100
▁SS 100
tery 100
▁mel 100
▁pin 100
▁رقم 100
▁vibr 100
▁נשמע 100
ديمقرا 100
▁facer 100
▁judge 100
▁xente 100
▁כשאתם 100
▁نتيجة 100
▁نعتقد 100
▁fisher 100
▁pocket 100
▁Roboter 100
connected 100
▁entschied 100
▁к 100
opl 100
אית 100
וחה 100
מני 100
רוש 100
▁Və 100
▁ذو 100
tedy 100
מדתי 100
▁بات 100
▁stol 100
▁שאמר 100
▁يشبه 100
▁prova 100
▁style 100
▁התחיל 100
▁العقل 100
ötzlich 100
▁numeri 100
▁الشباب 100
▁cheaper 100
▁combatt 100
▁impress 100
▁obrovsk 100
▁النتائج 100
▁concepts 100
▁outcomes 100
▁paziente 100
▁الأمريكي 100
▁celebrate 100
▁emergency 100
▁transparent 100
-3 100
cci 100
mod 100
מדו 100
▁Id 100
▁nə 100
iché 100
ufen 100
völk 100
حساس 100
درجة 100
▁Ext 100
▁Lar 100
▁לפר 100
▁أمي 100
▁1998 100
▁eleg 100
▁rozd 100
▁בשנת 100
▁להתח 100
מנויות 100
▁utter 100
▁veter 100
▁ציבור 100
▁جميلة 100
▁lifest 100
▁plenty 100
▁sollen 100
▁protegg 100
▁Children 100
▁disorder 100
▁elephant 100
▁attravers 100
▁committed 100
▁entrepreneur 100
תף 100
ظا 100
هش 100
▁Á 100
▁Š 100
▁iş 100
cers 100
iled 100
رقام 100
▁Bit 100
▁Kir 100
▁עור 100
▁שהח 100
▁خلق 100
aming 100
inzip 100
zeigt 100
▁Mess 100
▁انني 100
▁بشدة 100
▁نبدأ 100
▁يكفي 100
▁Haupt 100
▁Sehen 100
▁Woman 100
▁apple 100
▁chies 100
▁civili 100
▁fühlen 100
▁يعملون 100
▁College 100
▁finance 100
▁wherever 100
▁Christmas 100
▁reference 100
▁appropriate 100
▁recognition 100
عه 100
▁» 100
eds 100
ned 100
رجح 100
زين 100
▁يف 100
airo 100
fare 100
geme 100
▁10- 100
▁הגר 100
▁ולח 100
▁ألا 100
agger 100
wesen 100
▁Wert 100
▁loop 100
▁sala 100
▁štud 100
▁המקו 100
▁banks 100
▁genoc 100
▁Alcuni 100
▁colony 100
▁crying 100
▁parlar 100
▁eravamo 100
▁obiettivo 100
▁المجتمعات 100
▁incentives 100
▁innovazione 100
▁surveillance 100
óm 100
ələr 100
מינה 100
زياء 100
ساسا 100
▁afr 100
▁قطع 100
▁للخ 100
▁نقل 100
elten 100
itore 100
▁cant 100
▁milk 100
▁rile 100
▁والس 100
▁يخبر 100
zellen 100
▁Prize 100
▁abuse 100
▁الرسم 100
▁Mittel 100
▁najlep 100
▁robust 100
▁bleiben 100
▁genauso 100
▁parallel 100
▁destroyed 100
▁industria 100
▁practices 100
▁esperimento 100
MA 100
▁« 100
ביע 100
ברר 100
جاب 100
▁וט 100
ismi 100
خرين 100
ميات 100
▁amm 100
▁מכך 100
▁ראש 100
▁Eric 100
▁dosť 100
▁הרשת 100
▁معنى 100
koľvek 100
▁output 100
▁zweite 100
▁הסביבה 100
▁מוצאים 100
▁intense 100
▁generated 100
▁relazione 100
▁behavioral 100
▁communications 100
70 100
aa 100
▁Ž 100
bau 100
dri 100
מוע 100
פוי 100
iani 100
▁190 100
▁Boy 100
▁Hen 100
▁בטח 100
▁הכח 100
▁מהה 100
שירות 100
▁hine 100
▁בעיר 100
▁كمية 100
▁والج 100
▁يأخذ 100
▁חולים 100
▁غالبا 100
ünstler 100
▁worker 100
▁Ländern 100
▁ambient 100
▁traveled 100
▁commitment 100
▁transparency 100
ťa 100
ду 100
fli 100
fun 100
ingt 100
▁tat 100
▁והש 100
▁לקח 100
▁מתע 100
point 100
▁Blue 100
▁prie 100
▁zona 100
▁כרגע 100
▁advoc 100
▁fixed 100
▁knock 100
▁použí 100
▁المرة 100
▁مالذي 100
▁borrow 100
▁rocket 100
▁verbess 100
▁الكلمات 100
▁Familien 100
▁suggests 100
▁identical 100
▁presented 100
▁resolution 100
خلي 100
▁وط 100
agos 100
ügen 100
▁fed 100
▁ביו 100
zeuge 100
▁mice 100
▁muse 100
▁zach 100
▁نطاق 100
stehen 100
▁aktiv 100
▁minus 100
▁youth 100
▁השראה 100
▁חברים 100
▁الأهم 100
▁لاحقا 100
▁scritt 100
▁suchen 100
▁sugger 100
▁triang 100
▁للحصول 100
▁anderer 100
▁combine 100
▁العلماء 100
▁Africans 100
▁customers 100
▁disorders 100
▁uncomfort 100
▁пе 100
▁אמא 100
gging 100
▁boom 100
▁mysl 100
▁rush 100
▁קיים 100
▁عظيم 100
▁chest 100
▁היחיד 100
▁أفكار 100
▁Virgin 100
▁Yorker 100
▁agenda 100
▁dovete 100
▁Beifall 100
▁breathe 100
▁draußen 100
▁solving 100
▁sterben 100
enschaften 100
▁Fähigkeit 100
▁velocemente 100
ضط 100
ظي 100
▁١ 100
יוע 100
נתה 100
רוך 100
حاث 100
▁إث 100
▁فك 100
walk 100
▁gri 100
▁לוח 100
being 100
sters 100
علمون 100
▁jung 100
▁mala 100
▁škol 100
▁בחיי 100
▁צורך 100
▁لانه 100
▁يبدأ 100
ournal 100
▁liebe 100
מוקרטיה 100
▁manten 100
▁الأسئلة 100
▁Verhalten 100
▁chiamiamo 100
▁standards 100
▁journalist 100
zm 100
פן 100
▁П 100
can 100
לין 100
ניח 100
ألة 100
ängt 100
▁alz 100
▁giù 100
reten 100
▁Gore 100
▁Phys 100
▁Tell 100
▁stom 100
▁איתו 100
▁نظرت 100
▁وغير 100
▁aufge 100
▁epoca 100
▁erfol 100
▁exped 100
▁letzt 100
▁היקום 100
▁השניה 100
▁priest 100
▁základ 100
▁الحركة 100
▁الداخل 100
▁الغرفة 100
▁Bewegung 100
▁famiglie 100
kú 100
uť 100
▁С 100
ныя 100
пра 100
זיר 100
otyp 100
מישה 100
▁חזק 100
ading 100
flies 100
▁argu 100
▁hľad 100
▁laut 100
▁teil 100
▁עצמה 100
▁يمثل 100
ansion 100
▁Brook 100
▁Never 100
▁منتصف 100
tamente 100
▁oldest 100
▁implant 100
▁Research 100
▁apartment 100
▁exhibition 100
rof 100
▁إش 100
atik 100
▁Sub 100
▁fai 100
▁tav 100
▁הבה 100
▁השק 100
▁وست 100
apers 100
riamo 100
▁Turn 100
▁מושל 100
▁aston 100
▁cando 100
▁insan 100
▁massa 100
▁numer 100
▁מיוחד 100
▁السوق 100
▁المائ 100
century 100
prochen 100
▁clouds 100
▁fallen 100
▁التحكم 100
▁حقيقية 100
▁Bildung 100
▁amongst 100
▁scratch 100
▁הראשונים 100
▁searching 100
▁philosophy 100
si 100
بال 100
▁44 100
jšie 100
olum 100
voli 100
wich 100
واجد 100
▁Emp 100
▁Tor 100
▁Ball 100
▁devi 100
▁לוקח 100
▁السم 100
▁نملك 100
▁crops 100
▁essen 100
▁spolu 100
▁הולכת 100
▁أجهزة 100
▁church 100
▁Schritt 100
▁appears 100
▁classic 100
▁liberal 100
▁obsessed 100
▁overcome 100
▁telescope 100
זב 100
ený 100
لكة 100
▁حك 100
▁Ins 100
▁LED 100
▁Sor 100
▁סיי 100
▁أوه 100
▁خاط 100
▁وسط 100
▁Move 100
▁nast 100
▁onde 100
▁שבוע 100
person 100
▁pensa 100
▁בתחום 100
▁الترك 100
▁وجدنا 100
▁felice 100
▁fisica 100
▁propag 100
▁גדולות 100
▁prescri 100
▁università 100
▁В 100
זרו 100
▁رج 100
asst 100
znam 100
▁MRI 100
▁pir 100
▁shi 100
aktor 100
worth 100
▁plot 100
▁الاع 100
▁الخب 100
▁تقدم 100
▁Namen 100
▁River 100
▁trotz 100
ibilità 100
▁favore 100
▁simili 100
▁entrare 100
▁fiducia 100
▁baseball 100
▁erinnern 100
▁messaggio 100
▁precisely 100
▁Technologien 100
▁productivity 100
diy 100
ורג 100
ساد 100
كين 100
▁SW 100
▁pô 100
יתות 100
▁Dad 100
▁Squ 100
ching 100
oxide 100
ville 100
äsent 100
▁Pole 100
▁bist 100
▁boss 100
▁rely 100
▁seek 100
▁sque 100
▁הממו 100
▁ואיך 100
▁أنكم 100
▁הפולי 100
▁موضوع 100
לוויזיה 100
▁Nature 100
▁chirur 100
▁latest 100
▁methods 100
▁Minister 100
▁الكائنات 100
▁condizioni 100
▁interactions 100
kü 100
▁Г 100
uct 100
מדה 100
נלא 100
רוג 100
ربع 100
▁CD 100
ابيع 100
▁Bib 100
▁سان 100
oltre 100
torej 100
▁rifl 100
▁اليا 100
▁نحصل 100
▁نفسك 100
▁champ 100
▁craft 100
▁kreat 100
▁pelle 100
▁tasks 100
▁שצריך 100
▁facial 100
▁piante 100
▁raising 100
▁welches 100
völkerung 100
▁concetto 100
▁diabetes 100
▁insurance 100
▁verbunden 100
▁fascinated 100
ič 100
ىء 100
سيس 100
▁יס 100
▁סו 100
▁جل 100
gers 100
oret 100
äuft 100
صميم 100
▁sne 100
▁vib 100
▁שרי 100
▁سير 100
בוטים 100
▁Alla 100
▁rieš 100
▁semi 100
וטנציא 100
▁aiuto 100
▁inser 100
▁rocks 100
▁segre 100
▁yield 100
▁באמצע 100
▁Profess 100
▁libertà 100
▁origami 100
▁surgeon 100
▁wanting 100
▁administ 100
▁dolphins 100
▁paradigm 100
▁potreste 100
▁prototyp 100
▁optimistic 100
▁funktionieren 100
▁uncomfortable 100
ós 100
ctu 100
נדי 100
تني 100
osph 100
▁Nep 100
▁pit 100
▁ועם 100
▁להז 100
▁צבע 100
erven 100
טיבית 100
▁caps 100
▁יוצר 100
▁قررت 100
nejšie 100
▁Ebola 100
▁Ihren 100
▁Adesso 100
▁murder 100
▁surely 100
▁distant 100
▁produrre 100
▁accessible 100
▁expectations 100
ונת 100
▁RB 100
▁Rw 100
▁إس 100
inta 100
▁פסי 100
▁ابت 100
פונים 100
▁Solo 100
▁furn 100
▁منزل 100
▁وجهة 100
▁grain 100
▁proof 100
▁whale 100
▁שבאמת 100
▁النفس 100
▁سلسلة 100
plicity 100
▁Städte 100
▁scream 100
▁zaujím 100
▁الطلاب 100
▁النموذج 100
▁Atlantic 100
▁pensando 100
▁dimensioni 100
▁erschaffen 100
حر 100
طط 100
▁É 100
etr 100
עיר 100
سرح 100
▁tə 100
▁يخ 100
vate 100
مرار 100
▁Fil 100
▁Gef 100
▁tou 100
▁zie 100
▁אבי 100
▁בקי 100
lines 100
▁bike 100
▁Recht 100
▁males 100
▁rokmi 100
▁unbel 100
▁ידעתי 100
▁كاملة 100
▁disegn 100
▁entrop 100
▁escape 100
▁persön 100
▁استخدم 100
änderung 100
▁dignity 100
▁suppose 100
▁raggiungere 100
▁fo 100
▁تض 100
part 100
wirk 100
ätze 100
▁člo 100
▁ספק 100
▁שוק 100
▁لأي 100
▁Give 100
▁ages 100
▁psic 100
▁מרכז 100
▁נושא 100
▁الوط 100
▁immun 100
▁stack 100
▁לקרות 100
▁ساعات 100
▁مقابل 100
▁thrown 100
▁الجهاز 100
▁neither 100
▁الأحياء 100
▁distingu 100
▁entfernt 100
▁properly 100
▁violenza 100
▁psychology 100
OL 100
úd 100
alu 100
lan 100
עון 100
▁Ov 100
▁خب 100
gewö 100
iano 100
stva 100
▁Kat 100
▁mik 100
▁بمع 100
▁سيت 100
ctica 100
▁lamp 100
▁raus 100
▁تمثل 100
▁والق 100
astern 100
▁Alles 100
▁intim 100
▁mappa 100
▁frozen 100
▁hearts 100
▁invite 100
▁lovely 100
▁musíme 100
▁narrow 100
▁stands 100
▁mammals 100
▁section 100
▁erklären 100
▁hypothes 100
▁colleague 100
▁privilege 100
▁conventional 100
▁dramatically 100
dir 100
gio 100
pts 100
was 100
حصل 100
▁Et 100
▁hil 100
▁تتم 100
▁طلب 100
▁وحد 100
▁pour 100
▁بشيء 100
▁Klima 100
▁chron 100
▁fluid 100
▁أحاول 100
▁الصحة 100
▁الكام 100
▁ولكني 100
iveness 100
▁gebaut 100
▁prosth 100
▁termin 100
▁المناخ 100
▁Technik 100
▁gelernt 100
▁recente 100
▁robotic 100
▁הזדמנות 100
▁القديمة 100
SP 100
חוץ 100
الج 100
ضاع 100
oken 100
▁Por 100
▁Sur 100
▁Wol 100
▁kur 100
▁ske 100
▁ההש 100
▁המכ 100
▁לבע 100
▁מלח 100
▁فما 100
inent 100
ované 100
▁Homo 100
▁Leon 100
▁Test 100
▁anos 100
▁בחוץ 100
▁בתקו 100
▁واست 100
ritten 100
▁bitte 100
▁crisi 100
▁dôvod 100
▁tired 100
▁whist 100
▁المشت 100
▁avesse 100
▁ktorej 100
▁مستقبل 100
▁Kranken 100
▁Pensate 100
▁disrupt 100
▁Tatsache 100
▁accepted 100
▁achieved 100
▁reaching 100
▁Immaginate 100
▁Gemeinschaft 100
ii 100
xe 100
ük 100
פך 100
له 100
צרו 100
غان 100
فاظ 100
▁תב 100
▁إت 100
piel 100
veľa 100
▁Les 100
▁Tun 100
▁האה 100
▁يعد 100
▁marg 100
▁výsk 100
▁калі 100
▁Ocean 100
▁adatt 100
▁glaci 100
▁schiz 100
▁shell 100
▁title 100
▁معينة 100
▁Disney 100
▁compos 100
▁kaufen 100
▁papers 100
▁الأساس 100
▁passing 100
▁scheint 100
▁database 100
▁scientif 100
▁Natürlich 100
▁depending 100
וגר 100
قين 100
▁Pf 100
rift 100
▁Sky 100
▁erk 100
▁rib 100
▁סבי 100
▁هات 100
urali 100
▁Gand 100
▁Pass 100
▁cham 100
▁מקרה 100
▁נותן 100
▁Sicht 100
▁cerca 100
▁שירות 100
▁größte 100
▁needle 100
▁aggiung 100
▁inspire 100
▁gefunden 100
▁minister 100
▁mostrato 100
▁presente 100
▁spôsobom 100
▁cooperation 100
▁miteinander 100
▁schließlich 100
zv 100
əli 100
▁Fu 100
▁roba 100
▁sehe 100
▁أناس 100
▁لأول 100
▁obráz 100
▁المعد 100
depodob 100
▁appare 100
▁ignore 100
▁spinal 100
▁לעיתים 100
▁concert 100
▁fenomen 100
▁embedded 100
▁generale 100
▁Basically 100
▁authentic 100
▁الاجتماعية 100
▁automatically 100
íz 100
אב 100
eed 100
eta 100
▁LG 100
▁ود 100
west 100
דומה 100
זמים 100
יתית 100
▁mám 100
▁sau 100
▁שחי 100
▁تمت 100
מריקה 100
▁impl 100
ולוגית 100
▁trasc 100
▁Anzahl 100
▁farmer 100
▁luoghi 100
▁oblast 100
▁التغير 100
▁المحلي 100
▁sorprend 100
▁napríklad 100
▁schreiben 100
▁historical 100
שן 100
bru 100
rän 100
טיק 100
باه 100
ثار 100
▁ري 100
▁Mob 100
▁Sol 100
▁hip 100
▁hər 100
▁כתב 100
▁ראו 100
▁Chem 100
▁bald 100
▁וחצי 100
▁الدم 100
▁لتلك 100
▁jedin 100
▁medio 100
▁ruolo 100
▁spark 100
▁הבנתי 100
▁מדינה 100
▁daraus 100
▁esempi 100
▁proces 100
▁sieben 100
▁tradiz 100
aramente 100
▁lontano 100
▁umanità 100
▁מרגישים 100
▁estimate 100
▁materiali 100
▁uncertain 100
כס 100
كنا 100
illa 100
rich 100
גישה 100
راها 100
يفية 100
▁hör 100
▁och 100
▁ההר 100
▁ורק 100
▁soli 100
▁tief 100
▁הקוד 100
system 100
▁brown 100
▁svoju 100
▁קטנות 100
▁Rwanda 100
▁degrad 100
▁jemals 100
▁owners 100
▁prices 100
▁strade 100
▁العلوم 100
▁المجال 100
▁airport 100
▁mondiale 100
▁prossimo 100
▁Generation 100
اع 100
ait 100
זמן 100
باء 100
▁عض 100
lang 100
وفير 100
▁Dur 100
▁tor 100
▁דמו 100
▁معر 100
kraft 100
▁Rand 100
▁dust 100
▁hast 100
▁tram 100
▁آلاف 100
▁التو 100
▁العا 100
▁Krieg 100
▁liver 100
▁pitch 100
▁pyram 100
▁מאפשר 100
▁Gleich 100
▁Stimme 100
▁chocol 100
▁fusion 100
▁obstac 100
▁scuole 100
▁المريخ 100
▁citizen 100
▁inglese 100
▁الحاسوب 100
▁increases 100
▁democrazia 100
90 100
bli 100
هرت 100
هود 100
▁ته 100
auft 100
uchs 100
צירת 100
▁hun 100
קדמות 100
▁cash 100
▁kedy 100
▁muov 100
▁ugly 100
profit 100
▁doors 100
▁suppl 100
▁לבחור 100
▁לשמור 100
▁מסוים 100
▁تطوير 100
itution 100
▁hunger 100
▁regret 100
▁venire 100
▁לומדים 100
▁beliefs 100
▁הגדולים 100
▁Demokrat 100
▁geworden 100
▁globally 100
▁telephone 100
.5 100
עלם 100
شرح 100
وضح 100
itze 100
ulin 100
اتهم 100
تيات 100
▁iné 100
▁tea 100
▁Rest 100
▁Step 100
▁cute 100
▁nahm 100
▁usci 100
▁הבחי 100
▁الحق 100
▁شخصا 100
▁recru 100
▁מחלות 100
▁שהיתה 100
▁العرض 100
▁chiaro 100
▁recomm 100
▁sangue 100
▁dokonca 100
▁essence 100
▁housing 100
▁visited 100
▁الحيوية 100
▁component 100
▁direzione 100
▁diventato 100
▁elections 100
▁psychological 100
aze 100
ביש 100
صلة 100
طرح 100
▁MR 100
▁تي 100
▁حب 100
▁نق 100
▁Sea 100
▁Unt 100
▁ham 100
▁zer 100
▁بري 100
enter 100
icità 100
using 100
▁giud 100
▁Medik 100
▁flash 100
▁mundo 100
▁August 100
▁giusta 100
▁tenden 100
▁terren 100
▁abandon 100
▁beginnt 100
▁dioxide 100
▁herself 100
▁potlesk 100
▁settore 100
▁speaker 100
▁Programm 100
▁attached 100
▁refriger 100
▁documents 100
▁guardando 100
▁measuring 100
ETI 100
ותי 100
חרר 100
▁Ti 100
▁Up 100
case 100
emen 100
ksam 100
nými 100
rite 100
סטים 100
▁מהס 100
arity 100
tanto 100
think 100
راقبة 100
▁pero 100
▁להתק 100
▁pomoc 100
▁walks 100
▁מיקרו 100
▁وسائل 100
▁emerge 100
▁במערכת 100
▁التحدث 100
▁scenario 100
▁treating 100
▁breathing 100
▁prototype 100
▁Antarctica 100
▁rapidamente 100
נפ 100
hop 100
כרו 100
ئين 100
حدد 100
واق 100
▁פס 100
ados 100
pack 100
▁Tat 100
▁היד 100
▁ولن 100
eting 100
▁Rück 100
▁כוכב 100
▁التش 100
rieren 100
جليزية 100
▁bello 100
▁chrom 100
▁invas 100
▁podľa 100
▁wings 100
▁כלשהו 100
▁weapon 100
▁מבחינה 100
▁المطاف 100
ualmente 100
▁General 100
▁consume 100
▁divided 100
▁kleines 100
▁الوحيدة 100
▁Evolution 100
▁passieren 100
▁interactive 100
BM 100
ייד 100
שתה 100
▁سب 100
ظروف 100
▁FBI 100
▁kým 100
▁מצל 100
▁مشت 100
älfte 100
ändig 100
ובדים 100
טיפול 100
▁Foto 100
▁lets 100
▁vant 100
▁החלל 100
▁וכשה 100
▁מודל 100
▁بتلك 100
▁بشأن 100
ateful 100
zeitig 100
▁Jeder 100
▁attiv 100
▁persu 100
▁tries 100
▁impegn 100
▁schwar 100
▁להרגיש 100
▁الواضح 100
▁touched 100
▁trovano 100
▁الأبعاد 100
▁amerikan 100
▁conflicts 100
▁cominciare 100
▁Tatsächlich 100
áj 100
▁vô 100
lebt 100
pled 100
▁váš 100
▁які 100
▁הוי 100
▁יחס 100
▁بأي 100
▁Hill 100
▁item 100
▁knee 100
▁kost 100
▁però 100
▁שווה 100
▁Hawai 100
▁verli 100
▁לחקור 100
▁prende 100
▁retire 100
▁uvedom 100
▁אמריקה 100
▁והייתי 100
▁الثلاث 100
▁Verbindung 100
دق 100
tri 100
ثلا 100
jähr 100
otte 100
סיים 100
▁Nik 100
▁dil 100
▁seb 100
▁בוד 100
boren 100
oline 100
▁2030 100
▁Back 100
▁ausz 100
▁طاقة 100
▁عشرة 100
▁مهما 100
ádzajú 100
▁Derek 100
▁aside 100
▁שניים 100
forward 100
▁Bakter 100
▁Really 100
▁heroes 100
▁leicht 100
▁slides 100
▁מאחורי 100
▁Amerika 100
▁opposed 100
▁directions 100
▁лю 100
zung 100
ודים 100
اهرة 100
▁192 100
blick 100
לויות 100
▁wert 100
▁היטב 100
▁مصدر 100
▁يزال 100
nehmer 100
▁fuels 100
▁ארבעה 100
▁budúcn 100
▁phrase 100
▁rispar 100
▁يعيشون 100
▁bekannt 100
▁classes 100
▁density 100
▁gewesen 100
▁license 100
▁الإعلام 100
▁المستوى 100
entemente 100
▁verwendet 100
▁globalization 100
сі 100
لل 100
arf 100
ائدة 100
فكرة 100
▁Jes 100
▁pek 100
▁הרח 100
▁بار 100
erves 100
هارات 100
▁Make 100
▁dorm 100
▁enth 100
▁עשוי 100
▁المم 100
▁blank 100
▁gonna 100
▁prose 100
▁الجما 100
ensione 100
▁להעביר 100
▁Richtung 100
▁riconosc 100
▁rainforest 100
óri 100
ארק 100
تون 100
صار 100
▁إب 100
اليا 100
▁פלי 100
▁عمي 100
▁يهم 100
esimo 100
hnung 100
▁1900 100
▁Gala 100
▁gang 100
▁تحول 100
▁تدعى 100
▁حقوق 100
▁نقول 100
mented 100
▁4,000 100
▁diver 100
▁olduğ 100
▁skull 100
בולוציה 100
▁Indeed 100
▁behave 100
▁diceva 100
▁fanden 100
▁pochop 100
▁المائة 100
▁المرضى 100
▁ولكننا 100
▁picking 100
▁dôležité 100
▁organize 100
رفع 100
ظار 100
arne 100
inte 100
גלים 100
כרון 100
حظات 100
طعنا 100
▁Pra 100
▁adm 100
▁hud 100
▁ורו 100
▁وين 100
itzen 100
▁Kamp 100
▁العن 100
▁تعطي 100
▁clock 100
▁basket 100
▁mainly 100
▁أحيانا 100
▁أنفسهم 100
▁energet 100
▁المرحلة 100
▁official 100
▁electronics 100
▁spectacular 100
▁entertainment 100
▁neighborhoods 100
ؤل 100
غو 100
טיס 100
زيل 100
ضون 100
auso 100
رسال 100
شاعر 100
لبية 100
ومية 100
▁130 100
▁המר 100
▁מוע 100
▁מוצ 100
▁עתי 100
andem 100
▁Bras 100
▁guer 100
▁בניו 100
▁استث 100
▁Fisch 100
▁brill 100
▁mache 100
▁לשמוע 100
▁رسالة 100
▁layers 100
▁victim 100
▁מחשבים 100
▁Silicon 100
▁crucial 100
▁obesity 100
▁discorso 100
▁password 100
▁influenza 100
▁governance 100
▁advertising 100
▁represented 100
▁breakthrough 100
▁presentation 100
ík 100
אט 100
ِّ 100
ísť 100
טיח 100
جهة 100
شفى 100
feld 100
סיבה 100
▁193 100
▁בכי 100
▁شكر 100
▁Meer 100
▁Nick 100
▁egal 100
▁הטוב 100
▁الإس 100
▁حيال 100
▁bombs 100
▁Probab 100
▁crimin 100
▁diment 100
▁דוגמאות 100
▁illusion 100
▁komplett 100
▁unbeliev 100
otechnolog 100
▁relazioni 100
▁terrorist 100
▁variation 100
▁virtually 100
▁Gesundheit 100
▁fondamentale 100
▁= 100
auc 100
reh 100
ثال 100
عود 100
ında 100
חילת 100
▁Psy 100
▁nit 100
▁ושא 100
▁أرض 100
▁تعد 100
▁acht 100
▁imit 100
▁manc 100
▁לשני 100
▁מבנה 100
▁الكر 100
izzati 100
▁Schwe 100
▁בגודל 100
▁בנושא 100
▁alberi 100
▁ognuno 100
▁počíta 100
▁animale 100
▁conosci 100
▁consult 100
▁genannt 100
▁produces 100
íš 100
وكي 100
iety 100
בלית 100
ضايا 100
▁Ker 100
▁Ray 100
▁aké 100
▁ego 100
▁lok 100
▁קרא 100
anned 100
ların 100
lings 100
בולות 100
▁Mass 100
▁Zent 100
▁punt 100
▁מבין 100
▁تسمى 100
▁Reihe 100
▁alarm 100
▁membr 100
▁nimmt 100
▁roots 100
▁تطبيق 100
▁شركات 100
achstum 100
▁pushed 100
▁vostre 100
▁התחילו 100
▁اكتشاف 100
▁underground 100
zes 100
ביל 100
גרת 100
uing 100
älle 100
ערות 100
▁Mer 100
▁tan 100
▁ביי 100
▁وسأ 100
ollen 100
ratic 100
tocin 100
▁Jane 100
▁ritu 100
▁tang 100
▁מוזר 100
▁Brown 100
▁viete 100
▁ďalej 100
▁לקנות 100
▁المفت 100
▁للعمل 100
▁مؤخرا 100
▁Bedeut 100
▁Einige 100
▁simult 100
▁שבועות 100
▁السنين 100
▁paradox 100
▁appeared 100
▁involves 100
▁بإمكاننا 100
▁continues 100
▁dedicated 100
▁incredibilmente 100
fäh 100
rok 100
ším 100
מטר 100
Talk 100
hour 100
phas 100
▁Bis 100
▁Fac 100
▁Fuß 100
▁Tri 100
▁בוח 100
▁ושי 100
▁סוב 100
▁קופ 100
▁يرت 100
zeugt 100
▁Vole 100
▁chor 100
▁daha 100
▁sexy 100
▁trap 100
▁אנשי 100
▁הקטן 100
▁ضخمة 100
▁Molti 100
▁Voice 100
▁holds 100
▁טיפול 100
▁מסוגל 100
▁Mentre 100
▁aperto 100
▁chiave 100
▁ensure 100
▁lepšie 100
▁volont 100
▁výskum 100
▁בארצות 100
▁להסביר 100
▁entered 100
▁foresta 100
▁milione 100
▁produtt 100
▁Wahrheit 100
▁aussehen 100
▁pensiero 100
▁diagnosed 100
▁الرياضيات 100
▁mechanisms 100
▁wissenschaft 100
üz 100
סטן 100
▁ذك 100
▁Mel 100
▁Moz 100
▁usa 100
▁שות 100
▁ذاك 100
فتراض 100
▁poly 100
▁riun 100
▁suon 100
▁שימו 100
▁أعطي 100
▁يجري 100
itäten 100
▁brave 100
▁prakt 100
▁rifer 100
▁usano 100
▁أحدهم 100
▁classe 100
▁finanz 100
▁legacy 100
▁tunnel 100
▁שעשינו 100
▁designs 100
▁glamour 100
▁whereas 100
▁כשהייתי 100
▁brothers 100
▁integrated 100
▁interacting 100
▁Herausforderung 100
xo 100
شب 100
pen 100
נאי 100
▁72 100
iban 100
ויון 100
לוגי 100
▁מצו 100
▁تضع 100
▁دخل 100
attle 100
uther 100
ساعدة 100
▁SETI 100
▁chce 100
▁بضعة 100
aktion 100
nahmen 100
▁Teile 100
▁guide 100
▁menej 100
▁shake 100
▁squad 100
▁therm 100
▁וכאשר 100
▁למקום 100
▁לעצמי 100
▁العنف 100
▁بالتح 100
ogliere 100
▁stable 100
▁verbre 100
▁الأفضل 100
▁villages 100
▁confident 100
▁delivered 100
▁economica 100
▁permanent 100
wl 100
fon 100
כמה 100
▁ži 100
▁لص 100
iahn 100
مائة 100
واكب 100
▁Geg 100
▁Out 100
▁ريا 100
▁ستي 100
▁لإن 100
▁للد 100
licht 100
שיבות 100
▁iPod 100
▁unbe 100
▁גרוע 100
▁جميل 100
▁Gegen 100
▁lesen 100
▁skept 100
▁usual 100
▁الكتب 100
▁hinaus 100
▁presto 100
▁richer 100
▁أوروبا 100
▁consape 100
▁כשאנחנו 100
▁לראשונה 100
▁philosoph 100
▁impression 100
▁Д 100
hre 100
jte 100
סטרט 100
▁Put 100
▁להד 100
▁مضت 100
owing 100
▁Mole 100
▁tisí 100
▁trib 100
▁במצב 100
▁הכסף 100
▁الإب 100
▁بعيد 100
▁للتو 100
▁وضعت 100
▁وعلي 100
לובלית 100
▁rilev 100
▁scopo 100
▁פשוטה 100
▁תחשבו 100
▁المعا 100
▁وأكثر 100
▁cambia 100
▁powers 100
▁الفرصة 100
▁möchten 100
▁rebuild 100
▁Wirklich 100
▁shoulder 100
▁approccio 100
▁necessario 100
▁protecting 100
▁ingredients 100
yy 100
áž 100
נצ 100
dam 100
uum 100
iace 100
iken 100
ällt 100
▁Pod 100
▁rin 100
▁tub 100
rimin 100
▁irre 100
▁בקשר 100
▁قوية 100
wasser 100
▁Certo 100
▁cosci 100
▁בעתיד 100
▁المنت 100
▁عندها 100
▁Regier 100
▁orange 100
▁talent 100
▁gezeigt 100
▁uniform 100
▁focusing 100
▁includes 100
▁reminded 100
▁contribute 100
cue 100
drž 100
riz 100
جلس 100
ربط 100
زرق 100
طبع 100
قيد 100
▁דא 100
▁חת 100
apor 100
kehr 100
בעים 100
▁ווי 100
▁قدر 100
pojen 100
zogen 100
לובלי 100
▁sled 100
▁המשמ 100
▁فهذا 100
▁Blick 100
▁beein 100
▁units 100
▁الحوا 100
▁establ 100
▁niekto 100
▁נוספים 100
children 100
▁consent 100
▁nazione 100
▁האנרגיה 100
ariamente 100
▁choosing 100
▁erfolgre 100
▁semplici 100
▁religions 100
▁realizzare 100
ae 100
לדה 100
שיב 100
قاذ 100
▁زم 100
plyv 100
umes 100
ysle 100
▁Nam 100
elson 100
opter 100
▁Open 100
▁laid 100
▁غاية 100
ovania 100
sunami 100
▁dirty 100
▁lunga 100
▁oveľa 100
▁tasso 100
▁unpre 100
▁תנועה 100
▁الهدف 100
▁الوضع 100
▁Singap 100
▁adjust 100
▁attacc 100
▁religi 100
▁ועדיין 100
▁חברתית 100
isierung 100
▁affects 100
▁collaps 100
▁compagn 100
▁deshalb 100
▁verwand 100
▁السياسي 100
▁anfangen 100
▁المجموعة 100
▁Parkinson 100
▁gegenüber 100
▁underlying 100
fi 100
▁DV 100
gged 100
irsi 100
skej 100
▁Ham 100
▁fir 100
▁jew 100
oster 100
▁axis 100
▁kimi 100
▁sale 100
▁מקבל 100
▁רפוא 100
▁الإت 100
▁متعد 100
▁Platz 100
▁Strom 100
▁בבקשה 100
▁לצפות 100
ishment 100
zionale 100
▁Nelson 100
▁trends 100
▁Indones 100
▁stellte 100
▁Guardate 100
▁agencies 100
▁Christian 100
▁divertente 100
▁controlling 100
In 100
lı 100
▁vr 100
▁שד 100
זציה 100
نتاج 100
▁Erf 100
▁týž 100
▁למס 100
▁وتم 100
field 100
▁Egyp 100
▁Viel 100
▁ampl 100
▁conn 100
▁mini 100
▁zehn 100
▁אהבה 100
▁علاج 100
▁وانا 100
stellt 100
▁Kevin 100
▁Liber 100
▁Prend 100
▁angle 100
▁paras 100
▁למשהו 100
▁لدرجة 100
▁consci 100
▁missed 100
▁oppure 100
▁הבעיות 100
▁מסויים 100
▁שעשיתי 100
▁Schauen 100
▁chromos 100
▁earthqu 100
▁instinct 100
▁الحقيقية 100
▁dimension 100
▁objective 100
áp 100
rač 100
▁Ru 100
▁900 100
▁Naj 100
▁בתו 100
▁מיד 100
▁פוע 100
▁بضع 100
▁نمو 100
▁1999 100
▁nové 100
▁vale 100
▁אופן 100
▁تشعر 100
▁لعبة 100
▁Henry 100
▁hovorí 100
▁promot 100
▁konzent 100
▁sisters 100
▁القانون 100
▁reinvent 100
▁southern 100
▁Innovation 100
يص 100
راح 100
grad 100
▁gir 100
while 100
▁Blut 100
▁ucce 100
▁vitt 100
▁אילו 100
▁איתי 100
▁فران 100
▁لبعض 100
▁schüt 100
▁الحمض 100
▁تحديد 100
▁poison 100
▁silent 100
▁toilet 100
▁החולים 100
▁חשובים 100
▁أصدقائ 100
▁Aufgabe 100
▁lecture 100
▁nachdem 100
▁البلدان 100
▁التجارب 100
▁animation 100
▁posizione 100
tes 100
מוך 100
قتل 100
ياد 100
▁3, 100
zero 100
מנית 100
נחים 100
سلوب 100
▁šty 100
▁גבי 100
▁Coun 100
▁Jose 100
▁Lang 100
▁fool 100
▁rail 100
▁rifi 100
▁sket 100
▁דופן 100
▁נהיה 100
▁ولدي 100
assero 100
gangen 100
▁danno 100
▁drawn 100
▁elder 100
▁perse 100
▁übrig 100
▁מילים 100
▁aggreg 100
▁rivers 100
▁letting 100
omb 100
əri 100
خصص 100
ماط 100
وسع 100
▁עץ 100
anzi 100
▁Gab 100
▁Lou 100
▁ההז 100
▁سعي 100
▁عنا 100
صالات 100
▁moja 100
▁todo 100
▁התחת 100
▁ينظر 100
dollar 100
icking 100
▁Tento 100
▁audio 100
▁avven 100
▁dilem 100
▁ostat 100
▁views 100
▁הגיעו 100
▁להציג 100
▁לזהות 100
▁العنا 100
▁تشاهد 100
▁agency 100
▁hardly 100
▁postav 100
▁repeat 100
▁حياتهم 100
▁Produkt 100
▁chieder 100
▁granted 100
▁publish 100
▁affascin 100
▁niekoľko 100
▁elsewhere 100
▁infection 100
▁performing 100
▁strategies 100
во 100
אס 100
נגד 100
بيض 100
فين 100
▁48 100
▁Är 100
itar 100
ynth 100
عبير 100
▁Dou 100
▁tir 100
▁אגב 100
▁בלה 100
▁صعب 100
▁Bron 100
▁Hind 100
▁nesk 100
▁nets 100
▁nord 100
▁scal 100
▁vytv 100
▁أفعل 100
▁نفهم 100
izzata 100
▁fabbr 100
▁grave 100
▁immen 100
▁Norden 100
▁dispar 100
▁garage 100
▁locked 100
▁preval 100
▁usiamo 100
▁أخبركم 100
▁benutzt 100
▁deliber 100
▁imaging 100
▁kleiner 100
▁isolated 100
▁stations 100
▁Mitgefühl 100
▁astronaut 100
▁cittadini 100
▁intuitive 100
▁agricultural 100
▁letteralmente 100
zum 100
حيل 100
▁يغ 100
angh 100
nete 100
اريا 100
▁Det 100
▁מצד 100
▁فري 100
▁مان 100
תחלתי 100
▁Hans 100
▁peer 100
▁vedo 100
▁תאים 100
▁الفض 100
▁رحلة 100
yright 100
▁Brian 100
▁Delhi 100
▁equil 100
▁באזור 100
▁הנושא 100
▁Intell 100
▁תרופות 100
▁governi 100
▁immense 100
▁instant 100
▁precise 100
▁trigger 100
▁flexible 100
▁guarante 100
▁politici 100
▁provides 100
▁Experiment 100
▁affordable 100
▁nachdenken 100
▁sviluppato 100
▁discoveries 100
▁universities 100
har 100
örd 100
ffic 100
inne 100
rati 100
لابس 100
▁ומח 100
▁עיר 100
ckets 100
eared 100
utage 100
▁kult 100
▁الله 100
▁ولذا 100
▁Poved 100
▁guten 100
▁purch 100
▁החשוב 100
▁أسبوع 100
▁مفهوم 100
istiche 100
▁Muster 100
▁adding 100
▁offens 100
▁الأعلى 100
▁مقارنة 100
▁Johnson 100
▁Nations 100
▁diritti 100
▁pericol 100
▁التالية 100
▁التعامل 100
▁mostrarvi 100
▁Sicherheit 100
iq 100
tiť 100
▁96 100
▁חש 100
▁יב 100
kami 100
keep 100
usso 100
ביות 100
סטית 100
▁kap 100
▁zus 100
▁בפר 100
archy 100
itzer 100
▁Frei 100
▁defe 100
▁הניס 100
▁קיבל 100
▁أخذت 100
usions 100
▁costa 100
▁gradi 100
▁pione 100
▁النفط 100
▁قانون 100
▁Hälfte 100
▁Newton 100
▁moglie 100
▁ricerc 100
▁לדוגמא 100
▁الثالث 100
▁Journal 100
▁October 100
▁abilità 100
▁ähnlich 100
▁laughing 100
▁argomento 100
▁lifestyle 100
▁dovrebbero 100
▁Veränderung 100
▁Vorstellung 100
vé 100
▁ё 100
מקד 100
ذات 100
صرف 100
▁لغ 100
ulum 100
ďaka 100
▁Nur 100
▁عصر 100
▁لمن 100
▁Band 100
▁turb 100
▁הפעם 100
atrice 100
▁Druck 100
▁Größe 100
▁mojej 100
▁proto 100
▁relie 100
▁vzdel 100
▁למדתי 100
▁actors 100
▁gravit 100
▁sticks 100
▁البلاد 100
▁Deshalb 100
▁persist 100
▁potente 100
▁ragazza 100
▁ragazze 100
▁ricordo 100
▁trasfer 100
▁الحالات 100
▁Professor 100
▁glücklich 100
▁permission 100
esh 100
iky 100
uel 100
רוץ 100
▁Fer 100
▁Men 100
▁מומ 100
▁قصص 100
ienst 100
▁Bono 100
▁limb 100
▁nami 100
▁ארוך 100
▁الأج 100
▁صديق 100
▁واقع 100
▁يفكر 100
utlich 100
▁אחורה 100
▁אליהם 100
▁אמנות 100
▁גידול 100
▁השתמש 100
▁زيادة 100
▁Arctic 100
▁neural 100
▁poveri 100
▁rarely 100
▁výsled 100
▁התהליך 100
▁dolárov 100
▁materia 100
▁الحديثة 100
▁entrambi 100
▁ghiaccio 100
▁grateful 100
▁meetings 100
▁mosquito 100
▁repeated 100
▁Oberfläche 100
▁apparently 100
سط 100
شأ 100
▁Ľ 100
eto 100
ותו 100
מבר 100
סיף 100
▁AK 100
▁hi 100
▁mə 100
▁tí 100
▁öz 100
ason 100
ovej 100
خروج 100
▁Tro 100
▁cic 100
▁הדר 100
burgh 100
graph 100
▁Fund 100
▁raff 100
▁Aktiv 100
▁אודות 100
▁ראינו 100
▁أجزاء 100
▁codice 100
▁genius 100
▁killer 100
▁stores 100
▁נותנים 100
▁الدولة 100
▁الشعور 100
▁الصحيح 100
▁attorno 100
▁verrück 100
▁המציאות 100
▁Realität 100
▁telefono 100
▁backwards 100
▁soluzioni 100
▁functional 100
ua 100
דרי 100
כנע 100
وبر 100
▁עק 100
▁תצ 100
▁بغ 100
-200 100
agan 100
▁Bir 100
▁wip 100
▁בשל 100
▁ובה 100
▁שאר 100
hören 100
▁pile 100
▁أساس 100
▁وأنت 100
▁Italy 100
▁Liebe 100
▁Potom 100
▁likes 100
▁quanti 100
▁Prinzip 100
▁Straßen 100
▁bisogna 100
▁größten 100
▁parties 100
▁povertà 100
▁servizi 100
aceutical 100
▁laughter 100
▁northern 100
▁exception 100
▁increment 100
▁struggling 100
▁biodiversity 100
טן 100
زع 100
žne 100
ביא 100
ובת 100
ابت 100
▁hə 100
issi 100
ניהם 100
▁ולש 100
▁לאן 100
▁ألم 100
▁زمن 100
▁مسب 100
going 100
כיבים 100
▁Camp 100
▁Meth 100
▁celý 100
▁risc 100
▁svol 100
▁יכלו 100
▁לספק 100
▁بالس 100
▁jelly 100
▁הנשים 100
▁עובדת 100
▁Medien 100
▁allein 100
▁pozrie 100
▁pracov 100
▁reveal 100
▁sapevo 100
▁spider 100
▁bewusst 100
▁hackers 100
▁الأمراض 100
▁المدارس 100
▁Umgebung 100
▁plötzlich 100
▁unterstüt 100
▁capability 100
▁funzionare 100
rať 100
▁عي 100
dito 100
reib 100
zuge 100
ביים 100
כנון 100
רחים 100
▁Bre 100
▁pav 100
▁עדי 100
▁مخت 100
class 100
itivo 100
phäre 100
rasch 100
wegen 100
ורמים 100
▁hire 100
▁wand 100
▁لعمل 100
action 100
▁Jesus 100
▁Moore 100
▁Relig 100
▁zeige 100
▁במרכז 100
▁מסתבר 100
▁الفقر 100
endlich 100
▁locale 100
utzutage 100
▁Während 100
▁apprend 100
▁pensano 100
▁pointed 100
▁projekt 100
▁ragioni 100
▁returned 100
▁verloren 100
▁dependent 100
▁scegliere 100
▁originally 100
▁observation 100
sa 100
سف 100
rot 100
جية 100
ناة 100
ador 100
esti 100
fold 100
izer 100
sell 100
בדים 100
كشاف 100
enger 100
▁cane 100
▁ברמה 100
▁لجعل 100
مكانية 100
▁Febru 100
▁bubbl 100
▁pozor 100
▁stalo 100
▁stops 100
▁דיגיט 100
▁الخوف 100
▁سيحدث 100
▁مناطق 100
▁Square 100
▁surviv 100
▁Taliban 100
▁garbage 100
▁hanging 100
▁stavano 100
▁מכוניות 100
▁الحرارة 100
▁aircraft 100
▁beschäft 100
▁podstate 100
▁Krankheit 100
▁chocolate 100
öz 100
hat 100
öne 100
برى 100
كمن 100
utan 100
▁Gut 100
▁apr 100
artet 100
hrung 100
viene 100
▁Baby 100
▁Vide 100
▁beet 100
▁desk 100
▁היצי 100
▁البد 100
▁ثاني 100
▁يعود 100
▁sobre 100
▁threw 100
▁yours 100
▁كلمات 100
▁danach 100
▁insist 100
▁Politik 100
▁impacts 100
▁breaking 100
▁soltanto 100
▁responses 100
▁disability 100
▁treatments 100
▁philanthrop 100
▁Entwicklungs 100
▁characteristics 100
دى 100
fre 100
tým 100
زون 100
ساب 100
כמים 100
ظمات 100
عاون 100
لكية 100
▁Sen 100
▁Tum 100
▁sfr 100
▁חסר 100
aglia 100
tiene 100
unkte 100
▁Snow 100
▁erad 100
▁kont 100
▁peso 100
▁tube 100
▁časť 100
▁ženy 100
▁השטח 100
▁انته 100
▁Arist 100
▁bears 100
▁bekam 100
▁helic 100
▁nemôž 100
▁מעולה 100
▁נראים 100
וכלוסיה 100
▁Kosten 100
▁nurses 100
▁rescue 100
▁circles 100
▁conclud 100
▁defense 100
▁federal 100
▁contesto 100
▁innovations 100
úť 100
رر 100
urd 100
abel 100
cend 100
kins 100
▁Jud 100
▁Six 100
▁تقل 100
▁Bell 100
▁Walk 100
▁aere 100
▁meth 100
▁nove 100
▁tvor 100
▁ערים 100
▁العض 100
▁تصنع 100
▁رجال 100
▁فأنت 100
▁mette 100
▁naked 100
▁route 100
▁חשובה 100
▁לעמוד 100
▁שעברה 100
▁azione 100
▁coloro 100
▁ekonom 100
▁fought 100
▁shadow 100
▁shaped 100
▁solare 100
▁שנתיים 100
▁anthrop 100
▁إستخدام 100
▁samozrejme 100
يك 100
čil 100
חיר 100
נטה 100
تكم 100
وست 100
hnen 100
ichi 100
krát 100
lage 100
شتري 100
immel 100
עירים 100
▁berü 100
▁dopp 100
▁fece 100
▁לשחק 100
▁يصنع 100
▁nápad 100
▁sales 100
▁الجزي 100
▁الليل 100
▁ولاية 100
▁extend 100
▁מוכנים 100
▁Infatti 100
▁Muslims 100
▁TEDTalk 100
▁Vortrag 100
▁ceiling 100
▁بالكامل 100
▁Ethiopia 100
▁speakers 100
▁Alexander 100
▁announced 100
▁consequence 100
avé 100
inə 100
jem 100
גוד 100
نعت 100
▁צר 100
▁ברא 100
▁וכו 100
▁עסק 100
▁שבמ 100
▁جسم 100
▁لات 100
inian 100
▁Gulf 100
▁Sure 100
▁בסרט 100
▁המדה 100
▁حدود 100
ichter 100
▁Geist 100
▁Meter 100
▁chcem 100
▁incar 100
▁אוהבת 100
▁המטרה 100
▁כשהוא 100
▁לחיים 100
▁منظمة 100
▁Gewalt 100
▁Straße 100
▁excell 100
▁preved 100
▁subtle 100
▁מדהימה 100
▁brachte 100
▁credere 100
▁schneller 100
▁synthetic 100
▁operations 100
▁terrorists 100
▁rivoluzione 100
esť 100
hot 100
וכל 100
ליף 100
بيع 100
▁só 100
esia 100
onic 100
שומת 100
▁הוד 100
▁מזל 100
▁משל 100
▁ספי 100
▁שחו 100
▁للص 100
راتيج 100
▁Eink 100
▁dict 100
▁load 100
▁nato 100
▁חשמל 100
▁Reise 100
▁finds 100
▁sento 100
▁smoke 100
▁أساسا 100
▁بأننا 100
▁arrang 100
▁perpet 100
▁Bereich 100
▁singolo 100
▁smarter 100
▁erreicht 100
▁servizio 100
▁studiare 100
▁transmit 100
▁ecosystems 100
▁assumptions 100
▁improvement 100
▁probability 100
▁programming 100
geh 100
miş 100
oky 100
לוש 100
شفت 100
وعي 100
▁נד 100
▁بف 100
ברנו 100
ודאי 100
צלחה 100
جزاء 100
▁Así 100
▁Occ 100
▁שגם 100
▁اخر 100
▁بني 100
▁Love 100
▁kiss 100
▁לטפל 100
▁עצום 100
▁ونصف 100
▁daher 100
▁מליון 100
▁المقد 100
▁Terror 100
▁sacred 100
▁scales 100
▁المادة 100
▁bekommt 100
▁muscles 100
▁deforest 100
▁recovery 100
▁يستطيعون 100
▁boundaries 100
▁potenziale 100
▁simplicity 100
ye 100
תו 100
pos 100
umm 100
uts 100
▁نأ 100
نوعة 100
وبية 100
▁והר 100
▁Dire 100
▁Kenn 100
▁flip 100
▁migr 100
▁tied 100
▁الال 100
▁وبعض 100
▁burst 100
▁הנכון 100
▁الحجم 100
▁كبيرا 100
merksam 100
▁chiamo 100
▁dozens 100
▁risate 100
▁הנקודה 100
▁clients 100
▁emerged 100
▁fragile 100
▁geboren 100
▁percept 100
▁المعرفة 100
▁weltweit 100
▁osservare 100
aba 100
قاد 100
لين 100
▁Va 100
▁חר 100
ihad 100
ستخد 100
هداف 100
▁Hai 100
▁reb 100
▁אדי 100
▁טרי 100
▁ניי 100
▁שהה 100
krank 100
▁capo 100
▁stad 100
▁أربع 100
▁المض 100
▁النس 100
▁شعرت 100
▁Kolle 100
▁Marte 100
▁Rolle 100
▁bilər 100
▁fract 100
▁verte 100
▁وكذلك 100
visione 100
▁Erfolg 100
▁furono 100
▁gefähr 100
▁ziehen 100
▁abbiano 100
▁anxiety 100
▁elected 100
▁importa 100
▁niemals 100
▁במקומות 100
▁Material 100
▁decisioni 100
▁sculpture 100
▁Vereinigten 100
nám 100
rif 100
فرة 100
ناق 100
▁37 100
▁قب 100
enta 100
ifik 100
legt 100
פשים 100
רגון 100
▁Lui 100
▁osc 100
▁הפס 100
▁קהל 100
ogram 100
▁Fant 100
▁Inse 100
▁חלקי 100
▁לפתח 100
▁נורא 100
▁أسرع 100
▁أسفل 100
▁Mitte 100
▁הלכתי 100
▁Jahrze 100
▁Soviet 100
▁fahren 100
▁waters 100
▁בשימוש 100
▁זכויות 100
▁يعرفون 100
▁initial 100
▁percorso 100
▁disappeared 100
irà 100
jov 100
▁43 100
פורט 100
كوين 100
▁Sah 100
▁unw 100
▁וכן 100
▁ונו 100
▁بير 100
▁سمع 100
munik 100
▁Baum 100
▁Rock 100
▁acid 100
▁blah 100
▁guns 100
▁vivo 100
▁המצב 100
▁يعطي 100
ettono 100
ייקטים 100
كتيريا 100
▁Ihrem 100
▁pozer 100
▁silly 100
▁עבורי 100
▁دقائق 100
anderth 100
▁findet 100
▁pohľad 100
▁presne 100
▁recept 100
▁scores 100
▁sofort 100
▁stages 100
▁začali 100
▁Spanish 100
▁Through 100
▁drivers 100
▁enterpr 100
▁chilomet 100
▁dinosaur 100
▁einfache 100
▁fabulous 100
▁particle 100
▁suffered 100
▁americani 100
▁predicted 100
▁proprietà 100
▁inevitable 100
чу 100
вае 100
قرأ 100
ماد 100
ويت 100
▁رد 100
änge 100
יתכן 100
▁350 100
▁Cur 100
▁dau 100
▁לכו 100
▁سين 100
▁كين 100
olars 100
uelle 100
מטיקה 100
▁בשלב 100
▁التف 100
▁الست 100
▁الكا 100
▁نأخذ 100
chiamo 100
▁Clint 100
▁Detro 100
▁depos 100
▁flows 100
▁nennt 100
▁اكتشف 100
▁Egypti 100
▁finito 100
▁ולבסוף 100
▁מבחינת 100
▁עשויים 100
▁Whether 100
▁avremmo 100
▁delight 100
▁threats 100
▁distanza 100
▁satellites 100
▁sensazione 100
ún 100
▁° 100
gas 100
əyə 100
ורף 100
כום 100
פיל 100
رير 100
▁AT 100
▁ме 100
amed 100
oded 100
▁Flü 100
▁lob 100
▁muo 100
▁ביל 100
▁הבו 100
▁זיה 100
▁خطر 100
▁Ding 100
▁Geor 100
▁crea 100
▁spav 100
▁stav 100
▁ساعد 100
gleich 100
gliche 100
lessly 100
ontrol 100
▁blame 100
▁edges 100
▁länger 100
▁medico 100
▁Organis 100
▁William 100
▁vecchio 100
▁academic 100
▁artistic 100
▁external 100
▁trasport 100
▁Situation 100
▁engagement 100
▁institutional 100
най 100
▁נר 100
▁תפ 100
▁لف 100
bone 100
طاعت 100
▁DVD 100
▁Edu 100
▁Lau 100
▁ese 100
▁lag 100
▁ril 100
▁ترت 100
▁لفت 100
aches 100
isons 100
reens 100
▁east 100
▁pian 100
▁samm 100
▁till 100
▁أقصد 100
למידים 100
▁Bible 100
▁Power 100
▁begun 100
▁hoffe 100
▁všetk 100
▁الفرق 100
▁القطب 100
▁تحاول 100
▁تساعد 100
▁Sembra 100
▁Within 100
▁budeme 100
▁immers 100
▁miesto 100
▁trauma 100
▁tumors 100
▁andando 100
▁diciamo 100
▁potesse 100
▁seguito 100
▁abilities 100
▁accidents 100
RA 100
вя 100
zna 100
راث 100
▁וו 100
assi 100
itas 100
לאים 100
▁SMS 100
▁ere 100
▁müs 100
▁ooh 100
▁מגו 100
▁جين 100
▁سيد 100
▁وشك 100
כיטקט 100
סתכלו 100
▁Orte 100
▁viss 100
▁הודו 100
▁עמוק 100
▁افضل 100
abhäng 100
▁beide 100
▁crack 100
▁memor 100
▁spots 100
▁vecch 100
osphere 100
▁entusi 100
▁מספרים 100
▁الحدود 100
▁Nessuno 100
▁request 100
▁unclear 100
▁shooting 100
▁forgotten 100
▁nutrients 100
▁wirtschaft 100
▁controllare 100
ktú 100
بطة 100
rore 100
فيات 100
▁Vid 100
▁wet 100
▁لغة 100
▁Mike 100
▁Plan 100
▁adul 100
▁mars 100
▁sebe 100
▁späť 100
▁לחלק 100
ierend 100
nchron 100
▁eserc 100
▁seats 100
▁zerst 100
▁Andrew 100
▁Things 100
▁landed 100
▁voleva 100
▁cellula 100
▁symbols 100
▁vessels 100
▁welcome 100
▁Künstler 100
▁shopping 100
▁immediate 100
▁investing 100
▁Geographic 100
äz 100
iku 100
rai 100
čky 100
ائع 100
لول 100
fect 100
ارقة 100
▁wed 100
▁בצי 100
▁גזע 100
▁قول 100
▁Prop 100
▁abit 100
▁reso 100
▁أمرا 100
▁التا 100
▁والب 100
▁والخ 100
▁conqu 100
▁pezzi 100
▁סוגים 100
▁قادرة 100
erungen 100
▁Mathem 100
▁absorb 100
▁decent 100
▁fastest 100
▁hitting 100
▁המשמעות 100
▁الاطفال 100
olarmente 100
▁biologia 100
▁reduction 100
▁الإلكترون 100
▁dictionary 100
▁disappoint 100
aß 100
ву 100
lay 100
wür 100
יונ 100
حاب 100
▁כע 100
▁اق 100
yard 100
כנית 100
▁Ord 100
▁Sei 100
▁Sou 100
▁zob 100
▁הצד 100
▁عاد 100
▁عقل 100
▁وأخ 100
üssel 100
▁cats 100
▁neat 100
▁سكان 100
▁والف 100
▁يقود 100
issimi 100
▁Firma 100
▁Negli 100
▁autob 100
▁balls 100
▁näher 100
▁לכתוב 100
▁رائعا 100
▁Should 100
▁bother 100
▁elimin 100
▁emphas 100
▁gingen 100
▁sequen 100
▁smooth 100
zufinden 100
▁Fortsch 100
▁bicycle 100
▁tragedy 100
▁contains 100
▁potevano 100
▁prossima 100
▁identified 100
▁succedendo 100
▁neuroscience 100
▁overwhelming 100
מפ 100
דום 100
נוק 100
שיא 100
وصل 100
ague 100
ambo 100
uper 100
علقة 100
وقرا 100
▁bru 100
▁חוץ 100
▁חזר 100
▁Každ 100
▁Sund 100
▁beer 100
▁epis 100
▁mitt 100
▁osob 100
▁ממשי 100
▁צעיר 100
▁أصغر 100
igaret 100
indest 100
▁chief 100
▁monit 100
▁tears 100
▁أولئك 100
▁امرأة 100
▁curric 100
▁neuros 100
▁offici 100
▁tenere 100
▁disturb 100
▁methane 100
▁Hoffnung 100
▁dialogue 100
▁Neanderth 100
▁ridiculous 100
yd 100
sky 100
veď 100
šej 100
אדם 100
ניק 100
צית 100
ندا 100
▁BM 100
▁Cr 100
▁oč 100
▁גא 100
▁ים 100
star 100
▁Cra 100
▁hem 100
▁אלף 100
▁ביט 100
▁הפל 100
▁הפע 100
ümmer 100
ورنيا 100
▁este 100
▁mant 100
▁הצלי 100
▁הרוח 100
▁الإش 100
▁عملت 100
▁فجأة 100
▁كهذه 100
erving 100
▁Ozean 100
▁Preis 100
▁Sonne 100
▁costi 100
▁fiber 100
▁tardi 100
▁יצירת 100
▁أخيرا 100
▁الخلف 100
▁Gandhi 100
▁Hinter 100
▁accomp 100
▁ending 100
▁faceva 100
▁finire 100
▁paraly 100
▁תוכנית 100
▁الأخير 100
▁اليسار 100
▁اليمين 100
changing 100
▁giornal 100
▁machten 100
▁schermo 100
▁calculate 100
▁principale 100
▁architettura 100
▁photographed 100
vv 100
aza 100
▁Ba 100
▁جم 100
▁طا 100
anna 100
zten 100
ácii 100
עילה 100
صلاح 100
▁Ach 100
▁piu 100
▁לצי 100
ansas 100
▁Einz 100
▁News 100
▁Penn 100
▁sped 100
▁aesth 100
▁crede 100
▁mysle 100
▁spons 100
▁השפעה 100
▁مدرسة 100
▁مساحة 100
▁Little 100
▁halluc 100
▁sacrif 100
▁tackle 100
▁الغذاء 100
▁circond 100
▁edifici 100
▁neuroni 100
▁promote 100
▁refugee 100
▁secrets 100
▁session 100
▁الإجابة 100
▁المحلية 100
▁Pflanzen 100
▁contatto 100
▁facility 100
▁innocent 100
гу 100
جع 100
طات 100
▁EM 100
▁pá 100
ikal 100
דעתי 100
ניקה 100
ناطي 100
ناول 100
▁lux 100
▁מוב 100
orial 100
ovaní 100
נקודת 100
خبركم 100
▁Beat 100
▁bast 100
▁esta 100
▁euro 100
▁fulf 100
▁בחלק 100
▁ההבד 100
▁تصور 100
▁خلية 100
brauch 100
▁Hello 100
▁alten 100
▁tagli 100
▁לבסוף 100
▁לכולם 100
▁السجن 100
▁chosen 100
▁potevo 100
▁בדרכים 100
▁החדשות 100
▁המשפחה 100
▁קבוצות 100
▁Detroit 100
▁Meinung 100
▁prepare 100
▁theoret 100
▁mostrare 100
▁permesso 100
▁Studenten 100
▁expansion 100
▁ignorance 100
▁comunicazione 100
▁organizzazione 100
oln 100
umi 100
פרו 100
ائق 100
طلا 100
غبة 100
▁وآ 100
iler 100
lles 100
סטיק 100
سلحة 100
▁Lei 100
▁Sad 100
▁ink 100
▁לדי 100
▁امت 100
▁وتت 100
▁Neur 100
▁hill 100
▁prej 100
▁vuol 100
▁אליה 100
▁צורה 100
▁offen 100
▁shrim 100
▁מוקדם 100
▁שליטה 100
▁أدركت 100
▁بخصوص 100
▁سأقوم 100
▁Behand 100
▁Friday 100
▁distur 100
▁lavori 100
▁prezzo 100
▁שכולנו 100
▁الامور 100
▁Eastern 100
▁ethical 100
▁failing 100
▁mindset 100
▁provato 100
▁extended 100
▁stranger 100
▁الاجتماعي 100
▁instructions 100
▁intelligente 100
yz 100
מע 100
enh 100
unu 100
üll 100
גנו 100
ربية 100
▁Kos 100
▁ain 100
▁nah 100
▁sla 100
▁une 100
▁قيد 100
ätzen 100
▁Lord 100
▁coma 100
▁ממני 100
▁الأق 100
▁التم 100
▁وتلك 100
▁وصلت 100
▁bored 100
▁chlap 100
▁rivel 100
▁أشكال 100
▁اثنين 100
▁البيت 100
▁Zahlen 100
▁coltiv 100
▁الساعة 100
ontrolle 100
▁magical 100
▁الأسبوع 100
▁Amerikan 100
▁Maschine 100
▁begannen 100
▁informed 100
▁theories 100
▁interesse 100
▁primarily 100
▁migliorare 100
▁significato 100
hib 100
hum 100
غار 100
فعة 100
▁IM 100
▁نر 100
ieso 100
ownt 100
سلسل 100
▁Roy 100
▁раз 100
▁אמי 100
▁סין 100
▁إخت 100
▁للر 100
▁نقص 100
וכנית 100
מודים 100
▁1984 100
▁Beij 100
▁Text 100
▁deje 100
▁dump 100
▁nied 100
▁čase 100
▁וכמה 100
▁צוות 100
▁النظ 100
▁فأنا 100
▁Prote 100
▁coinc 100
▁opens 100
▁vieme 100
▁überw 100
▁تقديم 100
▁تقنية 100
▁قالوا 100
▁يساعد 100
ication 100
▁ricche 100
▁דולרים 100
▁compete 100
▁farming 100
▁terreno 100
▁colleghi 100
▁delivery 100
▁kontroll 100
▁copyright 100
▁inspiring 100
▁sbagliato 100
▁translated 100
▁interestingly 100
▁participation 100
טא 100
▁مط 100
alar 100
kind 100
weis 100
ören 100
ünft 100
ريحة 100
وارع 100
▁Sus 100
▁שבר 100
▁שמס 100
icana 100
retta 100
מונים 100
▁2014 100
▁איזו 100
▁מנהי 100
▁מקור 100
▁שלום 100
▁تعرض 100
▁حاجة 100
beitet 100
illing 100
خلوقات 100
▁Media 100
▁Third 100
▁scatt 100
hnliche 100
ruption 100
▁Jewish 100
▁commod 100
▁indoss 100
▁lawyer 100
▁psychi 100
▁להוציא 100
▁المهمة 100
entliche 100
▁Council 100
▁batteri 100
▁livelli 100
▁notizia 100
▁الرئيسي 100
▁genommen 100
▁primitive 100
▁Demokratie 100
▁nonostante 100
▁sviluppare 100
▁photography 100
▁pravdepodob 100
▁photographer 100
▁grandchildren 100
cal 100
דית 100
ران 100
elia 100
žite 100
סיות 100
▁ken 100
▁oro 100
▁yax 100
▁ולת 100
ambur 100
▁nahe 100
▁nein 100
▁sons 100
▁whis 100
▁zost 100
▁סיבה 100
▁פחמן 100
▁الإد 100
▁تبين 100
▁كهرب 100
▁neues 100
▁sonst 100
▁שנראה 100
▁عديدة 100
viously 100
▁andata 100
▁faszin 100
▁hinein 100
▁valori 100
▁נקודות 100
▁appreci 100
▁slavery 100
▁المحتمل 100
▁confused 100
▁النباتات 100
▁economico 100
▁furniture 100
▁raccontare 100
эта 100
וין 100
ودا 100
oven 100
חדים 100
▁Cre 100
▁Isn 100
▁teñ 100
▁מרי 100
elled 100
▁.... 100
▁extr 100
▁prob 100
▁ukáz 100
▁בראש 100
▁فعلت 100
כוניות 100
▁drone 100
▁legit 100
▁mnoho 100
▁pesce 100
▁richi 100
▁často 100
▁חלקים 100
▁נמצאת 100
▁اللون 100
▁Invece 100
▁Shangh 100
▁attend 100
▁chiede 100
▁curren 100
▁golden 100
▁spoken 100
▁reduced 100
▁targets 100
ديمقراطية 100
▁darkness 100
▁sandwich 100
▁expanding 100
▁separated 100
▁reputation 100
▁estremamente 100
شن 100
юць 100
ذور 100
شات 100
لقي 100
متع 100
▁דג 100
▁צד 100
▁צל 100
orni 100
pers 100
▁Ern 100
▁dub 100
▁لنت 100
ängen 100
▁Sold 100
▁cima 100
▁ecce 100
▁fred 100
▁jazy 100
▁olan 100
▁pupp 100
▁quit 100
▁shar 100
▁ולהת 100
▁أنظر 100
▁مهتم 100
ophren 100
▁morti 100
▁sesso 100
▁týmto 100
▁wound 100
▁الخام 100
▁العوا 100
bildung 100
▁export 100
▁served 100
▁sfrutt 100
▁tragen 100
▁verurs 100
▁السابق 100
▁بامكان 100
▁Charlie 100
▁Natural 100
▁aspetti 100
▁briefly 100
▁cartoons 100
▁controls 100
▁symmetry 100
▁troviamo 100
▁mysterious 100
▁interessiert 100
ופי 100
روة 100
ggia 100
thur 100
verz 100
טווח 100
צאתי 100
راسة 100
▁IBM 100
▁ara 100
▁כשי 100
▁fame 100
▁nevy 100
▁sulf 100
▁ואין 100
▁כולו 100
▁סוגי 100
itudes 100
▁physi 100
▁החומר 100
▁לחלוק 100
▁بأكمل 100
▁تحويل 100
▁scelte 100
cedented 100
izations 100
▁Mandela 100
▁fliegen 100
▁gesamte 100
▁educated 100
▁Bedeutung 100
▁daughters 100
▁equilibri 100
▁physician 100
▁additional 100
▁insegnanti 100
öy 100
пе 100
זא 100
مز 100
nia 100
ysl 100
لنا 100
▁az 100
inou 100
osse 100
ragt 100
sequ 100
ספים 100
عليم 100
ولين 100
▁Hud 100
▁Neu 100
▁alb 100
▁dün 100
▁fet 100
▁nud 100
▁קצר 100
▁توق 100
▁ساب 100
druck 100
נתיים 100
ائرات 100
▁heut 100
▁stun 100
▁לבוא 100
▁الطي 100
▁بالج 100
▁بمقد 100
enness 100
roffen 100
ämpfen 100
▁Bruno 100
▁minul 100
▁vytvá 100
▁übers 100
▁הגבוה 100
▁Fehler 100
▁Govern 100
▁widely 100
▁החלטתי 100
▁founded 100
▁printed 100
▁reports 100
▁soziale 100
▁התמונות 100
▁الأنواع 100
▁establish 100
▁translate 100
▁suggesting 100
▁pharmaceutical 100
חל 100
יס 100
זין 100
כיב 100
▁تز 100
adel 100
utch 100
▁ísť 100
▁וחי 100
▁מהש 100
▁פחד 100
anges 100
▁Dorf 100
▁glad 100
▁tocc 100
▁הרגע 100
▁טבעי 100
▁להסת 100
▁أغلب 100
▁والص 100
ashing 100
▁Greek 100
▁cruci 100
▁excit 100
▁mögen 100
▁zvier 100
▁البلا 100
▁المدى 100
▁تعتبر 100
▁großer 100
▁לילדים 100
▁Medizin 100
▁gegeben 100
▁الموارد 100
▁بالمائة 100
▁compless 100
▁figuring 100
▁diagnosis 100
▁simulation 100
▁demonstrate 100
40 100
ju 100
гі 100
gov 100
əyi 100
בעה 100
▁MT 100
▁Zw 100
falt 100
noch 100
טניה 100
▁אנג 100
atson 100
blich 100
▁Hund 100
▁clot 100
▁scel 100
▁במאה 100
▁معين 100
▁Bangl 100
▁Ihrer 100
▁Karte 100
▁screw 100
▁العيش 100
▁تتحدث 100
▁Compan 100
▁albero 100
▁ethnic 100
▁במדינה 100
▁האקלים 100
▁exhaust 100
▁giocare 100
▁nazioni 100
▁niekedy 100
▁painted 100
▁telefon 100
▁physicist 100
▁Fähigkeiten 100
▁impossibile 100
▁istituzioni 100
▁participants 100
tr 100
▁Ə 100
טמו 100
כית 100
ثور 100
▁ון 100
deck 100
ická 100
▁Più 100
▁enh 100
▁zuf 100
▁סול 100
▁שמר 100
▁دفع 100
▁فلن 100
▁للو 100
▁مرك 100
aning 100
ostat 100
▁2013 100
▁asks 100
▁logo 100
▁החבר 100
▁العق 100
ivität 100
▁badly 100
▁mozgu 100
▁ottim 100
▁reson 100
▁המילה 100
▁ספרים 100
▁هائلة 100
jenigen 100
▁enormi 100
▁الليلة 100
indungen 100
▁anstatt 100
▁pretend 100
▁tsunami 100
▁פרוייקט 100
▁Shanghai 100
▁measures 100
▁romantic 100
▁Banglades 100
▁Forschung 100
▁highlight 100
▁mechanics 100
▁unprecedented 100
bet 100
šla 100
לנד 100
شاب 100
▁ін 100
imiz 100
פחות 100
▁Ann 100
▁wes 100
▁ста 100
▁أية 100
acher 100
▁bond 100
▁האופ 100
▁سلوك 100
cember 100
▁cryst 100
▁elite 100
▁kultú 100
▁lista 100
▁mixed 100
▁spero 100
▁السري 100
▁Arabic 100
▁dipend 100
▁größer 100
▁200,000 100
▁conosce 100
▁convinc 100
▁geschieht 100
▁biologists 100
▁prospettiva 100
▁Entscheidungen 100
נב 100
bte 100
ius 100
tať 100
ثيل 100
كيل 100
▁úč 100
▁ты 100
▁דם 100
▁20- 100
▁Bot 100
▁aký 100
▁vnú 100
▁השל 100
▁מתא 100
▁آلة 100
▁بشر 100
▁ونت 100
itiva 100
▁odds 100
▁מסוב 100
▁الأي 100
▁غريب 100
comput 100
fallen 100
▁cable 100
▁pocit 100
▁shout 100
▁חייבת 100
▁מצאתי 100
▁dragon 100
▁riport 100
▁setzen 100
▁האחרים 100
▁ואנשים 100
[...]
